<?xml version="1.0"?>
<opencv_storage>
<stage6>
  <maxWeakCount>4</maxWeakCount>
  <stageThreshold>-1.1444964408874512e+00</stageThreshold>
  <weakClassifiers>
    <_>
      <internalNodes>
        0 -1 10451 -67307523 -49498663 -176489475 -4533283 -375849987
        -1080493143 -1681850369 134744064</internalNodes>
      <leafValues>
        -7.4273258447647095e-01 7.1514934301376343e-01</leafValues></_>
    <_>
      <internalNodes>
        0 -1 96 -18944290 -2145954 -53296673 -51351348 -1410364497
        -277925 -36910341 -167776577</internalNodes>
      <leafValues>
        -7.0954728126525879e-01 6.2112748622894287e-01</leafValues></_>
    <_>
      <internalNodes>
        0 -1 1428 -389023489 -1058013201 -637534226 -788531214 71560939
        -989876225 2013263791 -134219861</internalNodes>
      <leafValues>
        -5.6491643190383911e-01 7.2211575508117676e-01</leafValues></_>
    <_>
      <internalNodes>
        0 -1 11359 -8389187 522973151 -746720772 536716031 1863023989
        2137565371 -342114883 -4199681</internalNodes>
      <leafValues>
        -5.8518213033676147e-01 6.5981495380401611e-01</leafValues></_></weakClassifiers></stage6>
</opencv_storage>
