<?xml version="1.0"?>
<opencv_storage>
<stage4>
  <maxWeakCount>4</maxWeakCount>
  <stageThreshold>-1.5972554683685303e+00</stageThreshold>
  <weakClassifiers>
    <_>
      <internalNodes>
        0 -1 960 -288423937 -10753 -658049 -2171558 -286326785 -4457793
        -288362497 -269486081</internalNodes>
      <leafValues>
        -8.0952382087707520e-01 4.4522145390510559e-01</leafValues></_>
    <_>
      <internalNodes>
        0 -1 9855 -1073496061 -2099377 -2097161 -136847377 -603979777
        -65 -3145793 -204475473</internalNodes>
      <leafValues>
        -6.3376945257186890e-01 7.0788162946701050e-01</leafValues></_>
    <_>
      <internalNodes>
        0 -1 380 -65542 -1380514 989003775 -1614753809 -4195329 -16421
        -2228225 -1</internalNodes>
      <leafValues>
        -7.2472095489501953e-01 5.5184298753738403e-01</leafValues></_>
    <_>
      <internalNodes>
        0 -1 8451 -1073496062 -2624585 -1241790977 -780140641 -740033553
        -5253205 -1017123841 -1055923329</internalNodes>
      <leafValues>
        -6.9394910335540771e-01 5.7075875997543335e-01</leafValues></_></weakClassifiers></stage4>
</opencv_storage>
