<?xml version="1.0"?>
<opencv_storage>
<stage9>
  <maxWeakCount>6</maxWeakCount>
  <stageThreshold>-1.6099810600280762e+00</stageThreshold>
  <weakClassifiers>
    <_>
      <internalNodes>
        0 -1 318 -528385 -543691009 -2014540545 265268479 -206570497
        -13895185 -67108865 -1</internalNodes>
      <leafValues>
        -7.5816303491592407e-01 3.4338200092315674e-01</leafValues></_>
    <_>
      <internalNodes>
        0 -1 9981 -1 -196612 -538643460 1037369150 904724476 1069049289
        1073511420 -1</internalNodes>
      <leafValues>
        -5.8330738544464111e-01 5.2275079488754272e-01</leafValues></_>
    <_>
      <internalNodes>
        0 -1 9089 1073487548 1610478493 -67182593 -17569 1002077119
        -1078031698 -1079316481 -1364526597</internalNodes>
      <leafValues>
        -8.2403302192687988e-01 3.5014018416404724e-01</leafValues></_>
    <_>
      <internalNodes>
        0 -1 1845 1112522979 573567727 1607401450 1525678062 -11537553
        -69213281 -2097221 -202375201</internalNodes>
      <leafValues>
        -6.0721814632415771e-01 5.1265388727188110e-01</leafValues></_>
    <_>
      <internalNodes>
        0 -1 514 -298926337 -1343247121 1877995519 -134253965 241172475
        -2057 -1946159233 -269000173</internalNodes>
      <leafValues>
        -5.3129082918167114e-01 5.9555786848068237e-01</leafValues></_>
    <_>
      <internalNodes>
        0 -1 9491 -1073233885 -570425861 -129 -201853473 -35653633 -17
        -101187585 -787495145</internalNodes>
      <leafValues>
        -5.3323709964752197e-01 5.7415938377380371e-01</leafValues></_></weakClassifiers></stage9>
</opencv_storage>
