<?xml version="1.0"?>
<opencv_storage>
<stage8>
  <maxWeakCount>5</maxWeakCount>
  <stageThreshold>-1.1505200862884521e+00</stageThreshold>
  <weakClassifiers>
    <_>
      <internalNodes>
        0 -1 1015 -889192449 -521146930 -37751041 -2097922 310105087
        1627388927 -67108869 -1</internalNodes>
      <leafValues>
        -7.8690683841705322e-01 3.0716133117675781e-01</leafValues></_>
    <_>
      <internalNodes>
        0 -1 7723 -1069301757 -1845249 -176952353 -137889793 -606340097
        -1055893 -85984257 -511711265</internalNodes>
      <leafValues>
        -5.9062403440475464e-01 5.4247939586639404e-01</leafValues></_>
    <_>
      <internalNodes>
        0 -1 2914 -87043390 -614468977 -539757065 -779095454 -67372305
        -70292581 -69208129 1124857679</internalNodes>
      <leafValues>
        -6.1019635200500488e-01 5.0490117073059082e-01</leafValues></_>
    <_>
      <internalNodes>
        0 -1 11411 -8385 494796671 -844114531 -1914840579 232720413
        -829748771 -553001123 -572661923</internalNodes>
      <leafValues>
        -5.9593528509140015e-01 5.3875982761383057e-01</leafValues></_>
    <_>
      <internalNodes>
        0 -1 4494 -68265988 2147449269 -4227137 2108905300 -254885953
        -71611717 1805523707 2142074692</internalNodes>
      <leafValues>
        -7.7602332830429077e-01 3.9745363593101501e-01</leafValues></_></weakClassifiers></stage8>
</opencv_storage>
