<?xml version="1.0"?>
<opencv_storage>
<stage11>
  <maxWeakCount>6</maxWeakCount>
  <stageThreshold>-1.7952278852462769e+00</stageThreshold>
  <weakClassifiers>
    <_>
      <internalNodes>
        0 -1 2252 1375580411 1087108078 -2097170 -33557761 -337641745
        -4470533 -67109129 -68167681</internalNodes>
      <leafValues>
        -7.3533833026885986e-01 2.4966140091419220e-01</leafValues></_>
    <_>
      <internalNodes>
        0 -1 11248 -4 -2293779 529463804 -1222665217 -76356 -67514375
        1025243581 -8388609</internalNodes>
      <leafValues>
        -7.0604592561721802e-01 3.1914553046226501e-01</leafValues></_>
    <_>
      <internalNodes>
        0 -1 8685 -1073496062 -100928513 -704643073 -682362899
        -109054021 -84938265 -234881057 -1022638689</internalNodes>
      <leafValues>
        -6.3049882650375366e-01 4.0444949269294739e-01</leafValues></_>
    <_>
      <internalNodes>
        0 -1 11439 -33751043 -1075249155 -1346603011 -1074233347
        -1430738246 -1430607176 519454655 -1414266977</internalNodes>
      <leafValues>
        -4.9429988861083984e-01 5.4314768314361572e-01</leafValues></_>
    <_>
      <internalNodes>
        0 -1 3500 -16642 -78334392 337643162 874574990 -538181156
        259280040 1484550140 2146435071</internalNodes>
      <leafValues>
        -6.8301886320114136e-01 4.2098119854927063e-01</leafValues></_>
    <_>
      <internalNodes>
        0 -1 849 -1816154308 -1078223949 -1343027265 -1179185317
        -1685873665 -1075269929 -1417072642 -1078259713</internalNodes>
      <leafValues>
        -6.3502585887908936e-01 3.8193953037261963e-01</leafValues></_></weakClassifiers></stage11>
</opencv_storage>
