<?xml version="1.0"?>
<!--
opencv_traincascade -data /home/holger/cv/data_mixed/p5000_n4000_52x13_fa_01/ -vec /home/holger/cv/kennzeichen_all_bg/kennzeichen_52x13.vec -bg /home/holger/cv/data_openalpr/index_neg.info -numPos 5000 -numNeg 4000 -numStages 8 -w 52 -h 13 -featureType LBP -maxFalseAlarmRate 0.1

Nach über 24 Stunden wurde die Berechnung der Stage 8 abgebrochen.
-->
<opencv_storage>
<cascade>
  <stageType>BOOST</stageType>
  <featureType>LBP</featureType>
  <height>13</height>
  <width>52</width>
  <stageParams>
    <boostType>GAB</boostType>
    <minHitRate>9.9500000476837158e-01</minHitRate>
    <maxFalseAlarm>1.0000000149011612e-01</maxFalseAlarm>
    <weightTrimRate>9.4999999999999996e-01</weightTrimRate>
    <maxDepth>1</maxDepth>
    <maxWeakCount>100</maxWeakCount></stageParams>
  <featureParams>
    <maxCatCount>256</maxCatCount>
    <featSize>1</featSize></featureParams>
  <stageNum>8</stageNum>
  <stages>
    <!-- stage 0 -->
    <_>
      <maxWeakCount>4</maxWeakCount>
      <stageThreshold>-2.7023079991340637e-01</stageThreshold>
      <weakClassifiers>
        <_>
          <internalNodes>
            0 -1 35 286263480 1062277337 352326141 1595736473 713033978
            -1147631478 143305407 -1442129733</internalNodes>
          <leafValues>
            -9.0228188037872314e-01 8.2672983407974243e-01</leafValues></_>
        <_>
          <internalNodes>
            0 -1 3 -666892066 -577634152 -2079309313 -577765364
            -1719105285 -74841974 -1970762753 -609746808</internalNodes>
          <leafValues>
            -8.6611098051071167e-01 7.7011168003082275e-01</leafValues></_>
        <_>
          <internalNodes>
            0 -1 34 -754876008 -49184675 218169525 521734301 -2012702535
            -1148714871 168436415 530251947</internalNodes>
          <leafValues>
            -8.3306694030761719e-01 7.1184611320495605e-01</leafValues></_>
        <_>
          <internalNodes>
            0 -1 50 -206242819 -44302247 1896143325 -551731115
            -2012813171 -5766984 -1970796037 -2004352000</internalNodes>
          <leafValues>
            -8.2085698843002319e-01 6.9500637054443359e-01</leafValues></_></weakClassifiers></_>
    <!-- stage 1 -->
    <_>
      <maxWeakCount>4</maxWeakCount>
      <stageThreshold>-4.5011088252067566e-02</stageThreshold>
      <weakClassifiers>
        <_>
          <internalNodes>
            0 -1 23 -1828695792 965939217 285282653 -1659305705
            -1475102535 -1079967616 679674299 1001063359</internalNodes>
          <leafValues>
            -8.2415199279785156e-01 7.5954842567443848e-01</leafValues></_>
        <_>
          <internalNodes>
            0 -1 66 -581439080 2100830421 -783167012 -537145063
            1359550941 993069064 -912533031 -67110421</internalNodes>
          <leafValues>
            -7.3603743314743042e-01 7.9861539602279663e-01</leafValues></_>
        <_>
          <internalNodes>
            0 -1 36 -2566660 1938047572 335548440 386405144 1359519916
            320864384 671101832 -1077952577</internalNodes>
          <leafValues>
            -7.6670747995376587e-01 7.1440601348876953e-01</leafValues></_>
        <_>
          <internalNodes>
            0 -1 4 -1114114 -4097 737059071 -1103190 -1879136257 -4225
            -2086008145 -1951724533</internalNodes>
          <leafValues>
            -6.7355895042419434e-01 8.0077224969863892e-01</leafValues></_></weakClassifiers></_>
    <!-- stage 2 -->
    <_>
      <maxWeakCount>6</maxWeakCount>
      <stageThreshold>-2.7361878752708435e-01</stageThreshold>
      <weakClassifiers>
        <_>
          <internalNodes>
            0 -1 12 -1052689 7252718 -292640214 145402511 -1 7694839
            -337 -1</internalNodes>
          <leafValues>
            -6.7229980230331421e-01 7.6164329051971436e-01</leafValues></_>
        <_>
          <internalNodes>
            0 -1 44 -2293763 -220195 -8618019 -27619 -197635 -352519
            -69533697 -1430648832</internalNodes>
          <leafValues>
            -7.7383559942245483e-01 6.4956432580947876e-01</leafValues></_>
        <_>
          <internalNodes>
            0 -1 2 -200962 -7458 -811704321 -33753114 -4461825 -4224273
            -4330497 -136450</internalNodes>
          <leafValues>
            -6.8756216764450073e-01 6.3710808753967285e-01</leafValues></_>
        <_>
          <internalNodes>
            0 -1 39 1058086716 2132670975 -1075847169 -2111057
            1072659390 -71399265 -1086653458 -268455938</internalNodes>
          <leafValues>
            -7.7155345678329468e-01 5.5186098814010620e-01</leafValues></_>
        <_>
          <internalNodes>
            0 -1 46 -1073496061 -684195929 -536871042 -563761 -241174593
            -101714049 -337641473 -1055930577</internalNodes>
          <leafValues>
            -5.6381779909133911e-01 7.6392102241516113e-01</leafValues></_>
        <_>
          <internalNodes>
            0 -1 61 -500702718 -1844264926 -1073512446 -2138906494
            -216281087 -1609953277 -704134911 1107818247</internalNodes>
          <leafValues>
            -7.9127776622772217e-01 5.4304099082946777e-01</leafValues></_></weakClassifiers></_>
    <!-- stage 3 -->
    <_>
      <maxWeakCount>9</maxWeakCount>
      <stageThreshold>-2.3398180305957794e-01</stageThreshold>
      <weakClassifiers>
        <_>
          <internalNodes>
            0 -1 27 -500228 -699435 -57345 -35843 -16974850 -279617
            -71532545 -303808384</internalNodes>
          <leafValues>
            -6.8819981813430786e-01 6.1573320627212524e-01</leafValues></_>
        <_>
          <internalNodes>
            0 -1 1 -286332178 -279983385 -1916022865 -1342181409
            -1630802497 -2105954 -838865409 -1</internalNodes>
          <leafValues>
            -6.8635886907577515e-01 5.9248656034469604e-01</leafValues></_>
        <_>
          <internalNodes>
            0 -1 63 2147434416 1069441020 -1342226960 -2171970
            1593661436 2142895054 -71304516 -4098</internalNodes>
          <leafValues>
            -8.5306310653686523e-01 4.3380314111709595e-01</leafValues></_>
        <_>
          <internalNodes>
            0 -1 9 -1431657793 -134745707 -27666445 -167201 -894781453
            -268725077 -292559619 -941140745</internalNodes>
          <leafValues>
            -6.5202611684799194e-01 5.6447267532348633e-01</leafValues></_>
        <_>
          <internalNodes>
            0 -1 31 489688252 -1077938721 -73484291 -156675 2146353151
            -71395145 -1115141 -1509762853</internalNodes>
          <leafValues>
            -8.4809052944183350e-01 3.9720413088798523e-01</leafValues></_>
        <_>
          <internalNodes>
            0 -1 57 -2 1603858332 399539188 524055548 1870200700
            734546000 1073245180 -32801</internalNodes>
          <leafValues>
            -6.7278486490249634e-01 5.1187783479690552e-01</leafValues></_>
        <_>
          <internalNodes>
            0 -1 58 -1069301758 -13658114 -100663329 -78645793
            -135276865 -90191325 -547367953 -1022377165</internalNodes>
          <leafValues>
            -5.7869929075241089e-01 6.0434710979461670e-01</leafValues></_>
        <_>
          <internalNodes>
            0 -1 11 1231027551 137342606 -169880077 -310386033
            1232827149 203151598 -1178864319 1170200551</internalNodes>
          <leafValues>
            -6.5654867887496948e-01 4.9090757966041565e-01</leafValues></_>
        <_>
          <internalNodes>
            0 -1 37 -2143075326 -546316877 -219948553 -149162529
            -87035905 -105939353 -206835713 -467156185</internalNodes>
          <leafValues>
            -6.3924956321716309e-01 5.2044290304183960e-01</leafValues></_></weakClassifiers></_>
    <!-- stage 4 -->
    <_>
      <maxWeakCount>10</maxWeakCount>
      <stageThreshold>-6.0569876432418823e-01</stageThreshold>
      <weakClassifiers>
        <_>
          <internalNodes>
            0 -1 69 -4 -14708993 -537404164 -1174668801 -1431688536
            -1364547414 -1163354952 -1431634245</internalNodes>
          <leafValues>
            -6.4826411008834839e-01 5.9752094745635986e-01</leafValues></_>
        <_>
          <internalNodes>
            0 -1 16 -523241233 -991177265 -1737367569 -788539694 313963
            1090508767 1994126319 -6145</internalNodes>
          <leafValues>
            -5.7652658224105835e-01 6.2155294418334961e-01</leafValues></_>
        <_>
          <internalNodes>
            0 -1 24 -118865728 -531465 -35700769 -33700355 -1185026
            -33576289 -3802146 -186588476</internalNodes>
          <leafValues>
            -7.9988503456115723e-01 4.2509299516677856e-01</leafValues></_>
        <_>
          <internalNodes>
            0 -1 64 2134900537 1060608891 1538259837 -282629 2144861053
            2004593135 -1148490787 -336855047</internalNodes>
          <leafValues>
            -6.2332063913345337e-01 5.3145730495452881e-01</leafValues></_>
        <_>
          <internalNodes>
            0 -1 48 -1073487869 -75501105 -132393509 -168297089
            -237241345 -3414857 -473433109 -1022377185</internalNodes>
          <leafValues>
            -5.4153448343276978e-01 5.9882581233978271e-01</leafValues></_>
        <_>
          <internalNodes>
            0 -1 40 -537069731 -673523875 -551232003 -4392171 -269812739
            -1146163779 -1078039553 -1431696379</internalNodes>
          <leafValues>
            -7.3324954509735107e-01 4.2975541949272156e-01</leafValues></_>
        <_>
          <internalNodes>
            0 -1 47 -2049 2147024380 536117244 1060405214 400154620
            511213044 528252924 -3</internalNodes>
          <leafValues>
            -5.4561376571655273e-01 6.0175579786300659e-01</leafValues></_>
        <_>
          <internalNodes>
            0 -1 15 -368412585 -714380937 2000936445 -547661415
            -1095919105 -5642885 -2361093 2112637133</internalNodes>
          <leafValues>
            -5.7791334390640259e-01 5.3343874216079712e-01</leafValues></_>
        <_>
          <internalNodes>
            0 -1 38 -4162 -388845412 -1971183576 242093204 -378338972
            166592516 946483976 2111831539</internalNodes>
          <leafValues>
            -6.9096273183822632e-01 4.4379609823226929e-01</leafValues></_>
        <_>
          <internalNodes>
            0 -1 45 -541698 -150329966 219191384 328760664 -1422600024
            702026372 786791420 2139095039</internalNodes>
          <leafValues>
            -6.6870200634002686e-01 4.4979229569435120e-01</leafValues></_></weakClassifiers></_>
    <!-- stage 5 -->
    <_>
      <maxWeakCount>12</maxWeakCount>
      <stageThreshold>-4.9380007386207581e-01</stageThreshold>
      <weakClassifiers>
        <_>
          <internalNodes>
            0 -1 8 -65537 -134587553 -69533697 -1154319041 -67108869
            -14204644 -196609 -524289</internalNodes>
          <leafValues>
            -3.7313431501388550e-01 8.0253577232360840e-01</leafValues></_>
        <_>
          <internalNodes>
            0 -1 33 -721412 -804353 -1077955649 -537420901 1340665791
            -37381 798952366 805240834</internalNodes>
          <leafValues>
            -6.7762303352355957e-01 4.7226023674011230e-01</leafValues></_>
        <_>
          <internalNodes>
            0 -1 52 -1073496062 -169896577 -713826817 -206569637
            -337641473 -376704614 -135266305 -1020280273</internalNodes>
          <leafValues>
            -5.5996435880661011e-01 5.0266134738922119e-01</leafValues></_>
        <_>
          <internalNodes>
            0 -1 0 -353377033 -10021897 2113927167 2146915319
            -1364221699 -541108745 -823402241 -1894821643</internalNodes>
          <leafValues>
            -4.7832289338111877e-01 5.5864375829696655e-01</leafValues></_>
        <_>
          <internalNodes>
            0 -1 59 -2 2143091708 1548779516 1039941628 2146237433
            1021849249 517750760 -1025</internalNodes>
          <leafValues>
            -5.7224464416503906e-01 4.5576456189155579e-01</leafValues></_>
        <_>
          <internalNodes>
            0 -1 7 -134303746 253496094 -2025189509 805250939 -343169281
            -74769781 -1010057729 -8209</internalNodes>
          <leafValues>
            -5.9545975923538208e-01 4.8220378160476685e-01</leafValues></_>
        <_>
          <internalNodes>
            0 -1 25 -73405593 -2081970906 -2137529726 -2144345634
            -970073314 34286094 -746065913 1205860319</internalNodes>
          <leafValues>
            -6.4020776748657227e-01 4.1584184765815735e-01</leafValues></_>
        <_>
          <internalNodes>
            0 -1 42 -2147461801 -14740651 -2057506305 -1113696389
            -1143419139 -31245510 -1103381799 -1074102309</internalNodes>
          <leafValues>
            -5.3408581018447876e-01 5.2047783136367798e-01</leafValues></_>
        <_>
          <internalNodes>
            0 -1 54 -2163974 -646052976 691053116 1034959504 -1887659544
            414715877 1030797742 2147482623</internalNodes>
          <leafValues>
            -6.6506963968276978e-01 3.7956938147544861e-01</leafValues></_>
        <_>
          <internalNodes>
            0 -1 51 524271544 454205667 -24906787 -35673185 1874852734
            -1152744950 -70267910 -269752182</internalNodes>
          <leafValues>
            -6.7526692152023315e-01 3.8488993048667908e-01</leafValues></_>
        <_>
          <internalNodes>
            0 -1 49 -1 2144919486 859336568 1073509148 -4399172
            804801277 1056748028 -67109923</internalNodes>
          <leafValues>
            -5.2586835622787476e-01 5.3338223695755005e-01</leafValues></_>
        <_>
          <internalNodes>
            0 -1 22 -1199385131 -1073819629 1238060383 -1082404385
            -644149765 -610556000 -1415701509 -1970323109</internalNodes>
          <leafValues>
            -5.2272719144821167e-01 5.1037472486495972e-01</leafValues></_></weakClassifiers></_>
    <!-- stage 6 -->
    <_>
      <maxWeakCount>13</maxWeakCount>
      <stageThreshold>-6.3778334856033325e-01</stageThreshold>
      <weakClassifiers>
        <_>
          <internalNodes>
            0 -1 10 -286261249 -1364218129 -1 -672010 234881023
            -1073741825 1744830463 -35721</internalNodes>
          <leafValues>
            -4.4943329691886902e-01 6.9401633739471436e-01</leafValues></_>
        <_>
          <internalNodes>
            0 -1 67 2147450876 1069176639 1610513404 2133621335
            1060060152 1073415075 1501780124 -68288513</internalNodes>
          <leafValues>
            -7.6467198133468628e-01 3.7948280572891235e-01</leafValues></_>
        <_>
          <internalNodes>
            0 -1 53 -1870637601 -71305345 -1095839745 -1076366017
            -1158988033 -23349603 -73416709 -1073840673</internalNodes>
          <leafValues>
            -5.1599103212356567e-01 4.8325189948081970e-01</leafValues></_>
        <_>
          <internalNodes>
            0 -1 28 -503193086 -1319921121 -753403525 -711724205
            -352330245 -543254361 -890504197 1359729155</internalNodes>
          <leafValues>
            -5.9392380714416504e-01 4.2020964622497559e-01</leafValues></_>
        <_>
          <internalNodes>
            0 -1 19 1113547503 19912527 2027420642 -222560530 -71305313
            -4198265 -603983111 -204474421</internalNodes>
          <leafValues>
            -4.9894693493843079e-01 4.8885309696197510e-01</leafValues></_>
        <_>
          <internalNodes>
            0 -1 41 -1068514297 -137627657 -276955137 -67111297
            -100663297 -33562625 -1 -1015036033</internalNodes>
          <leafValues>
            -4.6580553054809570e-01 5.2491307258605957e-01</leafValues></_>
        <_>
          <internalNodes>
            0 -1 29 -104050212 -136497194 -1624541697 -71353434
            -86230082 -1165264214 -357602629 -190571004</internalNodes>
          <leafValues>
            -7.8117972612380981e-01 3.4574586153030396e-01</leafValues></_>
        <_>
          <internalNodes>
            0 -1 68 -675291330 522183515 -928393476 232117151 1153370648
            1335577755 -914239279 -912928187</internalNodes>
          <leafValues>
            -6.9914716482162476e-01 3.2025969028472900e-01</leafValues></_>
        <_>
          <internalNodes>
            0 -1 20 -1223184964 -146821185 -1349966913 930819007
            -1151788033 -1076681917 -1416812545 1062142847</internalNodes>
          <leafValues>
            -7.4286532402038574e-01 2.8770875930786133e-01</leafValues></_>
        <_>
          <internalNodes>
            0 -1 55 -403708125 1804560938 -366026750 1610823435
            1219380302 1241925120 1619460226 1388313599</internalNodes>
          <leafValues>
            -6.9184160232543945e-01 3.4651803970336914e-01</leafValues></_>
        <_>
          <internalNodes>
            0 -1 26 -33099126 -620790241 -582494241 -742132554
            -1412436993 -1699743461 -1912735825 1074789275</internalNodes>
          <leafValues>
            -5.6914162635803223e-01 4.0284121036529541e-01</leafValues></_>
        <_>
          <internalNodes>
            0 -1 32 246786 -14159361 -1258031265 -1256718375 -543424769
            -70613492 -938877441 -989346713</internalNodes>
          <leafValues>
            -6.3588380813598633e-01 3.6179712414741516e-01</leafValues></_>
        <_>
          <internalNodes>
            0 -1 14 -1687134433 -608415463 -1256400513 -1089965484
            -800171652 -32858109 -258977559 -1129518307</internalNodes>
          <leafValues>
            -5.0842702388763428e-01 4.9819222092628479e-01</leafValues></_></weakClassifiers></_>
    <!-- stage 7 -->
    <_>
      <maxWeakCount>15</maxWeakCount>
      <stageThreshold>-3.6703655123710632e-01</stageThreshold>
      <weakClassifiers>
        <_>
          <internalNodes>
            0 -1 6 -931139969 -799019265 -251663617 -541327617
            -143130917 -193012129 -109064193 -1</internalNodes>
          <leafValues>
            -3.4110566973686218e-01 7.6425856351852417e-01</leafValues></_>
        <_>
          <internalNodes>
            0 -1 13 1022212691 1610349234 2038431039 -18821 -822083585
            -2049 1155530581 -167774604</internalNodes>
          <leafValues>
            -4.1433435678482056e-01 5.3651326894760132e-01</leafValues></_>
        <_>
          <internalNodes>
            0 -1 5 -202903821 1459864783 33599206 235668727 -343147585
            -5535302 -272629777 -2098181</internalNodes>
          <leafValues>
            -4.7327601909637451e-01 4.7250318527221680e-01</leafValues></_>
        <_>
          <internalNodes>
            0 -1 60 1073741823 1068424061 1026873341 -539192675
            988314297 985323567 1863638749 -68933</internalNodes>
          <leafValues>
            -4.4603151082992554e-01 4.9312525987625122e-01</leafValues></_>
        <_>
          <internalNodes>
            0 -1 43 -105930984 1562155285 1061572607 1064511931
            -556988993 -1351810147 804195071 1073706747</internalNodes>
          <leafValues>
            -6.6572612524032593e-01 2.8865584731101990e-01</leafValues></_>
        <_>
          <internalNodes>
            0 -1 62 -8389124 -150870035 55734580 391500727 -1020542724
            -1155478627 188258708 2139094943</internalNodes>
          <leafValues>
            -6.7749667167663574e-01 3.0164131522178650e-01</leafValues></_>
        <_>
          <internalNodes>
            0 -1 72 -671132877 -134758989 -134220879 -204001359
            -137633357 -939538441 -1799702541 -2026439062</internalNodes>
          <leafValues>
            -3.9885786175727844e-01 5.4637187719345093e-01</leafValues></_>
        <_>
          <internalNodes>
            0 -1 18 539160816 -799280153 -40771990 -2100274 1563417055
            -87864889 -3407893 -790112293</internalNodes>
          <leafValues>
            -5.2717322111129761e-01 4.3586754798889160e-01</leafValues></_>
        <_>
          <internalNodes>
            0 -1 65 -1073528830 -610274765 -18874401 -715132551
            -813700089 -1695145 -1040449793 -746598889</internalNodes>
          <leafValues>
            -5.4411804676055908e-01 3.9179575443267822e-01</leafValues></_>
        <_>
          <internalNodes>
            0 -1 17 -604964354 -619580654 -1049216333 -70454616
            -32667473 -821519181 -1415896401 196018186</internalNodes>
          <leafValues>
            -6.6269153356552124e-01 3.2982534170150757e-01</leafValues></_>
        <_>
          <internalNodes>
            0 -1 30 -277286692 -1760519910 -1314891344 935426522
            -1097294104 -1170408054 664296159 -72691713</internalNodes>
          <leafValues>
            -6.8852227926254272e-01 2.7139791846275330e-01</leafValues></_>
        <_>
          <internalNodes>
            0 -1 56 -33571841 -1346502010 826155032 533667204 713730798
            734665600 225783242 2147482859</internalNodes>
          <leafValues>
            -5.3394901752471924e-01 4.2078378796577454e-01</leafValues></_>
        <_>
          <internalNodes>
            0 -1 71 -1933894187 -1881435944 286485740 796969100
            676208828 -1431697123 -45094692 -98369582</internalNodes>
          <leafValues>
            -5.4892551898956299e-01 3.9007109403610229e-01</leafValues></_>
        <_>
          <internalNodes>
            0 -1 21 -1398090404 -1075881570 -46460525 -35343884
            -1349545573 -4505405 -1450354534 1709561308</internalNodes>
          <leafValues>
            -6.4084029197692871e-01 3.3664757013320923e-01</leafValues></_>
        <_>
          <internalNodes>
            0 -1 70 -1074807041 -1083432963 -1090754567 1039679485
            -1356288326 -1430639944 486038399 -1140855267</internalNodes>
          <leafValues>
            -4.2130285501480103e-01 5.1932519674301147e-01</leafValues></_></weakClassifiers></_></stages>
  <features>
    <_>
      <rect>
        0 0 3 1</rect></_>
    <_>
      <rect>
        0 0 12 4</rect></_>
    <_>
      <rect>
        0 1 9 1</rect></_>
    <_>
      <rect>
        0 1 13 1</rect></_>
    <_>
      <rect>
        0 2 15 1</rect></_>
    <_>
      <rect>
        0 5 15 2</rect></_>
    <_>
      <rect>
        0 6 3 2</rect></_>
    <_>
      <rect>
        0 6 12 2</rect></_>
    <_>
      <rect>
        0 10 4 1</rect></_>
    <_>
      <rect>
        1 0 3 1</rect></_>
    <_>
      <rect>
        1 1 2 1</rect></_>
    <_>
      <rect>
        1 1 2 3</rect></_>
    <_>
      <rect>
        1 2 3 3</rect></_>
    <_>
      <rect>
        2 1 1 1</rect></_>
    <_>
      <rect>
        2 10 2 1</rect></_>
    <_>
      <rect>
        3 0 2 1</rect></_>
    <_>
      <rect>
        3 2 1 1</rect></_>
    <_>
      <rect>
        3 2 11 1</rect></_>
    <_>
      <rect>
        4 2 1 1</rect></_>
    <_>
      <rect>
        4 2 1 2</rect></_>
    <_>
      <rect>
        4 8 16 1</rect></_>
    <_>
      <rect>
        5 1 2 1</rect></_>
    <_>
      <rect>
        6 0 2 1</rect></_>
    <_>
      <rect>
        6 0 13 1</rect></_>
    <_>
      <rect>
        6 1 3 1</rect></_>
    <_>
      <rect>
        6 3 1 2</rect></_>
    <_>
      <rect>
        7 0 1 3</rect></_>
    <_>
      <rect>
        7 1 12 1</rect></_>
    <_>
      <rect>
        8 0 1 3</rect></_>
    <_>
      <rect>
        8 1 7 1</rect></_>
    <_>
      <rect>
        8 7 7 2</rect></_>
    <_>
      <rect>
        8 9 12 1</rect></_>
    <_>
      <rect>
        10 0 1 2</rect></_>
    <_>
      <rect>
        10 2 13 1</rect></_>
    <_>
      <rect>
        10 8 14 1</rect></_>
    <_>
      <rect>
        10 9 13 1</rect></_>
    <_>
      <rect>
        15 7 1 2</rect></_>
    <_>
      <rect>
        21 0 1 2</rect></_>
    <_>
      <rect>
        25 3 1 3</rect></_>
    <_>
      <rect>
        25 9 9 1</rect></_>
    <_>
      <rect>
        26 10 4 1</rect></_>
    <_>
      <rect>
        27 0 1 2</rect></_>
    <_>
      <rect>
        27 0 2 1</rect></_>
    <_>
      <rect>
        27 8 8 1</rect></_>
    <_>
      <rect>
        27 10 6 1</rect></_>
    <_>
      <rect>
        28 4 1 3</rect></_>
    <_>
      <rect>
        30 0 1 2</rect></_>
    <_>
      <rect>
        30 7 1 2</rect></_>
    <_>
      <rect>
        32 0 1 2</rect></_>
    <_>
      <rect>
        32 7 1 2</rect></_>
    <_>
      <rect>
        32 10 5 1</rect></_>
    <_>
      <rect>
        33 9 6 1</rect></_>
    <_>
      <rect>
        35 0 1 2</rect></_>
    <_>
      <rect>
        36 0 2 1</rect></_>
    <_>
      <rect>
        37 4 1 3</rect></_>
    <_>
      <rect>
        37 5 1 1</rect></_>
    <_>
      <rect>
        39 6 1 2</rect></_>
    <_>
      <rect>
        39 7 1 2</rect></_>
    <_>
      <rect>
        40 0 1 2</rect></_>
    <_>
      <rect>
        42 7 1 2</rect></_>
    <_>
      <rect>
        42 9 1 1</rect></_>
    <_>
      <rect>
        43 1 1 3</rect></_>
    <_>
      <rect>
        43 7 3 2</rect></_>
    <_>
      <rect>
        43 9 2 1</rect></_>
    <_>
      <rect>
        43 9 3 1</rect></_>
    <_>
      <rect>
        44 0 1 2</rect></_>
    <_>
      <rect>
        45 9 2 1</rect></_>
    <_>
      <rect>
        46 9 1 1</rect></_>
    <_>
      <rect>
        46 9 2 1</rect></_>
    <_>
      <rect>
        46 10 2 1</rect></_>
    <_>
      <rect>
        47 10 1 1</rect></_>
    <_>
      <rect>
        48 10 1 1</rect></_>
    <_>
      <rect>
        49 9 1 1</rect></_></features></cascade>
</opencv_storage>
