<?xml version="1.0"?>
<opencv_storage>
<stage0>
  <maxWeakCount>4</maxWeakCount>
  <stageThreshold>-2.7023079991340637e-01</stageThreshold>
  <weakClassifiers>
    <_>
      <internalNodes>
        0 -1 4378 286263480 1062277337 352326141 1595736473 713033978
        -1147631478 143305407 -1442129733</internalNodes>
      <leafValues>
        -9.0228188037872314e-01 8.2672983407974243e-01</leafValues></_>
    <_>
      <internalNodes>
        0 -1 116 -666892066 -577634152 -2079309313 -577765364
        -1719105285 -74841974 -1970762753 -609746808</internalNodes>
      <leafValues>
        -8.6611098051071167e-01 7.7011168003082275e-01</leafValues></_>
    <_>
      <internalNodes>
        0 -1 4365 -754876008 -49184675 218169525 521734301 -2012702535
        -1148714871 168436415 530251947</internalNodes>
      <leafValues>
        -8.3306694030761719e-01 7.1184611320495605e-01</leafValues></_>
    <_>
      <internalNodes>
        0 -1 10008 -206242819 -44302247 1896143325 -551731115
        -2012813171 -5766984 -1970796037 -2004352000</internalNodes>
      <leafValues>
        -8.2085698843002319e-01 6.9500637054443359e-01</leafValues></_></weakClassifiers></stage0>
</opencv_storage>
