<?xml version="1.0"?>
<opencv_storage>
<stage6>
  <maxWeakCount>13</maxWeakCount>
  <stageThreshold>-6.3778334856033325e-01</stageThreshold>
  <weakClassifiers>
    <_>
      <internalNodes>
        0 -1 514 -286261249 -1364218129 -1 -672010 234881023 -1073741825
        1744830463 -35721</internalNodes>
      <leafValues>
        -4.4943329691886902e-01 6.9401633739471436e-01</leafValues></_>
    <_>
      <internalNodes>
        0 -1 11410 2147450876 1069176639 1610513404 2133621335
        1060060152 1073415075 1501780124 -68288513</internalNodes>
      <leafValues>
        -7.6467198133468628e-01 3.7948280572891235e-01</leafValues></_>
    <_>
      <internalNodes>
        0 -1 10456 -1870637601 -71305345 -1095839745 -1076366017
        -1158988033 -23349603 -73416709 -1073840673</internalNodes>
      <leafValues>
        -5.1599103212356567e-01 4.8325189948081970e-01</leafValues></_>
    <_>
      <internalNodes>
        0 -1 3304 -503193086 -1319921121 -753403525 -711724205
        -352330245 -543254361 -890504197 1359729155</internalNodes>
      <leafValues>
        -5.9392380714416504e-01 4.2020964622497559e-01</leafValues></_>
    <_>
      <internalNodes>
        0 -1 1845 1113547503 19912527 2027420642 -222560530 -71305313
        -4198265 -603983111 -204474421</internalNodes>
      <leafValues>
        -4.9894693493843079e-01 4.8885309696197510e-01</leafValues></_>
    <_>
      <internalNodes>
        0 -1 8893 -1068514297 -137627657 -276955137 -67111297 -100663297
        -33562625 -1 -1015036033</internalNodes>
      <leafValues>
        -4.6580553054809570e-01 5.2491307258605957e-01</leafValues></_>
    <_>
      <internalNodes>
        0 -1 3382 -104050212 -136497194 -1624541697 -71353434 -86230082
        -1165264214 -357602629 -190571004</internalNodes>
      <leafValues>
        -7.8117972612380981e-01 3.4574586153030396e-01</leafValues></_>
    <_>
      <internalNodes>
        0 -1 11411 -675291330 522183515 -928393476 232117151 1153370648
        1335577755 -914239279 -912928187</internalNodes>
      <leafValues>
        -6.9914716482162476e-01 3.2025969028472900e-01</leafValues></_>
    <_>
      <internalNodes>
        0 -1 2099 -1223184964 -146821185 -1349966913 930819007
        -1151788033 -1076681917 -1416812545 1062142847</internalNodes>
      <leafValues>
        -7.4286532402038574e-01 2.8770875930786133e-01</leafValues></_>
    <_>
      <internalNodes>
        0 -1 10667 -403708125 1804560938 -366026750 1610823435
        1219380302 1241925120 1619460226 1388313599</internalNodes>
      <leafValues>
        -6.9184160232543945e-01 3.4651803970336914e-01</leafValues></_>
    <_>
      <internalNodes>
        0 -1 2914 -33099126 -620790241 -582494241 -742132554 -1412436993
        -1699743461 -1912735825 1074789275</internalNodes>
      <leafValues>
        -5.6914162635803223e-01 4.0284121036529541e-01</leafValues></_>
    <_>
      <internalNodes>
        0 -1 4031 246786 -14159361 -1258031265 -1256718375 -543424769
        -70613492 -938877441 -989346713</internalNodes>
      <leafValues>
        -6.3588380813598633e-01 3.6179712414741516e-01</leafValues></_>
    <_>
      <internalNodes>
        0 -1 1285 -1687134433 -608415463 -1256400513 -1089965484
        -800171652 -32858109 -258977559 -1129518307</internalNodes>
      <leafValues>
        -5.0842702388763428e-01 4.9819222092628479e-01</leafValues></_></weakClassifiers></stage6>
</opencv_storage>
