<?xml version="1.0"?>
<opencv_storage>
<stage5>
  <maxWeakCount>12</maxWeakCount>
  <stageThreshold>-4.9380007386207581e-01</stageThreshold>
  <weakClassifiers>
    <_>
      <internalNodes>
        0 -1 428 -65537 -134587553 -69533697 -1154319041 -67108869
        -14204644 -196609 -524289</internalNodes>
      <leafValues>
        -3.7313431501388550e-01 8.0253577232360840e-01</leafValues></_>
    <_>
      <internalNodes>
        0 -1 4178 -721412 -804353 -1077955649 -537420901 1340665791
        -37381 798952366 805240834</internalNodes>
      <leafValues>
        -6.7762303352355957e-01 4.7226023674011230e-01</leafValues></_>
    <_>
      <internalNodes>
        0 -1 10323 -1073496062 -169896577 -713826817 -206569637
        -337641473 -376704614 -135266305 -1020280273</internalNodes>
      <leafValues>
        -5.5996435880661011e-01 5.0266134738922119e-01</leafValues></_>
    <_>
      <internalNodes>
        0 -1 8 -353377033 -10021897 2113927167 2146915319 -1364221699
        -541108745 -823402241 -1894821643</internalNodes>
      <leafValues>
        -4.7832289338111877e-01 5.5864375829696655e-01</leafValues></_>
    <_>
      <internalNodes>
        0 -1 11166 -2 2143091708 1548779516 1039941628 2146237433
        1021849249 517750760 -1025</internalNodes>
      <leafValues>
        -5.7224464416503906e-01 4.5576456189155579e-01</leafValues></_>
    <_>
      <internalNodes>
        0 -1 346 -134303746 253496094 -2025189509 805250939 -343169281
        -74769781 -1010057729 -8209</internalNodes>
      <leafValues>
        -5.9545975923538208e-01 4.8220378160476685e-01</leafValues></_>
    <_>
      <internalNodes>
        0 -1 2688 -73405593 -2081970906 -2137529726 -2144345634
        -970073314 34286094 -746065913 1205860319</internalNodes>
      <leafValues>
        -6.4020776748657227e-01 4.1584184765815735e-01</leafValues></_>
    <_>
      <internalNodes>
        0 -1 8896 -2147461801 -14740651 -2057506305 -1113696389
        -1143419139 -31245510 -1103381799 -1074102309</internalNodes>
      <leafValues>
        -5.3408581018447876e-01 5.2047783136367798e-01</leafValues></_>
    <_>
      <internalNodes>
        0 -1 10654 -2163974 -646052976 691053116 1034959504 -1887659544
        414715877 1030797742 2147482623</internalNodes>
      <leafValues>
        -6.6506963968276978e-01 3.7956938147544861e-01</leafValues></_>
    <_>
      <internalNodes>
        0 -1 10159 524271544 454205667 -24906787 -35673185 1874852734
        -1152744950 -70267910 -269752182</internalNodes>
      <leafValues>
        -6.7526692152023315e-01 3.8488993048667908e-01</leafValues></_>
    <_>
      <internalNodes>
        0 -1 9981 -1 2144919486 859336568 1073509148 -4399172 804801277
        1056748028 -67109923</internalNodes>
      <leafValues>
        -5.2586835622787476e-01 5.3338223695755005e-01</leafValues></_>
    <_>
      <internalNodes>
        0 -1 2526 -1199385131 -1073819629 1238060383 -1082404385
        -644149765 -610556000 -1415701509 -1970323109</internalNodes>
      <leafValues>
        -5.2272719144821167e-01 5.1037472486495972e-01</leafValues></_></weakClassifiers></stage5>
</opencv_storage>
