<?xml version="1.0"?>
<opencv_storage>
<stage3>
  <maxWeakCount>9</maxWeakCount>
  <stageThreshold>-2.3398180305957794e-01</stageThreshold>
  <weakClassifiers>
    <_>
      <internalNodes>
        0 -1 3016 -500228 -699435 -57345 -35843 -16974850 -279617
        -71532545 -303808384</internalNodes>
      <leafValues>
        -6.8819981813430786e-01 6.1573320627212524e-01</leafValues></_>
    <_>
      <internalNodes>
        0 -1 47 -286332178 -279983385 -1916022865 -1342181409
        -1630802497 -2105954 -838865409 -1</internalNodes>
      <leafValues>
        -6.8635886907577515e-01 5.9248656034469604e-01</leafValues></_>
    <_>
      <internalNodes>
        0 -1 11253 2147434416 1069441020 -1342226960 -2171970 1593661436
        2142895054 -71304516 -4098</internalNodes>
      <leafValues>
        -8.5306310653686523e-01 4.3380314111709595e-01</leafValues></_>
    <_>
      <internalNodes>
        0 -1 450 -1431657793 -134745707 -27666445 -167201 -894781453
        -268725077 -292559619 -941140745</internalNodes>
      <leafValues>
        -6.5202611684799194e-01 5.6447267532348633e-01</leafValues></_>
    <_>
      <internalNodes>
        0 -1 3649 489688252 -1077938721 -73484291 -156675 2146353151
        -71395145 -1115141 -1509762853</internalNodes>
      <leafValues>
        -8.4809052944183350e-01 3.9720413088798523e-01</leafValues></_>
    <_>
      <internalNodes>
        0 -1 10901 -2 1603858332 399539188 524055548 1870200700
        734546000 1073245180 -32801</internalNodes>
      <leafValues>
        -6.7278486490249634e-01 5.1187783479690552e-01</leafValues></_>
    <_>
      <internalNodes>
        0 -1 10921 -1069301758 -13658114 -100663329 -78645793 -135276865
        -90191325 -547367953 -1022377165</internalNodes>
      <leafValues>
        -5.7869929075241089e-01 6.0434710979461670e-01</leafValues></_>
    <_>
      <internalNodes>
        0 -1 516 1231027551 137342606 -169880077 -310386033 1232827149
        203151598 -1178864319 1170200551</internalNodes>
      <leafValues>
        -6.5654867887496948e-01 4.9090757966041565e-01</leafValues></_>
    <_>
      <internalNodes>
        0 -1 7463 -2143075326 -546316877 -219948553 -149162529 -87035905
        -105939353 -206835713 -467156185</internalNodes>
      <leafValues>
        -6.3924956321716309e-01 5.2044290304183960e-01</leafValues></_></weakClassifiers></stage3>
</opencv_storage>
