<?xml version="1.0"?>
<opencv_storage>
<stage14>
  <maxWeakCount>7</maxWeakCount>
  <stageThreshold>-9.9947297573089600e-01</stageThreshold>
  <weakClassifiers>
    <_>
      <internalNodes>
        0 -1 948 955103987 2046541562 964689919 -2054 -1 -2625
        1173880667 -167774345</internalNodes>
      <leafValues>
        -4.3725231289863586e-01 6.6980707645416260e-01</leafValues></_>
    <_>
      <internalNodes>
        0 -1 10884 -269490429 -349177594 -905035742 1108000010
        1860159439 1244087090 1926709442 1880096703</internalNodes>
      <leafValues>
        -6.3345605134963989e-01 4.2670619487762451e-01</leafValues></_>
    <_>
      <internalNodes>
        0 -1 318 -754454805 1963041995 33590986 118425837 -70259777
        -552612038 -538186753 -1025</internalNodes>
      <leafValues>
        -5.4750365018844604e-01 4.5031809806823730e-01</leafValues></_>
    <_>
      <internalNodes>
        0 -1 11410 2147450876 1068372745 1273135580 1070351923
        2072738736 1049575587 1267419336 -539100421</internalNodes>
      <leafValues>
        -7.6531839370727539e-01 3.4696146845817566e-01</leafValues></_>
    <_>
      <internalNodes>
        0 -1 3304 -1064833024 -178805495 -779759525 -243797029
        -335544865 -1141912577 -305138966 1342951947</internalNodes>
      <leafValues>
        -6.5307694673538208e-01 3.4658730030059814e-01</leafValues></_>
    <_>
      <internalNodes>
        0 -1 10716 -1879026351 -2156641 -1617725985 -1076396065
        -1074005507 -384357 -1077182977 -1073905697</internalNodes>
      <leafValues>
        -5.7399404048919678e-01 4.3617525696754456e-01</leafValues></_>
    <_>
      <internalNodes>
        0 -1 11005 -1 -77828676 328522108 2145219464 -1717777412
        799815836 802700280 -1</internalNodes>
      <leafValues>
        -4.5702487230300903e-01 5.7563638687133789e-01</leafValues></_></weakClassifiers></stage14>
</opencv_storage>
