<?xml version="1.0"?>
<opencv_storage>
<stage11>
  <maxWeakCount>5</maxWeakCount>
  <stageThreshold>-8.1708097457885742e-01</stageThreshold>
  <weakClassifiers>
    <_>
      <internalNodes>
        0 -1 1845 1078969035 3145703 1459615458 -252707090 -279971841
        -268435505 -675809285 -134219809</internalNodes>
      <leafValues>
        -4.8879981040954590e-01 6.4572387933731079e-01</leafValues></_>
    <_>
      <internalNodes>
        0 -1 11411 -549462210 523236127 -935602852 500824525 1163479061
        1292159441 -912667427 -572662307</internalNodes>
      <leafValues>
        -6.9836401939392090e-01 4.3143323063850403e-01</leafValues></_>
    <_>
      <internalNodes>
        0 -1 6319 -11027011 -77612033 335486911 -4211779 -69268545
        -1081405505 1002580991 1073691583</internalNodes>
      <leafValues>
        -6.3030534982681274e-01 4.5726001262664795e-01</leafValues></_>
    <_>
      <internalNodes>
        0 -1 4031 -1073495038 -1576449 -552209473 -43003673 -74452033
        -878715730 -550503685 -988297873</internalNodes>
      <leafValues>
        -5.3237509727478027e-01 5.3876513242721558e-01</leafValues></_>
    <_>
      <internalNodes>
        0 -1 10814 -67831811 -69667843 -776316455 2144859613 -21434627
        -5576452 -319927297 -1426194345</internalNodes>
      <leafValues>
        -5.9209281206130981e-01 4.6162307262420654e-01</leafValues></_></weakClassifiers></stage11>
</opencv_storage>
