<?xml version="1.0"?>
<opencv_storage>
<stage3>
  <maxWeakCount>4</maxWeakCount>
  <stageThreshold>-3.1293338537216187e-01</stageThreshold>
  <weakClassifiers>
    <_>
      <internalNodes>
        0 -1 602 -2097153 1073479599 -35784705 -2115617 -2101249
        -5257025 -4194833 -33</internalNodes>
      <leafValues>
        -9.4000494480133057e-01 9.2824524641036987e-01</leafValues></_>
    <_>
      <internalNodes>
        0 -1 995 -133121 -2310689 -67903521 -9249 -5374019 -284933
        -74711553 -131073</internalNodes>
      <leafValues>
        -9.4759178161621094e-01 8.0064153671264648e-01</leafValues></_>
    <_>
      <internalNodes>
        0 -1 730 -134221825 -70257249 -724568069 -73403425 1606143999
        2004614063 -2231297 -5</internalNodes>
      <leafValues>
        -8.7528377771377563e-01 8.4286093711853027e-01</leafValues></_>
    <_>
      <internalNodes>
        0 -1 520 1431697271 -10757185 -738462721 -8430625 -73662465
        -6311685 -4194305 1610612731</internalNodes>
      <leafValues>
        -9.6848756074905396e-01 7.0171380043029785e-01</leafValues></_></weakClassifiers></stage3>
</opencv_storage>
