<?xml version="1.0"?>
<!--
opencv_traincascade -data /home/holger/cv/data_mixed/p5000_n4000_52x13_fa_04_extra_rot/ -vec /home/holger/cv/kennzeichen_all_bg/kennzeichen_52x13_extra_rot.vec -bg /home/holger/cv/data_openalpr/index_neg.info -numPos 5000 -numNeg 4000 -numStages 11 -w 52 -h 13 -featureType LBP -maxFalseAlarmRate 0.4
-->
<opencv_storage>
<cascade>
  <stageType>BOOST</stageType>
  <featureType>LBP</featureType>
  <height>13</height>
  <width>52</width>
  <stageParams>
    <boostType>GAB</boostType>
    <minHitRate>9.9500000476837158e-01</minHitRate>
    <maxFalseAlarm>4.0000000596046448e-01</maxFalseAlarm>
    <weightTrimRate>9.4999999999999996e-01</weightTrimRate>
    <maxDepth>1</maxDepth>
    <maxWeakCount>100</maxWeakCount></stageParams>
  <featureParams>
    <maxCatCount>256</maxCatCount>
    <featSize>1</featSize></featureParams>
  <stageNum>11</stageNum>
  <stages>
    <!-- stage 0 -->
    <_>
      <maxWeakCount>3</maxWeakCount>
      <stageThreshold>-9.9284362792968750e-01</stageThreshold>
      <weakClassifiers>
        <_>
          <internalNodes>
            0 -1 24 286263448 1062277337 352326141 1595736345 713033978
            -1147631478 143305375 -1442129733</internalNodes>
          <leafValues>
            -8.8194626569747925e-01 8.2401221990585327e-01</leafValues></_>
        <_>
          <internalNodes>
            0 -1 5 -666892066 -577634152 -2080357889 -577765364
            -1719105285 -74841974 -1953985537 -609746808</internalNodes>
          <leafValues>
            -8.1709027290344238e-01 7.7083355188369751e-01</leafValues></_>
        <_>
          <internalNodes>
            0 -1 12 -2144296716 -552533759 8390687 486604809 -2013017605
            -1348990848 137070815 262865643</internalNodes>
          <leafValues>
            -7.6671475172042847e-01 7.0619297027587891e-01</leafValues></_></weakClassifiers></_>
    <!-- stage 1 -->
    <_>
      <maxWeakCount>3</maxWeakCount>
      <stageThreshold>-7.0471143722534180e-01</stageThreshold>
      <weakClassifiers>
        <_>
          <internalNodes>
            0 -1 34 -197123 -245923 -720899 -193515 -17235971 -4423684
            -196609 -1442316288</internalNodes>
          <leafValues>
            -7.8366225957870483e-01 8.2789671421051025e-01</leafValues></_>
        <_>
          <internalNodes>
            0 -1 4 -33505060 -40697836 285217247 -40501248 -1979545349
            -96851831 -1725920565 -1349547829</internalNodes>
          <leafValues>
            -7.0532763004302979e-01 8.3287477493286133e-01</leafValues></_>
        <_>
          <internalNodes>
            0 -1 25 -1325395888 -1154277582 1001596667 -1074722829
            -1189431352 -1078034497 574043067 -1153755749</internalNodes>
          <leafValues>
            -7.1266716718673706e-01 7.8427845239639282e-01</leafValues></_></weakClassifiers></_>
    <!-- stage 2 -->
    <_>
      <maxWeakCount>3</maxWeakCount>
      <stageThreshold>-8.8639140129089355e-01</stageThreshold>
      <weakClassifiers>
        <_>
          <internalNodes>
            0 -1 31 353371408 2132377621 -1861150211 -10809201 580398078
            -1081603670 -1433752838 -1079260518</internalNodes>
          <leafValues>
            -8.2810813188552856e-01 7.6679247617721558e-01</leafValues></_>
        <_>
          <internalNodes>
            0 -1 19 -721358376 -40824681 -2113929061 -16711149 176720042
            -1141342040 150997643 188416010</internalNodes>
          <leafValues>
            -7.7509826421737671e-01 7.3110973834991455e-01</leafValues></_>
        <_>
          <internalNodes>
            0 -1 7 -586628872 -11762496 151027933 218169385 -896616295
            -72628008 430615551 -1080055377</internalNodes>
          <leafValues>
            -7.1766066551208496e-01 7.1681499481201172e-01</leafValues></_></weakClassifiers></_>
    <!-- stage 3 -->
    <_>
      <maxWeakCount>5</maxWeakCount>
      <stageThreshold>-7.7403694391250610e-01</stageThreshold>
      <weakClassifiers>
        <_>
          <internalNodes>
            0 -1 11 -1053713 13544174 -275846486 145722031 -536870913
            4574455 -5242961 -1025</internalNodes>
          <leafValues>
            -6.4215570688247681e-01 7.6290154457092285e-01</leafValues></_>
        <_>
          <internalNodes>
            0 -1 37 -196611 -213579 -74121731 -136995 -70325315
            -20254987 -1143030785 -1364590592</internalNodes>
          <leafValues>
            -7.0878714323043823e-01 6.8942695856094360e-01</leafValues></_>
        <_>
          <internalNodes>
            0 -1 38 -1073496062 -779103281 -763162237 -149170921
            -779101809 2038923395 -202380369 -1055932145</internalNodes>
          <leafValues>
            -6.1116963624954224e-01 7.1599209308624268e-01</leafValues></_>
        <_>
          <internalNodes>
            0 -1 17 -10199556 -33744452 -270721857 -9492004 -71237634
            -70587973 -5496837 -261948</internalNodes>
          <leafValues>
            -6.8600225448608398e-01 6.5218442678451538e-01</leafValues></_>
        <_>
          <internalNodes>
            0 -1 41 -46400818 -104562532 352321544 1372653346 -103206208
            135278788 839387054 2004876287</internalNodes>
          <leafValues>
            -7.3766052722930908e-01 5.3589117527008057e-01</leafValues></_></weakClassifiers></_>
    <!-- stage 4 -->
    <_>
      <maxWeakCount>5</maxWeakCount>
      <stageThreshold>-7.4945855140686035e-01</stageThreshold>
      <weakClassifiers>
        <_>
          <internalNodes>
            0 -1 48 2139094460 1059780575 -36834852 -536879969
            1566398781 1061024507 -572793379 -1025</internalNodes>
          <leafValues>
            -7.1190214157104492e-01 6.5877127647399902e-01</leafValues></_>
        <_>
          <internalNodes>
            0 -1 14 -521144081 -856686609 -1662128146 -789580606 4258415
            -989859841 1879047919 -134223889</internalNodes>
          <leafValues>
            -5.9059673547744751e-01 7.0597010850906372e-01</leafValues></_>
        <_>
          <internalNodes>
            0 -1 9 -1215691585 1067388351 -1075462209 -1080050913
            867154939 -1078726145 1034631679 1073688511</internalNodes>
          <leafValues>
            -6.2598502635955811e-01 6.3586312532424927e-01</leafValues></_>
        <_>
          <internalNodes>
            0 -1 32 -1073233918 -69209089 -134218241 -607127697
            -780146757 -75564059 -479199233 -1035222453</internalNodes>
          <leafValues>
            -5.8214169740676880e-01 6.5368288755416870e-01</leafValues></_>
        <_>
          <internalNodes>
            0 -1 45 -527712254 -234690430 -1073577982 -1597775294
            -760487359 537542689 -1039695359 1124586323</internalNodes>
          <leafValues>
            -7.1268284320831299e-01 5.2534240484237671e-01</leafValues></_></weakClassifiers></_>
    <!-- stage 5 -->
    <_>
      <maxWeakCount>6</maxWeakCount>
      <stageThreshold>-7.3453944921493530e-01</stageThreshold>
      <weakClassifiers>
        <_>
          <internalNodes>
            0 -1 21 489688252 -1077980161 -1082353665 -1 534658047
            -4260163 -72426497 -1440023557</internalNodes>
          <leafValues>
            -8.1200879812240601e-01 6.1574155092239380e-01</leafValues></_>
        <_>
          <internalNodes>
            0 -1 2 -357635346 -271850625 -1987801169 -1342199809
            -606339137 -2102325 -1903174149 -1041</internalNodes>
          <leafValues>
            -7.1114754676818848e-01 5.5851387977600098e-01</leafValues></_>
        <_>
          <internalNodes>
            0 -1 1 -357635329 -134220353 -2561 -536881161 -1427183617
            -1067521 -286309121 -420592385</internalNodes>
          <leafValues>
            -5.7610130310058594e-01 6.6221612691879272e-01</leafValues></_>
        <_>
          <internalNodes>
            0 -1 43 1063206712 2132393471 -1078034636 -2359297
            1537174462 -1077954049 2142223052 -33555461</internalNodes>
          <leafValues>
            -7.2809880971908569e-01 4.9547433853149414e-01</leafValues></_>
        <_>
          <internalNodes>
            0 -1 3 -78114 1071589086 -673692161 -185839384 -21304641
            -276043109 -464129 -394467604</internalNodes>
          <leafValues>
            -7.4694883823394775e-01 4.5960232615470886e-01</leafValues></_>
        <_>
          <internalNodes>
            0 -1 39 -33554466 1608381166 377489664 1004382092 -774031400
            413409472 1031089652 1576927231</internalNodes>
          <leafValues>
            -7.3888528347015381e-01 4.0964153409004211e-01</leafValues></_></weakClassifiers></_>
    <!-- stage 6 -->
    <_>
      <maxWeakCount>5</maxWeakCount>
      <stageThreshold>-7.9901862144470215e-01</stageThreshold>
      <weakClassifiers>
        <_>
          <internalNodes>
            0 -1 33 -8585219 -10564239 -547571715 -10554019 -537084163
            -91651 -4260865 -1364588543</internalNodes>
          <leafValues>
            -6.6082847118377686e-01 6.2502312660217285e-01</leafValues></_>
        <_>
          <internalNodes>
            0 -1 20 -45854244 -8560693 -73441281 -4235322 -67609602
            -33366 -37879810 -52145500</internalNodes>
          <leafValues>
            -8.0066680908203125e-01 4.4946834444999695e-01</leafValues></_>
        <_>
          <internalNodes>
            0 -1 10 -290455553 -1364722449 -1081345 -34249989 215482363
            -268435457 -1291880449 -39341</internalNodes>
          <leafValues>
            -5.3910052776336670e-01 6.5336042642593384e-01</leafValues></_>
        <_>
          <internalNodes>
            0 -1 30 -2 2136776172 130043900 1072447470 1031321084
            441480092 1032626172 -529</internalNodes>
          <leafValues>
            -5.3152519464492798e-01 6.2867689132690430e-01</leafValues></_>
        <_>
          <internalNodes>
            0 -1 29 -2143043582 -608709169 -612379781 -571508865
            -85988353 -89669157 -134746113 -1023163609</internalNodes>
          <leafValues>
            -6.0786837339401245e-01 5.4064136743545532e-01</leafValues></_></weakClassifiers></_>
    <!-- stage 7 -->
    <_>
      <maxWeakCount>5</maxWeakCount>
      <stageThreshold>-8.1142979860305786e-01</stageThreshold>
      <weakClassifiers>
        <_>
          <internalNodes>
            0 -1 27 489688252 2147460061 905854975 -19971 2147384319
            -71644948 -344065 -1364525315</internalNodes>
          <leafValues>
            -8.1486988067626953e-01 5.0586372613906860e-01</leafValues></_>
        <_>
          <internalNodes>
            0 -1 15 1112523503 573571055 1189082850 -218104082
            -142617617 -286261377 -536872961 -134219825</internalNodes>
          <leafValues>
            -5.8390420675277710e-01 6.1562323570251465e-01</leafValues></_>
        <_>
          <internalNodes>
            0 -1 16 -68362242 -551433 -1241657345 -69223768 2147257855
            -5546513 160369327 805241354</internalNodes>
          <leafValues>
            -6.9166225194931030e-01 4.7305732965469360e-01</leafValues></_>
        <_>
          <internalNodes>
            0 -1 0 -970012929 -8965641 -303310849 -822285 -1364819201
            -5260289 -336859909 -282110729</internalNodes>
          <leafValues>
            -4.9751940369606018e-01 6.6993439197540283e-01</leafValues></_>
        <_>
          <internalNodes>
            0 -1 35 -2147237885 -138412097 -1 -2081 -207618113 -68159617
            -612368385 -1022372081</internalNodes>
          <leafValues>
            -5.2541816234588623e-01 6.1180633306503296e-01</leafValues></_></weakClassifiers></_>
    <!-- stage 8 -->
    <_>
      <maxWeakCount>5</maxWeakCount>
      <stageThreshold>-7.0192021131515503e-01</stageThreshold>
      <weakClassifiers>
        <_>
          <internalNodes>
            0 -1 50 -516 -4199749 -1816134180 -2099073 -1430614872
            -1968527174 -1430741768 -1431635781</internalNodes>
          <leafValues>
            -6.4108288288116455e-01 6.0863947868347168e-01</leafValues></_>
        <_>
          <internalNodes>
            0 -1 18 -201329937 50579982 8372450 282847679 -1018183089
            34557027 1447293383 1137701631</internalNodes>
          <leafValues>
            -6.2720167636871338e-01 4.9864044785499573e-01</leafValues></_>
        <_>
          <internalNodes>
            0 -1 36 -1 -229908 1610379260 1064599548 534347772 522747381
            1065107452 -1</internalNodes>
          <leafValues>
            -4.9387675523757935e-01 6.1941784620285034e-01</leafValues></_>
        <_>
          <internalNodes>
            0 -1 46 1061156665 1058922303 -1663050243 -1109395201
            996129661 1367076529 1569709021 -805307393</internalNodes>
          <leafValues>
            -6.0057604312896729e-01 5.2258789539337158e-01</leafValues></_>
        <_>
          <internalNodes>
            0 -1 40 -1870638755 -6615713 -1155408905 -1076661261
            -1702946341 -13936165 -1903248391 -1076152325</internalNodes>
          <leafValues>
            -5.7564133405685425e-01 5.4768347740173340e-01</leafValues></_></weakClassifiers></_>
    <!-- stage 9 -->
    <_>
      <maxWeakCount>5</maxWeakCount>
      <stageThreshold>-1.5253775119781494e+00</stageThreshold>
      <weakClassifiers>
        <_>
          <internalNodes>
            0 -1 8 -65537 2138725211 -69533697 1034057591 -67110049
            -2206423 -84017153 -1</internalNodes>
          <leafValues>
            -3.7500000000000000e-01 7.8609341382980347e-01</leafValues></_>
        <_>
          <internalNodes>
            0 -1 44 -2 -4653060 1072988156 1069318140 -196612 447250420
            1073020924 -1</internalNodes>
          <leafValues>
            -4.9626430869102478e-01 6.3017839193344116e-01</leafValues></_>
        <_>
          <internalNodes>
            0 -1 42 -1073496062 -537930369 -715131425 -137374137
            -337647169 -70521649 -68421633 -1055932113</internalNodes>
          <leafValues>
            -5.5945181846618652e-01 5.4955488443374634e-01</leafValues></_>
        <_>
          <internalNodes>
            0 -1 28 -196610 2067332060 -548372484 1002191804 2027707580
            505960697 1070252028 -1048577</internalNodes>
          <leafValues>
            -6.3741415739059448e-01 4.6552038192749023e-01</leafValues></_>
        <_>
          <internalNodes>
            0 -1 47 -1072971774 -1617961093 -638326281 -543164553
            -47190257 -12599037 -783286609 -1022377193</internalNodes>
          <leafValues>
            -5.8368998765945435e-01 4.9845898151397705e-01</leafValues></_></weakClassifiers></_>
    <!-- stage 10 -->
    <_>
      <maxWeakCount>6</maxWeakCount>
      <stageThreshold>-1.5193343162536621e+00</stageThreshold>
      <weakClassifiers>
        <_>
          <internalNodes>
            0 -1 13 -366817193 -1051137 -3 -1075839745 -1091584513
            -12801 -269558273 -303213315</internalNodes>
          <leafValues>
            -4.7480350732803345e-01 6.5340179204940796e-01</leafValues></_>
        <_>
          <internalNodes>
            0 -1 6 -348162 -1082258450 801245183 267265983 -70275073
            -71328981 -1107316737 -1</internalNodes>
          <leafValues>
            -6.1329704523086548e-01 5.1203900575637817e-01</leafValues></_>
        <_>
          <internalNodes>
            0 -1 22 245762 -526881 -142618241 -75498537 -68164609
            -71054113 -69217537 -985414641</internalNodes>
          <leafValues>
            -6.2261033058166504e-01 4.5037889480590820e-01</leafValues></_>
        <_>
          <internalNodes>
            0 -1 23 -616982124 -4476993 758711223 2113385407 -69227521
            -1074131069 801703679 1073423423</internalNodes>
          <leafValues>
            -6.8585163354873657e-01 3.9491611719131470e-01</leafValues></_>
        <_>
          <internalNodes>
            0 -1 49 -8396994 524274463 -985803820 496878545 1285095445
            232292508 -938884911 -573966891</internalNodes>
          <leafValues>
            -7.3204326629638672e-01 3.8021546602249146e-01</leafValues></_>
        <_>
          <internalNodes>
            0 -1 26 -131074 1066941368 197932312 926717764 1003793404
            1068237417 1033681896 -1</internalNodes>
          <leafValues>
            -5.9683233499526978e-01 4.3848165869712830e-01</leafValues></_></weakClassifiers></_></stages>
  <features>
    <_>
      <rect>
        0 0 3 1</rect></_>
    <_>
      <rect>
        0 0 4 1</rect></_>
    <_>
      <rect>
        0 0 12 4</rect></_>
    <_>
      <rect>
        0 1 9 1</rect></_>
    <_>
      <rect>
        0 1 10 1</rect></_>
    <_>
      <rect>
        0 1 13 1</rect></_>
    <_>
      <rect>
        0 6 12 2</rect></_>
    <_>
      <rect>
        0 7 14 2</rect></_>
    <_>
      <rect>
        0 10 4 1</rect></_>
    <_>
      <rect>
        1 0 14 1</rect></_>
    <_>
      <rect>
        1 1 2 1</rect></_>
    <_>
      <rect>
        1 2 3 3</rect></_>
    <_>
      <rect>
        2 8 15 1</rect></_>
    <_>
      <rect>
        3 0 2 1</rect></_>
    <_>
      <rect>
        3 2 1 1</rect></_>
    <_>
      <rect>
        4 2 1 2</rect></_>
    <_>
      <rect>
        4 2 15 1</rect></_>
    <_>
      <rect>
        5 1 14 1</rect></_>
    <_>
      <rect>
        5 3 1 2</rect></_>
    <_>
      <rect>
        7 2 15 1</rect></_>
    <_>
      <rect>
        8 1 7 1</rect></_>
    <_>
      <rect>
        8 9 12 1</rect></_>
    <_>
      <rect>
        10 0 1 2</rect></_>
    <_>
      <rect>
        10 8 14 1</rect></_>
    <_>
      <rect>
        10 9 13 1</rect></_>
    <_>
      <rect>
        13 0 10 1</rect></_>
    <_>
      <rect>
        14 7 1 2</rect></_>
    <_>
      <rect>
        18 9 10 1</rect></_>
    <_>
      <rect>
        19 7 1 2</rect></_>
    <_>
      <rect>
        23 0 1 2</rect></_>
    <_>
      <rect>
        25 7 1 2</rect></_>
    <_>
      <rect>
        25 9 9 1</rect></_>
    <_>
      <rect>
        26 0 1 2</rect></_>
    <_>
      <rect>
        26 10 5 1</rect></_>
    <_>
      <rect>
        27 10 6 1</rect></_>
    <_>
      <rect>
        30 0 1 2</rect></_>
    <_>
      <rect>
        30 7 1 2</rect></_>
    <_>
      <rect>
        30 10 6 1</rect></_>
    <_>
      <rect>
        32 0 1 2</rect></_>
    <_>
      <rect>
        32 4 2 3</rect></_>
    <_>
      <rect>
        33 0 3 1</rect></_>
    <_>
      <rect>
        34 4 2 3</rect></_>
    <_>
      <rect>
        35 0 1 2</rect></_>
    <_>
      <rect>
        37 9 5 1</rect></_>
    <_>
      <rect>
        39 7 1 2</rect></_>
    <_>
      <rect>
        43 1 1 3</rect></_>
    <_>
      <rect>
        43 9 3 1</rect></_>
    <_>
      <rect>
        44 0 1 2</rect></_>
    <_>
      <rect>
        45 9 2 1</rect></_>
    <_>
      <rect>
        46 9 2 1</rect></_>
    <_>
      <rect>
        46 10 2 1</rect></_></features></cascade>
</opencv_storage>
