<?xml version="1.0"?>
<opencv_storage>
<stage1>
  <maxWeakCount>4</maxWeakCount>
  <stageThreshold>-4.0051823854446411e-01</stageThreshold>
  <weakClassifiers>
    <_>
      <internalNodes>
        0 -1 160 -136316929 -265490 1368510975 -1059858 -68158465
        -72697597 -7603201 -2097157</internalNodes>
      <leafValues>
        -9.6700823307037354e-01 9.1869920492172241e-01</leafValues></_>
    <_>
      <internalNodes>
        0 -1 7906 -5186051 -273445 -7088673 -8865 -74712837 -4485381
        -1613890561 -1</internalNodes>
      <leafValues>
        -9.2448085546493530e-01 9.3278431892395020e-01</leafValues></_>
    <_>
      <internalNodes>
        0 -1 36 -44253698 -9334305 -716482049 -2108449 -68420609
        -5532965 -7603201 -17</internalNodes>
      <leafValues>
        -9.8892796039581299e-01 7.7081799507141113e-01</leafValues></_>
    <_>
      <internalNodes>
        0 -1 10191 -14680068 -9217 1564465151 -6291521 -124846593
        -4486949 -78643201 -1052804</internalNodes>
      <leafValues>
        -1. 7.2015291452407837e-01</leafValues></_></weakClassifiers></stage1>
</opencv_storage>
