<?xml version="1.0"?>
<!--
opencv_traincascade -data /home/holger/cv/data_equ_all/p5000_n4000_full_background_fa_04/ -vec /home/holger/cv/kennzeichen_equ_all/kennzeichen_60x13_equ_all_full_background_rot.vec -bg /home/holger/cv/neg_additional/index.info -numPos 5000 -numNeg 4000 -numStages 6 -w 60 -h 13 -featureType LBP -maxFalseAlarmRate 0.4
-->
<opencv_storage>
<cascade>
  <stageType>BOOST</stageType>
  <featureType>LBP</featureType>
  <height>13</height>
  <width>60</width>
  <stageParams>
    <boostType>GAB</boostType>
    <minHitRate>9.9500000476837158e-01</minHitRate>
    <maxFalseAlarm>4.0000000596046448e-01</maxFalseAlarm>
    <weightTrimRate>9.4999999999999996e-01</weightTrimRate>
    <maxDepth>1</maxDepth>
    <maxWeakCount>100</maxWeakCount></stageParams>
  <featureParams>
    <maxCatCount>256</maxCatCount>
    <featSize>1</featSize></featureParams>
  <stageNum>6</stageNum>
  <stages>
    <!-- stage 0 -->
    <_>
      <maxWeakCount>2</maxWeakCount>
      <stageThreshold>-1.4470058679580688e-01</stageThreshold>
      <weakClassifiers>
        <_>
          <internalNodes>
            0 -1 13 487588888 2144670165 452992989 -551726755 940583160
            -349511 680045566 -1440548694</internalNodes>
          <leafValues>
            -9.2935240268707275e-01 7.9422050714492798e-01</leafValues></_>
        <_>
          <internalNodes>
            0 -1 2 -141785380 -6487824 1564527583 -49020212 -74862593
            -71661379 -74936577 -1308532</internalNodes>
          <leafValues>
            -8.3916527032852173e-01 7.8465181589126587e-01</leafValues></_></weakClassifiers></_>
    <!-- stage 1 -->
    <_>
      <maxWeakCount>4</maxWeakCount>
      <stageThreshold>-2.8610184788703918e-01</stageThreshold>
      <weakClassifiers>
        <_>
          <internalNodes>
            0 -1 16 -196611 -217259 -196611 -179075 -327683 -196611
            -65537 -1901592576</internalNodes>
          <leafValues>
            -7.6755809783935547e-01 8.1436288356781006e-01</leafValues></_>
        <_>
          <internalNodes>
            0 -1 11 -1853876847 -1088480967 -1655496769 -1078249519
            -1690325061 -1080426317 1026235323 1059785631</internalNodes>
          <leafValues>
            -7.5490891933441162e-01 7.3377615213394165e-01</leafValues></_>
        <_>
          <internalNodes>
            0 -1 5 -1391809284 -1076163859 22351359 -1879235377
            -1158043137 -1079271013 722014203 268110571</internalNodes>
          <leafValues>
            -8.5294783115386963e-01 6.1876219511032104e-01</leafValues></_>
        <_>
          <internalNodes>
            0 -1 8 -11730946 -37776421 758614247 -536893244 -1164968961
            -71333443 -1953822037 261030570</internalNodes>
          <leafValues>
            -8.0187577009201050e-01 6.1760300397872925e-01</leafValues></_></weakClassifiers></_>
    <!-- stage 2 -->
    <_>
      <maxWeakCount>5</maxWeakCount>
      <stageThreshold>-8.8329952955245972e-01</stageThreshold>
      <weakClassifiers>
        <_>
          <internalNodes>
            0 -1 4 -17 13610735 -269554034 179244687 -1 74441855
            -1048613 -1</internalNodes>
          <leafValues>
            -6.0100090503692627e-01 7.9105126857757568e-01</leafValues></_>
        <_>
          <internalNodes>
            0 -1 24 -50696 494714323 855770580 -573778597 1532041712
            1531783375 1835892728 -5</internalNodes>
          <leafValues>
            -8.2735860347747803e-01 5.4736483097076416e-01</leafValues></_>
        <_>
          <internalNodes>
            0 -1 0 -357637889 -134253577 -268471297 -604540681
            -1431658241 -336654081 -353372417 -290499337</internalNodes>
          <leafValues>
            -6.3277441263198853e-01 7.0753860473632812e-01</leafValues></_>
        <_>
          <internalNodes>
            0 -1 12 -70754820 -2268715 -551726113 1469800285 -8094722
            -71603525 -42710021 -875533436</internalNodes>
          <leafValues>
            -7.7800917625427246e-01 5.3628242015838623e-01</leafValues></_>
        <_>
          <internalNodes>
            0 -1 10 -606084469 34046058 1087881730 1346630151
            -2004114101 33767683 1178849282 1197470703</internalNodes>
          <leafValues>
            -7.2495192289352417e-01 6.1553061008453369e-01</leafValues></_></weakClassifiers></_>
    <!-- stage 3 -->
    <_>
      <maxWeakCount>4</maxWeakCount>
      <stageThreshold>-5.0022339820861816e-01</stageThreshold>
      <weakClassifiers>
        <_>
          <internalNodes>
            0 -1 22 -67305475 -33568771 -547692579 -100011 -67175427
            -71389251 -1682260993 236584960</internalNodes>
          <leafValues>
            -8.1692457199096680e-01 5.8376657962799072e-01</leafValues></_>
        <_>
          <internalNodes>
            0 -1 7 -389091586 -35663521 -44277761 -195673904 -1427197441
            -71314477 -542179841 -305138177</internalNodes>
          <leafValues>
            -7.4149763584136963e-01 5.3875392675399780e-01</leafValues></_>
        <_>
          <internalNodes>
            0 -1 15 -10510947 -673609 487791935 2136936863 -1353708097
            -1078260577 463407807 1073692607</internalNodes>
          <leafValues>
            -7.0102339982986450e-01 5.4171276092529297e-01</leafValues></_>
        <_>
          <internalNodes>
            0 -1 23 -1542 996049292 1036255492 490754828 2060218504
            147329676 432616072 1877998591</internalNodes>
          <leafValues>
            -7.6376545429229736e-01 5.1958709955215454e-01</leafValues></_></weakClassifiers></_>
    <!-- stage 4 -->
    <_>
      <maxWeakCount>5</maxWeakCount>
      <stageThreshold>-8.8852626085281372e-01</stageThreshold>
      <weakClassifiers>
        <_>
          <internalNodes>
            0 -1 1 -355539201 -134237217 -303203969 392025855 -355814913
            -1330951 -856800005 1173307647</internalNodes>
          <leafValues>
            -6.8761116266250610e-01 5.9011733531951904e-01</leafValues></_>
        <_>
          <internalNodes>
            0 -1 20 -1073496061 -143655425 -268435461 -33554561
            -134217729 -4194337 -536870913 -1051736313</internalNodes>
          <leafValues>
            -5.2924537658691406e-01 6.8381494283676147e-01</leafValues></_>
        <_>
          <internalNodes>
            0 -1 3 -1830914 2145326588 420613887 -2350260 -350733313
            -5564225 -1450238977 2063337676</internalNodes>
          <leafValues>
            -8.0238693952560425e-01 4.7596111893653870e-01</leafValues></_>
        <_>
          <internalNodes>
            0 -1 9 -1070861589 -856690961 -134743057 -487067930
            1615002555 -540737 -2097 -2099297</internalNodes>
          <leafValues>
            -5.2718693017959595e-01 6.9609528779983521e-01</leafValues></_>
        <_>
          <internalNodes>
            0 -1 21 1059012376 1058595771 -1627131907 -1076889521
            998194172 -1145337174 -806356248 -1074517</internalNodes>
          <leafValues>
            -8.3249539136886597e-01 4.3462193012237549e-01</leafValues></_></weakClassifiers></_>
    <!-- stage 5 -->
    <_>
      <maxWeakCount>6</maxWeakCount>
      <stageThreshold>-1.2299667596817017e+00</stageThreshold>
      <weakClassifiers>
        <_>
          <internalNodes>
            0 -1 25 -603979970 490731423 -1213472836 -1916797793
            213977373 421088361 -645834275 -573186747</internalNodes>
          <leafValues>
            -6.8978101015090942e-01 5.7212883234024048e-01</leafValues></_>
        <_>
          <internalNodes>
            0 -1 18 -1073232893 -671612993 -9 -536873537 -102762561
            -16779265 -67110913 -1051728125</internalNodes>
          <leafValues>
            -5.1738357543945312e-01 7.1794724464416504e-01</leafValues></_>
        <_>
          <internalNodes>
            0 -1 6 -286265737 -285212933 2079326079 -672140 864026623
            -257 1681915251 -3277</internalNodes>
          <leafValues>
            -5.2953702211380005e-01 6.9906258583068848e-01</leafValues></_>
        <_>
          <internalNodes>
            0 -1 14 246786 -69217289 -1673274593 -35659817 -104867905
            -72907621 -291510305 -1049376985</internalNodes>
          <leafValues>
            -6.5532284975051880e-01 5.4788160324096680e-01</leafValues></_>
        <_>
          <internalNodes>
            0 -1 17 -1072709629 -2049 -1 -42469377 -406847521 -5
            -671088641 -1019230801</internalNodes>
          <leafValues>
            -5.4341697692871094e-01 6.3059586286544800e-01</leafValues></_>
        <_>
          <internalNodes>
            0 -1 19 -67111938 1065021934 58992640 290986410 1011368672
            671621156 1499542864 1576009727</internalNodes>
          <leafValues>
            -7.3306059837341309e-01 5.0093317031860352e-01</leafValues></_></weakClassifiers></_></stages>
  <features>
    <_>
      <rect>
        0 0 4 1</rect></_>
    <_>
      <rect>
        0 0 5 1</rect></_>
    <_>
      <rect>
        0 1 13 1</rect></_>
    <_>
      <rect>
        0 1 19 1</rect></_>
    <_>
      <rect>
        0 2 4 3</rect></_>
    <_>
      <rect>
        0 8 18 1</rect></_>
    <_>
      <rect>
        1 1 2 1</rect></_>
    <_>
      <rect>
        1 1 6 1</rect></_>
    <_>
      <rect>
        3 2 16 1</rect></_>
    <_>
      <rect>
        4 2 1 1</rect></_>
    <_>
      <rect>
        5 3 1 2</rect></_>
    <_>
      <rect>
        7 0 13 1</rect></_>
    <_>
      <rect>
        8 1 12 1</rect></_>
    <_>
      <rect>
        9 9 17 1</rect></_>
    <_>
      <rect>
        12 0 1 2</rect></_>
    <_>
      <rect>
        18 8 14 1</rect></_>
    <_>
      <rect>
        30 10 8 1</rect></_>
    <_>
      <rect>
        33 0 1 2</rect></_>
    <_>
      <rect>
        35 0 1 2</rect></_>
    <_>
      <rect>
        37 4 2 3</rect></_>
    <_>
      <rect>
        38 0 1 2</rect></_>
    <_>
      <rect>
        39 9 7 1</rect></_>
    <_>
      <rect>
        40 10 6 1</rect></_>
    <_>
      <rect>
        48 4 2 3</rect></_>
    <_>
      <rect>
        51 9 2 1</rect></_>
    <_>
      <rect>
        54 9 2 1</rect></_></features></cascade>
</opencv_storage>
