<?xml version="1.0"?>
<!--
opencv_traincascade -data /home/holger/cv/data_mixed/p5000_n4000_52x13_fa_03_extra_rot/ -vec /home/holger/cv/kennzeichen_all_bg/kennzeichen_52x13_extra_rot.vec -bg /home/holger/cv/data_openalpr/index_neg.info -numPos 5000 -numNeg 4000 -numStages 9 -w 52 -h 13 -featureType LBP -maxFalseAlarmRate 0.3
-->
<opencv_storage>
<cascade>
  <stageType>BOOST</stageType>
  <featureType>LBP</featureType>
  <height>13</height>
  <width>52</width>
  <stageParams>
    <boostType>GAB</boostType>
    <minHitRate>9.9500000476837158e-01</minHitRate>
    <maxFalseAlarm>3.0000001192092896e-01</maxFalseAlarm>
    <weightTrimRate>9.4999999999999996e-01</weightTrimRate>
    <maxDepth>1</maxDepth>
    <maxWeakCount>100</maxWeakCount></stageParams>
  <featureParams>
    <maxCatCount>256</maxCatCount>
    <featSize>1</featSize></featureParams>
  <stageNum>9</stageNum>
  <stages>
    <!-- stage 0 -->
    <_>
      <maxWeakCount>3</maxWeakCount>
      <stageThreshold>-9.9284362792968750e-01</stageThreshold>
      <weakClassifiers>
        <_>
          <internalNodes>
            0 -1 25 286263448 1062277337 352326141 1595736345 713033978
            -1147631478 143305375 -1442129733</internalNodes>
          <leafValues>
            -8.8194626569747925e-01 8.2401221990585327e-01</leafValues></_>
        <_>
          <internalNodes>
            0 -1 3 -666892066 -577634152 -2080357889 -577765364
            -1719105285 -74841974 -1953985537 -609746808</internalNodes>
          <leafValues>
            -8.1709027290344238e-01 7.7083355188369751e-01</leafValues></_>
        <_>
          <internalNodes>
            0 -1 12 -2144296716 -552533759 8390687 486604809 -2013017605
            -1348990848 137070815 262865643</internalNodes>
          <leafValues>
            -7.6671475172042847e-01 7.0619297027587891e-01</leafValues></_></weakClassifiers></_>
    <!-- stage 1 -->
    <_>
      <maxWeakCount>3</maxWeakCount>
      <stageThreshold>-7.0471143722534180e-01</stageThreshold>
      <weakClassifiers>
        <_>
          <internalNodes>
            0 -1 33 -197123 -245923 -720899 -193515 -17235971 -4423684
            -196609 -1442316288</internalNodes>
          <leafValues>
            -7.8366225957870483e-01 8.2789671421051025e-01</leafValues></_>
        <_>
          <internalNodes>
            0 -1 2 -33505060 -40697836 285217247 -40501248 -1979545349
            -96851831 -1725920565 -1349547829</internalNodes>
          <leafValues>
            -7.0532763004302979e-01 8.3287477493286133e-01</leafValues></_>
        <_>
          <internalNodes>
            0 -1 26 -1325395888 -1154277582 1001596667 -1074722829
            -1189431352 -1078034497 574043067 -1153755749</internalNodes>
          <leafValues>
            -7.1266716718673706e-01 7.8427845239639282e-01</leafValues></_></weakClassifiers></_>
    <!-- stage 2 -->
    <_>
      <maxWeakCount>4</maxWeakCount>
      <stageThreshold>-1.4844944477081299e+00</stageThreshold>
      <weakClassifiers>
        <_>
          <internalNodes>
            0 -1 31 353371408 2132377621 -1861150211 -10809201 580398078
            -1081603670 -1433752838 -1079260518</internalNodes>
          <leafValues>
            -8.2810813188552856e-01 7.6679247617721558e-01</leafValues></_>
        <_>
          <internalNodes>
            0 -1 20 -721358376 -40824681 -2113929061 -16711149 176720042
            -1141342040 150997643 188416010</internalNodes>
          <leafValues>
            -7.7509826421737671e-01 7.3110973834991455e-01</leafValues></_>
        <_>
          <internalNodes>
            0 -1 6 -586628872 -11762496 151027933 218169385 -896616295
            -72628008 430615551 -1080055377</internalNodes>
          <leafValues>
            -7.1766066551208496e-01 7.1681499481201172e-01</leafValues></_>
        <_>
          <internalNodes>
            0 -1 34 -1742712624 -2949065 353464831 1037107219
            -1471668038 -1682767736 -1987302753 -1147466817</internalNodes>
          <leafValues>
            -6.6983544826507568e-01 7.3408699035644531e-01</leafValues></_></weakClassifiers></_>
    <!-- stage 3 -->
    <_>
      <maxWeakCount>5</maxWeakCount>
      <stageThreshold>-8.2610619068145752e-01</stageThreshold>
      <weakClassifiers>
        <_>
          <internalNodes>
            0 -1 11 -1049617 7252718 -275846486 145722031 -536870913
            4573431 -5242961 -1025</internalNodes>
          <leafValues>
            -6.4206552505493164e-01 7.8230720758438110e-01</leafValues></_>
        <_>
          <internalNodes>
            0 -1 30 -196611 -2163851 -547958275 -2125731 -5440515
            -71384087 -608632833 -1431697408</internalNodes>
          <leafValues>
            -7.0817267894744873e-01 6.8332213163375854e-01</leafValues></_>
        <_>
          <internalNodes>
            0 -1 14 -3388932 -35055108 -6550021 -1240580 -72815621
            -1082885 -1079177217 -2359100</internalNodes>
          <leafValues>
            -7.0152765512466431e-01 6.0630989074707031e-01</leafValues></_>
        <_>
          <internalNodes>
            0 -1 39 -1073496062 -241437745 -1031569021 -1219242217
            -782247025 1904705667 -370285681 -1038105841</internalNodes>
          <leafValues>
            -6.1414688825607300e-01 6.7191737890243530e-01</leafValues></_>
        <_>
          <internalNodes>
            0 -1 37 -213654846 -802832318 -1874673400 -759438718
            -1835540268 1074200644 -211291313 1346622083</internalNodes>
          <leafValues>
            -7.5130265951156616e-01 5.3196907043457031e-01</leafValues></_></weakClassifiers></_>
    <!-- stage 4 -->
    <_>
      <maxWeakCount>6</maxWeakCount>
      <stageThreshold>-1.5140731334686279e+00</stageThreshold>
      <weakClassifiers>
        <_>
          <internalNodes>
            0 -1 7 227061436 -1073744385 532332031 -17441 1006623231
            -26437 -1376261 -343213077</internalNodes>
          <leafValues>
            -7.0460182428359985e-01 6.6226029396057129e-01</leafValues></_>
        <_>
          <internalNodes>
            0 -1 1 -319886594 -33557505 2136136703 -185403694 -355799041
            -69235541 -336920833 -2049</internalNodes>
          <leafValues>
            -6.9758075475692749e-01 5.9953278303146362e-01</leafValues></_>
        <_>
          <internalNodes>
            0 -1 23 -582632004 -570482401 -1112068681 -1075889729
            -5526593 -1074066497 1070410463 805240895</internalNodes>
          <leafValues>
            -7.1495759487152100e-01 5.4498183727264404e-01</leafValues></_>
        <_>
          <internalNodes>
            0 -1 29 -1073496062 -44044853 -773065605 -740830209
            -196345921 -1790444665 -238028053 -1056193021</internalNodes>
          <leafValues>
            -6.2106817960739136e-01 6.3333022594451904e-01</leafValues></_>
        <_>
          <internalNodes>
            0 -1 43 -507002878 -1308401018 -536690558 1654833282
            -769138432 268599818 -1018965245 1397749639</internalNodes>
          <leafValues>
            -6.7451399564743042e-01 5.5530560016632080e-01</leafValues></_>
        <_>
          <internalNodes>
            0 -1 45 -35669072 1033425149 -1643177128 -1075916068
            2073895668 532487102 -5254404 -21762</internalNodes>
          <leafValues>
            -7.2815227508544922e-01 5.0172054767608643e-01</leafValues></_></weakClassifiers></_>
    <!-- stage 5 -->
    <_>
      <maxWeakCount>7</maxWeakCount>
      <stageThreshold>-9.9286967515945435e-01</stageThreshold>
      <weakClassifiers>
        <_>
          <internalNodes>
            0 -1 47 2139094972 1061092351 -33686020 -537011715
            1028619645 1065216447 -592445959 -1025</internalNodes>
          <leafValues>
            -6.9628340005874634e-01 6.1159110069274902e-01</leafValues></_>
        <_>
          <internalNodes>
            0 -1 9 -357652801 -10305 -335547393 -33556481 -303040513
            -67128065 -286272257 -403745537</internalNodes>
          <leafValues>
            -5.6512778997421265e-01 6.9187653064727783e-01</leafValues></_>
        <_>
          <internalNodes>
            0 -1 21 -37464620 -2139651 2071945215 -8431649 -33785350
            -4243522 -17298433 -52143484</internalNodes>
          <leafValues>
            -7.8210538625717163e-01 4.8218378424644470e-01</leafValues></_>
        <_>
          <internalNodes>
            0 -1 0 -896605462 -1352446006 243060431 -1345879041
            -878989377 -73684321 -1162880513 -270536705</internalNodes>
          <leafValues>
            -7.1231895685195923e-01 5.1545870304107666e-01</leafValues></_>
        <_>
          <internalNodes>
            0 -1 32 -1073225726 -3146753 -873203753 -136318097
            -773849093 -9526893 -135529473 -1021852413</internalNodes>
          <leafValues>
            -6.4178562164306641e-01 5.3167974948883057e-01</leafValues></_>
        <_>
          <internalNodes>
            0 -1 15 -523241217 -855638033 -1191182354 -793774346 4385391
            1660923903 2147481471 -134223873</internalNodes>
          <leafValues>
            -5.2756357192993164e-01 6.3707596063613892e-01</leafValues></_>
        <_>
          <internalNodes>
            0 -1 36 -67310595 -520227 -14746659 -14733571 -72810580
            -1164000259 -1612932097 -1397096444</internalNodes>
          <leafValues>
            -6.8457335233688354e-01 4.9456042051315308e-01</leafValues></_></weakClassifiers></_>
    <!-- stage 6 -->
    <_>
      <maxWeakCount>7</maxWeakCount>
      <stageThreshold>-1.0306123495101929e+00</stageThreshold>
      <weakClassifiers>
        <_>
          <internalNodes>
            0 -1 48 -516 -1074010177 -1744831236 -1603 -1431655768
            -1431655750 -1410687816 -1431635781</internalNodes>
          <leafValues>
            -6.3926172256469727e-01 6.0582596063613892e-01</leafValues></_>
        <_>
          <internalNodes>
            0 -1 16 1112531659 539885167 1191180258 -756023570
            -270535681 -339738625 -134219779 -135268385</internalNodes>
          <leafValues>
            -5.4584908485412598e-01 6.1749672889709473e-01</leafValues></_>
        <_>
          <internalNodes>
            0 -1 27 423431448 -8398881 -540801 -67110353 2078161918
            -25153 -806691842 -1372915160</internalNodes>
          <leafValues>
            -8.0242252349853516e-01 4.2386713624000549e-01</leafValues></_>
        <_>
          <internalNodes>
            0 -1 35 -2147236862 -67382337 -69610401 -136321697
            -204472321 -23313 -352060433 -1022376185</internalNodes>
          <leafValues>
            -6.2707465887069702e-01 5.2382773160934448e-01</leafValues></_>
        <_>
          <internalNodes>
            0 -1 10 -291045921 -1360023829 -1048577 -171401 -1931509765
            -1073741825 -276826625 -268474761</internalNodes>
          <leafValues>
            -5.5043113231658936e-01 6.0711842775344849e-01</leafValues></_>
        <_>
          <internalNodes>
            0 -1 5 -2170884 -38630972 -1895788834 1539575740 -1313923
            -13989329 -1122305 -5125</internalNodes>
          <leafValues>
            -6.5393096208572388e-01 4.8926877975463867e-01</leafValues></_>
        <_>
          <internalNodes>
            0 -1 19 -679682050 -10798123 810822131 -67659082 1872531455
            -273427217 184224687 788464138</internalNodes>
          <leafValues>
            -7.6226425170898438e-01 4.1116571426391602e-01</leafValues></_></weakClassifiers></_>
    <!-- stage 7 -->
    <_>
      <maxWeakCount>7</maxWeakCount>
      <stageThreshold>-4.4229456782341003e-01</stageThreshold>
      <weakClassifiers>
        <_>
          <internalNodes>
            0 -1 8 -65537 -549822633 -67436545 1060274175 -67109889
            -18462408 -1 -1</internalNodes>
          <leafValues>
            -3.6191537976264954e-01 8.1672203540802002e-01</leafValues></_>
        <_>
          <internalNodes>
            0 -1 38 -1 -466948 896843516 2145140734 -196612 1071152604
            1068777468 -1</internalNodes>
          <leafValues>
            -4.0702214837074280e-01 7.2489488124847412e-01</leafValues></_>
        <_>
          <internalNodes>
            0 -1 24 245762 -3676161 -205007873 -44042881 -68162593
            -72357669 -101720577 -1023162769</internalNodes>
          <leafValues>
            -5.8869761228561401e-01 5.3583860397338867e-01</leafValues></_>
        <_>
          <internalNodes>
            0 -1 44 -4 -197172 131348476 536624124 -1157830148 786972821
            1072962556 -1</internalNodes>
          <leafValues>
            -6.5011179447174072e-01 4.5792409777641296e-01</leafValues></_>
        <_>
          <internalNodes>
            0 -1 17 -100670805 52930438 -757087514 1347416767
            -1309963665 572472439 -746859205 2002780159</internalNodes>
          <leafValues>
            -6.2173926830291748e-01 4.9801459908485413e-01</leafValues></_>
        <_>
          <internalNodes>
            0 -1 41 -1837083299 -1073856641 -8392705 -1075879973
            -1073922049 -25219203 -1191526657 -1073848321</internalNodes>
          <leafValues>
            -5.3173226118087769e-01 5.7397264242172241e-01</leafValues></_>
        <_>
          <internalNodes>
            0 -1 18 -924128566 -9977233 -832840289 -149161737 -872420369
            -55652382 -118496305 -823136593</internalNodes>
          <leafValues>
            -6.1457079648971558e-01 5.0867789983749390e-01</leafValues></_></weakClassifiers></_>
    <!-- stage 8 -->
    <_>
      <maxWeakCount>7</maxWeakCount>
      <stageThreshold>-7.2863554954528809e-01</stageThreshold>
      <weakClassifiers>
        <_>
          <internalNodes>
            0 -1 13 -368390057 -134220289 -3 -131587 -17828355 -515 -769
            -34775811</internalNodes>
          <leafValues>
            -4.6067908406257629e-01 6.9966179132461548e-01</leafValues></_>
        <_>
          <internalNodes>
            0 -1 40 -1073496062 -675292321 -175383681 -136329357
            -83889153 -609246221 -68161537 -1039154897</internalNodes>
          <leafValues>
            -5.2633821964263916e-01 5.4988992214202881e-01</leafValues></_>
        <_>
          <internalNodes>
            0 -1 46 1061142301 1059030847 -780705283 -39846993
            2139059069 1998837643 -571486563 -1049605</internalNodes>
          <leafValues>
            -6.2931746244430542e-01 4.6137487888336182e-01</leafValues></_>
        <_>
          <internalNodes>
            0 -1 4 -830476545 -795425025 553643775 -537010177 -482344993
            -1066119425 -209715205 -257</internalNodes>
          <leafValues>
            -4.1932043433189392e-01 6.9015121459960938e-01</leafValues></_>
        <_>
          <internalNodes>
            0 -1 28 -2 1534648316 1070379484 1067201470 492619676
            982537485 1005894380 -1048577</internalNodes>
          <leafValues>
            -5.5772620439529419e-01 5.2291363477706909e-01</leafValues></_>
        <_>
          <internalNodes>
            0 -1 42 -66822 -566746664 297274196 497040476 -1947162440
            674247072 442514364 2147481591</internalNodes>
          <leafValues>
            -6.8285608291625977e-01 4.3311026692390442e-01</leafValues></_>
        <_>
          <internalNodes>
            0 -1 22 -134234434 2080152460 86507544 425468828 962369672
            180883516 2133597646 1610612719</internalNodes>
          <leafValues>
            -7.0641738176345825e-01 3.8068148493766785e-01</leafValues></_></weakClassifiers></_></stages>
  <features>
    <_>
      <rect>
        0 0 15 4</rect></_>
    <_>
      <rect>
        0 1 6 1</rect></_>
    <_>
      <rect>
        0 1 10 1</rect></_>
    <_>
      <rect>
        0 1 13 1</rect></_>
    <_>
      <rect>
        0 6 3 2</rect></_>
    <_>
      <rect>
        0 7 12 2</rect></_>
    <_>
      <rect>
        0 7 14 2</rect></_>
    <_>
      <rect>
        0 9 17 1</rect></_>
    <_>
      <rect>
        0 10 4 1</rect></_>
    <_>
      <rect>
        1 0 3 1</rect></_>
    <_>
      <rect>
        1 1 2 1</rect></_>
    <_>
      <rect>
        1 2 3 3</rect></_>
    <_>
      <rect>
        2 8 15 1</rect></_>
    <_>
      <rect>
        3 0 2 1</rect></_>
    <_>
      <rect>
        3 1 15 1</rect></_>
    <_>
      <rect>
        3 2 1 1</rect></_>
    <_>
      <rect>
        4 2 1 2</rect></_>
    <_>
      <rect>
        4 3 1 2</rect></_>
    <_>
      <rect>
        5 0 8 3</rect></_>
    <_>
      <rect>
        5 2 13 1</rect></_>
    <_>
      <rect>
        7 2 15 1</rect></_>
    <_>
      <rect>
        9 1 7 1</rect></_>
    <_>
      <rect>
        9 4 1 3</rect></_>
    <_>
      <rect>
        9 8 14 1</rect></_>
    <_>
      <rect>
        10 0 1 2</rect></_>
    <_>
      <rect>
        10 9 13 1</rect></_>
    <_>
      <rect>
        13 0 10 1</rect></_>
    <_>
      <rect>
        13 9 13 1</rect></_>
    <_>
      <rect>
        21 7 1 2</rect></_>
    <_>
      <rect>
        24 0 1 2</rect></_>
    <_>
      <rect>
        24 10 6 1</rect></_>
    <_>
      <rect>
        25 9 9 1</rect></_>
    <_>
      <rect>
        26 0 1 2</rect></_>
    <_>
      <rect>
        27 10 6 1</rect></_>
    <_>
      <rect>
        29 0 7 1</rect></_>
    <_>
      <rect>
        30 0 1 2</rect></_>
    <_>
      <rect>
        30 10 6 1</rect></_>
    <_>
      <rect>
        31 1 2 3</rect></_>
    <_>
      <rect>
        31 7 1 2</rect></_>
    <_>
      <rect>
        32 0 1 2</rect></_>
    <_>
      <rect>
        35 0 1 2</rect></_>
    <_>
      <rect>
        36 0 3 1</rect></_>
    <_>
      <rect>
        37 4 1 3</rect></_>
    <_>
      <rect>
        39 1 1 3</rect></_>
    <_>
      <rect>
        42 7 1 2</rect></_>
    <_>
      <rect>
        43 9 2 1</rect></_>
    <_>
      <rect>
        43 9 3 1</rect></_>
    <_>
      <rect>
        45 9 2 1</rect></_>
    <_>
      <rect>
        46 10 2 1</rect></_></features></cascade>
</opencv_storage>
