<?xml version="1.0"?>
<opencv_storage>
<stage4>
  <maxWeakCount>6</maxWeakCount>
  <stageThreshold>-1.5140731334686279e+00</stageThreshold>
  <weakClassifiers>
    <_>
      <internalNodes>
        0 -1 424 227061436 -1073744385 532332031 -17441 1006623231
        -26437 -1376261 -343213077</internalNodes>
      <leafValues>
        -7.0460182428359985e-01 6.6226029396057129e-01</leafValues></_>
    <_>
      <internalNodes>
        0 -1 88 -319886594 -33557505 2136136703 -185403694 -355799041
        -69235541 -336920833 -2049</internalNodes>
      <leafValues>
        -6.9758075475692749e-01 5.9953278303146362e-01</leafValues></_>
    <_>
      <internalNodes>
        0 -1 4001 -582632004 -570482401 -1112068681 -1075889729 -5526593
        -1074066497 1070410463 805240895</internalNodes>
      <leafValues>
        -7.1495759487152100e-01 5.4498183727264404e-01</leafValues></_>
    <_>
      <internalNodes>
        0 -1 8217 -1073496062 -44044853 -773065605 -740830209 -196345921
        -1790444665 -238028053 -1056193021</internalNodes>
      <leafValues>
        -6.2106817960739136e-01 6.3333022594451904e-01</leafValues></_>
    <_>
      <internalNodes>
        0 -1 10834 -507002878 -1308401018 -536690558 1654833282
        -769138432 268599818 -1018965245 1397749639</internalNodes>
      <leafValues>
        -6.7451399564743042e-01 5.5530560016632080e-01</leafValues></_>
    <_>
      <internalNodes>
        0 -1 11253 -35669072 1033425149 -1643177128 -1075916068
        2073895668 532487102 -5254404 -21762</internalNodes>
      <leafValues>
        -7.2815227508544922e-01 5.0172054767608643e-01</leafValues></_></weakClassifiers></stage4>
</opencv_storage>
