<?xml version="1.0"?>
<opencv_storage>
<stage4>
  <maxWeakCount>4</maxWeakCount>
  <stageThreshold>-3.7293049693107605e-01</stageThreshold>
  <weakClassifiers>
    <_>
      <internalNodes>
        0 -1 27743 -33554436 -98308 1601519036 -114692 -131076
        2146778492 1576878076 -1</internalNodes>
      <leafValues>
        -7.0931476354598999e-01 7.2476124763488770e-01</leafValues></_>
    <_>
      <internalNodes>
        0 -1 104 -890574098 -288700822 -838668594 -842018897 -873467397
        -1098131294 -455148033 -1</internalNodes>
      <leafValues>
        -7.9060256481170654e-01 6.0250896215438843e-01</leafValues></_>
    <_>
      <internalNodes>
        0 -1 1812 -1024524289 1558446075 1751110639 -268442161 269680503
        -71579457 90961191 -1</internalNodes>
      <leafValues>
        -6.4888328313827515e-01 6.5008687973022461e-01</leafValues></_>
    <_>
      <internalNodes>
        0 -1 6937 -1568006213 -2420225 -1291601921 -1140868225
        -1380237313 -69499937 -1081136130 -1531696026</internalNodes>
      <leafValues>
        -8.5249108076095581e-01 4.7689998149871826e-01</leafValues></_></weakClassifiers></stage4>
</opencv_storage>
