<?xml version="1.0"?>
<opencv_storage>
<stage12>
  <maxWeakCount>6</maxWeakCount>
  <stageThreshold>-3.8743147253990173e-01</stageThreshold>
  <weakClassifiers>
    <_>
      <internalNodes>
        0 -1 96 -16847106 -539557604 2081702740 -792453056 -825521989
        -552992503 -16176241 1692788438</internalNodes>
      <leafValues>
        -6.9717705249786377e-01 6.5426170825958252e-01</leafValues></_>
    <_>
      <internalNodes>
        0 -1 516 -402653185 -1380995921 -1 -100668241 -806355107
        -76548098 2080208197 2147480935</internalNodes>
      <leafValues>
        -4.6964246034622192e-01 6.3711035251617432e-01</leafValues></_>
    <_>
      <internalNodes>
        0 -1 849 -753423876 -7134309 221581247 -1189935841 -1694265409
        -1154863102 185410543 727387119</internalNodes>
      <leafValues>
        -6.5956830978393555e-01 4.4541159272193909e-01</leafValues></_>
    <_>
      <internalNodes>
        0 -1 9669 -543361027 -552221859 1476972957 -14690339 -1993431043
        -269582183 -1081942053 -1427241979</internalNodes>
      <leafValues>
        -6.5903908014297485e-01 4.4393375515937805e-01</leafValues></_>
    <_>
      <internalNodes>
        0 -1 9309 -1072970749 -67639305 -167782537 -603979905 -2359297
        -268435529 -100665361 -1016080465</internalNodes>
      <leafValues>
        -5.0146800279617310e-01 5.9053266048431396e-01</leafValues></_>
    <_>
      <internalNodes>
        0 -1 10773 -7341102 -14593724 176162304 1608321826 451474170
        135799048 64555721 1607725054</internalNodes>
      <leafValues>
        -6.5468615293502808e-01 4.0448999404907227e-01</leafValues></_></weakClassifiers></stage12>
</opencv_storage>
