<?xml version="1.0"?>
<opencv_storage>
<stage1>
  <maxWeakCount>4</maxWeakCount>
  <stageThreshold>-2.4423037469387054e-01</stageThreshold>
  <weakClassifiers>
    <_>
      <internalNodes>
        0 -1 12737 -67306499 -213195 -196611 -33796739 -73602307
        -4421463 -21168385 -1944059900</internalNodes>
      <leafValues>
        -7.4474960565567017e-01 8.6464965343475342e-01</leafValues></_>
    <_>
      <internalNodes>
        0 -1 3892 277353873 1025448211 -1659888705 -1652881135 403418105
        -1142292297 774384571 1002113675</internalNodes>
      <leafValues>
        -7.6493120193481445e-01 7.8721147775650024e-01</leafValues></_>
    <_>
      <internalNodes>
        0 -1 11299 487591096 1032974553 1537300479 -2632771 789215418
        -4553542 -1467299138 -1431641896</internalNodes>
      <leafValues>
        -8.9913213253021240e-01 6.0649424791336060e-01</leafValues></_>
    <_>
      <internalNodes>
        0 -1 720 -16064002 -8437165 122047727 -1612873588 -1160521217
        -74870605 1804013227 260767882</internalNodes>
      <leafValues>
        -8.1523418426513672e-01 6.5895617008209229e-01</leafValues></_></weakClassifiers></stage1>
</opencv_storage>
