<?xml version="1.0"?>
<opencv_storage>
<stage10>
  <maxWeakCount>9</maxWeakCount>
  <stageThreshold>-7.5184553861618042e-01</stageThreshold>
  <weakClassifiers>
    <_>
      <internalNodes>
        0 -1 1090 2077047603 -278660 1971322483 -675285001 -18949 -6
        1978662290 -234883792</internalNodes>
      <leafValues>
        -2.5490197539329529e-01 7.7420109510421753e-01</leafValues></_>
    <_>
      <internalNodes>
        0 -1 2201 -67657169 53469967 1782571710 809500607 -1032850149
        -1570394139 -142608833 1937506287</internalNodes>
      <leafValues>
        -5.0268530845642090e-01 5.2674973011016846e-01</leafValues></_>
    <_>
      <internalNodes>
        0 -1 15014 -1 2147287036 2147287036 -1141080580 -1342898180
        1006140925 1056718845 -1</internalNodes>
      <leafValues>
        -4.1225847601890564e-01 5.8663010597229004e-01</leafValues></_>
    <_>
      <internalNodes>
        0 -1 12057 -13023371 -203906475 357847549 -272082339 -766729219
        -101004147 -339410945 -1968569999</internalNodes>
      <leafValues>
        -6.0623359680175781e-01 4.1532248258590698e-01</leafValues></_>
    <_>
      <internalNodes>
        0 -1 15096 -652747271 -1693850625 -1725704836 456652285
        1078202608 -15282940 2047527149 2134636539</internalNodes>
      <leafValues>
        -5.8176821470260620e-01 4.2015779018402100e-01</leafValues></_>
    <_>
      <internalNodes>
        0 -1 14227 -308544044 1518481408 155197696 1070277252
        -1673084772 174198800 176425102 1879035387</internalNodes>
      <leafValues>
        -6.4878112077713013e-01 3.8008227944374084e-01</leafValues></_>
    <_>
      <internalNodes>
        0 -1 604 -831586818 1875793258 252922231 -1919655308 182429915
        -1143073895 1270581727 703557983</internalNodes>
      <leafValues>
        -7.1294772624969482e-01 3.5181570053100586e-01</leafValues></_>
    <_>
      <internalNodes>
        0 -1 14774 -1069030014 -74722357 -896843135 -612117537 -53821301
        -1162919805 -897394713 1080284115</internalNodes>
      <leafValues>
        -6.4402496814727783e-01 4.1286000609397888e-01</leafValues></_>
    <_>
      <internalNodes>
        0 -1 12254 -1 2147021764 -972002818 301486620 -1684224867
        451429537 859352796 -1179665</internalNodes>
      <leafValues>
        -4.9720171093940735e-01 5.2078658342361450e-01</leafValues></_></weakClassifiers></stage10>
</opencv_storage>
