<?xml version="1.0"?>
<opencv_storage>
<stage11>
  <maxWeakCount>5</maxWeakCount>
  <stageThreshold>-1.4069091081619263e+00</stageThreshold>
  <weakClassifiers>
    <_>
      <internalNodes>
        0 -1 9100 -2013047465 -134260993 -34078721 -67141633 -1141117953
        -67447429 -8197 -4228097</internalNodes>
      <leafValues>
        -7.9397308826446533e-01 2.4846453964710236e-01</leafValues></_>
    <_>
      <internalNodes>
        0 -1 121 -2049 -2621461 -673058817 -345575894 -624955905
        -6312705 -268448001 -875566353</internalNodes>
      <leafValues>
        -6.0731232166290283e-01 5.2842205762863159e-01</leafValues></_>
    <_>
      <internalNodes>
        0 -1 9092 -131075 -208515 -2559011 -2293923 -7808003 -4261655
        -1426276387 -1078306339</internalNodes>
      <leafValues>
        -7.2409665584564209e-01 4.1327604651451111e-01</leafValues></_>
    <_>
      <internalNodes>
        0 -1 2134 -495982014 -382995480 -211291981 -218893581 -355467305
        -1066002 -592447664 1130100559</internalNodes>
      <leafValues>
        -7.3403590917587280e-01 4.1066387295722961e-01</leafValues></_>
    <_>
      <internalNodes>
        0 -1 4 250537471 801608531 963377151 2139616895 65767414
        733689877 564904695 536565237</internalNodes>
      <leafValues>
        -7.9124712944030762e-01 4.1007125377655029e-01</leafValues></_></weakClassifiers></stage11>
</opencv_storage>
