<?xml version="1.0"?>
<opencv_storage>
<stage9>
  <maxWeakCount>5</maxWeakCount>
  <stageThreshold>-1.4775049686431885e+00</stageThreshold>
  <weakClassifiers>
    <_>
      <internalNodes>
        0 -1 9673 -397679357 -9217 -1784688641 -2624609 -2098689
        -84951585 -2100225 -1020279025</internalNodes>
      <leafValues>
        -7.7754974365234375e-01 3.2498434185981750e-01</leafValues></_>
    <_>
      <internalNodes>
        0 -1 330 -822089985 -964704553 -1931883777 -805860673 -743711233
        -541073413 -39329825 -536879105</internalNodes>
      <leafValues>
        -6.4864313602447510e-01 5.3602212667465210e-01</leafValues></_>
    <_>
      <internalNodes>
        0 -1 2524 -360259070 -741874713 -789551 -672140669 -355468341
        -563099985 -283117169 1124595267</internalNodes>
      <leafValues>
        -7.5780010223388672e-01 4.3297028541564941e-01</leafValues></_>
    <_>
      <internalNodes>
        0 -1 3224 -6313281 -536894561 1068567359 1067392927 268373951
        515708095 480182703 1073684415</internalNodes>
      <leafValues>
        -8.5689193010330200e-01 3.7070265412330627e-01</leafValues></_>
    <_>
      <internalNodes>
        0 -1 9320 -90155563 -43521 -1166321665 -7384069 -1347723781
        -5548389 -339903765 -1073775109</internalNodes>
      <leafValues>
        -7.6674878597259521e-01 4.4654840230941772e-01</leafValues></_></weakClassifiers></stage9>
</opencv_storage>
