<?xml version="1.0"?>
<opencv_storage>
<stage7>
  <maxWeakCount>4</maxWeakCount>
  <stageThreshold>-2.0058529376983643e+00</stageThreshold>
  <weakClassifiers>
    <_>
      <internalNodes>
        0 -1 2895 -550298369 -141313 -178307073 -8404993 -1140867073
        -4200257 -70533121 -67109893</internalNodes>
      <leafValues>
        -7.7132558822631836e-01 3.9430895447731018e-01</leafValues></_>
    <_>
      <internalNodes>
        0 -1 11023 -4 -262145 -536870915 -129 -1230766083 -5524483
        -1413752067 -1879352003</internalNodes>
      <leafValues>
        -8.0983865261077881e-01 3.7716031074523926e-01</leafValues></_>
    <_>
      <internalNodes>
        0 -1 2936 -1180117540 -11809 -1073752065 -1075848705 -1078984705
        -27969 -1077936129 -1073741825</internalNodes>
      <leafValues>
        -8.8209968805313110e-01 4.0333113074302673e-01</leafValues></_>
    <_>
      <internalNodes>
        0 -1 2343 -4114 -1355891026 -1833705248 45738158 -36701362
        1141276676 -144182367 1937766383</internalNodes>
      <leafValues>
        -8.2801973819732666e-01 4.1308397054672241e-01</leafValues></_></weakClassifiers></stage7>
</opencv_storage>
