<?xml version="1.0"?>
<opencv_storage>
<cascade>
  <stageType>BOOST</stageType>
  <featureType>LBP</featureType>
  <height>13</height>
  <width>52</width>
  <stageParams>
    <boostType>GAB</boostType>
    <minHitRate>9.9500000476837158e-01</minHitRate>
    <maxFalseAlarm>2.0000000298023224e-01</maxFalseAlarm>
    <weightTrimRate>9.4999999999999996e-01</weightTrimRate>
    <maxDepth>1</maxDepth>
    <maxWeakCount>100</maxWeakCount></stageParams>
  <featureParams>
    <maxCatCount>256</maxCatCount>
    <featSize>1</featSize></featureParams>
  <stageNum>8</stageNum>
  <stages>
    <!-- stage 0 -->
    <_>
      <maxWeakCount>4</maxWeakCount>
      <stageThreshold>-1.4876403808593750e+00</stageThreshold>
      <weakClassifiers>
        <_>
          <internalNodes>
            0 -1 25 286263448 1062277337 352326141 1595736345 713033978
            -1147631478 143305375 -1442129733</internalNodes>
          <leafValues>
            -8.8194626569747925e-01 8.2401221990585327e-01</leafValues></_>
        <_>
          <internalNodes>
            0 -1 4 -666892066 -577634152 -2080357889 -577765364
            -1719105285 -74841974 -1953985537 -609746808</internalNodes>
          <leafValues>
            -8.1709027290344238e-01 7.7083355188369751e-01</leafValues></_>
        <_>
          <internalNodes>
            0 -1 11 -2144296716 -552533759 8390687 486604809 -2013017605
            -1348990848 137070815 262865643</internalNodes>
          <leafValues>
            -7.6671475172042847e-01 7.0619297027587891e-01</leafValues></_>
        <_>
          <internalNodes>
            0 -1 18 -795804976 -744996732 285266013 -149290984
            -1971279618 -107347968 -2003789329 -2002124800</internalNodes>
          <leafValues>
            -7.2784751653671265e-01 6.8218690156936646e-01</leafValues></_></weakClassifiers></_>
    <!-- stage 1 -->
    <_>
      <maxWeakCount>5</maxWeakCount>
      <stageThreshold>-6.9833183288574219e-01</stageThreshold>
      <weakClassifiers>
        <_>
          <internalNodes>
            0 -1 20 -1879042672 -1726414831 285284505 1058738195
            -1576496968 -1149235072 704645307 1059787163</internalNodes>
          <leafValues>
            -8.3230972290039062e-01 7.8344434499740601e-01</leafValues></_>
        <_>
          <internalNodes>
            0 -1 3 -1259268 -1175812 -217089 2111049444 -28930 -4198657
            -86273 -70308658</internalNodes>
          <leafValues>
            -7.3835271596908569e-01 8.1876313686370850e-01</leafValues></_>
        <_>
          <internalNodes>
            0 -1 53 -2820 -4280325 -536937220 -675287809 -1431663992
            -1464162136 -1465743176 -1146410837</internalNodes>
          <leafValues>
            -6.3997018337249756e-01 8.7693071365356445e-01</leafValues></_>
        <_>
          <internalNodes>
            0 -1 45 -328724 1576599292 523542524 1035746780 -1615020580
            747134972 535838716 -1073741825</internalNodes>
          <leafValues>
            -7.0532715320587158e-01 7.8170311450958252e-01</leafValues></_>
        <_>
          <internalNodes>
            0 -1 27 -711667308 -552534015 1359029137 -15134689
            -2147426070 -1147666294 1132661387 187367434</internalNodes>
          <leafValues>
            -7.6390826702117920e-01 7.0072704553604126e-01</leafValues></_></weakClassifiers></_>
    <!-- stage 2 -->
    <_>
      <maxWeakCount>6</maxWeakCount>
      <stageThreshold>-1.3686603307723999e+00</stageThreshold>
      <weakClassifiers>
        <_>
          <internalNodes>
            0 -1 33 -196611 -134418947 -198659 -15755 -65539 -65539
            -196609 -1364590592</internalNodes>
          <leafValues>
            -7.0477640628814697e-01 7.4526065587997437e-01</leafValues></_>
        <_>
          <internalNodes>
            0 -1 8 -17 7251055 -408696662 145721999 -559940625 73518130
            -135289873 -1</internalNodes>
          <leafValues>
            -6.7431455850601196e-01 7.6850420236587524e-01</leafValues></_>
        <_>
          <internalNodes>
            0 -1 22 -37724708 -174620 2009029887 -12618243 -106889217
            -307461 -78635073 -53214080</internalNodes>
          <leafValues>
            -7.5409245491027832e-01 6.0718286037445068e-01</leafValues></_>
        <_>
          <internalNodes>
            0 -1 40 -1073496062 -740295793 -18874401 -149430921
            -780140545 -134217921 -238159889 -1022377193</internalNodes>
          <leafValues>
            -6.0179346799850464e-01 6.9007885456085205e-01</leafValues></_>
        <_>
          <internalNodes>
            0 -1 42 1058357040 1057553399 994114489 -539632145 761609966
            -1145063254 -1074792198 -269747478</internalNodes>
          <leafValues>
            -7.5962221622467041e-01 5.4236912727355957e-01</leafValues></_>
        <_>
          <internalNodes>
            0 -1 34 -18 2117631996 1060388476 1060941756 1610128764
            530611701 -1073928452 -1</internalNodes>
          <leafValues>
            -5.8687251806259155e-01 6.8312001228332520e-01</leafValues></_></weakClassifiers></_>
    <!-- stage 3 -->
    <_>
      <maxWeakCount>6</maxWeakCount>
      <stageThreshold>-4.4116932153701782e-01</stageThreshold>
      <weakClassifiers>
        <_>
          <internalNodes>
            0 -1 26 -536896067 -4374529 1073418175 -49217 -1073791041
            -1073803329 1073680063 1073680191</internalNodes>
          <leafValues>
            -5.9796804189682007e-01 7.1352237462997437e-01</leafValues></_>
        <_>
          <internalNodes>
            0 -1 0 -359732481 -134229129 2109822431 1610568415
            -420552001 -1101121 -390642433 1206862075</internalNodes>
          <leafValues>
            -6.7298215627670288e-01 6.0757887363433838e-01</leafValues></_>
        <_>
          <internalNodes>
            0 -1 2 -1001470258 -615544145 -1718353921 1608485771
            -39850769 -1385797 -608179457 -23569</internalNodes>
          <leafValues>
            -6.8304342031478882e-01 5.8842515945434570e-01</leafValues></_>
        <_>
          <internalNodes>
            0 -1 49 -16456 1037749247 -1159250564 -1075930148 2017147636
            1001196266 -5259528 -1285</internalNodes>
          <leafValues>
            -7.2938668727874756e-01 5.0850498676300049e-01</leafValues></_>
        <_>
          <internalNodes>
            0 -1 31 -82 537034954 67250688 78152330 687239424 132096
            952247040 2080373727</internalNodes>
          <leafValues>
            -7.3830687999725342e-01 5.1515638828277588e-01</leafValues></_>
        <_>
          <internalNodes>
            0 -1 29 928845628 2139088895 -75506177 -1073769569 -427010
            -90254593 -72699914 -1346708758</internalNodes>
          <leafValues>
            -7.2891348600387573e-01 4.7115767002105713e-01</leafValues></_></weakClassifiers></_>
    <!-- stage 4 -->
    <_>
      <maxWeakCount>8</maxWeakCount>
      <stageThreshold>-5.6894880533218384e-01</stageThreshold>
      <weakClassifiers>
        <_>
          <internalNodes>
            0 -1 21 -37464612 -2269218 -40961 -33589330 -17006598
            -1348610 -50561025 -52145500</internalNodes>
          <leafValues>
            -7.9168075323104858e-01 5.5287110805511475e-01</leafValues></_>
        <_>
          <internalNodes>
            0 -1 6 -286261249 -1364726545 -1 -688393 -807403521
            -1073741825 -1 -2445</internalNodes>
          <leafValues>
            -5.1155132055282593e-01 7.7096164226531982e-01</leafValues></_>
        <_>
          <internalNodes>
            0 -1 1 -823218514 -823204145 -1381111041 264105983
            -543170625 -1089763089 -812672081 -269485057</internalNodes>
          <leafValues>
            -6.9448935985565186e-01 5.2893358469009399e-01</leafValues></_>
        <_>
          <internalNodes>
            0 -1 35 -6488099 -537079459 -977207299 -3351251 -6506499
            -1090981895 -73732097 -1363673020</internalNodes>
          <leafValues>
            -7.3815405368804932e-01 5.1181471347808838e-01</leafValues></_>
        <_>
          <internalNodes>
            0 -1 50 2136989465 1059061739 -571736132 -541198369
            796260153 1971175292 -645169699 -33833985</internalNodes>
          <leafValues>
            -6.8728888034820557e-01 4.8616859316825867e-01</leafValues></_>
        <_>
          <internalNodes>
            0 -1 37 -1073232893 -536879617 -307241345 -101190145
            -106956801 -70263761 -346031617 -1039153345</internalNodes>
          <leafValues>
            -5.4182714223861694e-01 6.3758707046508789e-01</leafValues></_>
        <_>
          <internalNodes>
            0 -1 23 -2073092 -35331 852827835 1610438036 -738562
            -22449793 2127921087 1976827904</internalNodes>
          <leafValues>
            -7.9651832580566406e-01 4.0286055207252502e-01</leafValues></_>
        <_>
          <internalNodes>
            0 -1 41 -1073233662 -11018241 -1479543061 -330769 -636749857
            -278930257 -460856321 -1022376177</internalNodes>
          <leafValues>
            -6.1910086870193481e-01 5.4571193456649780e-01</leafValues></_></weakClassifiers></_>
    <!-- stage 5 -->
    <_>
      <maxWeakCount>8</maxWeakCount>
      <stageThreshold>-1.2677733898162842e+00</stageThreshold>
      <weakClassifiers>
        <_>
          <internalNodes>
            0 -1 13 -523241233 -1058013201 -1124204546 -252709130
            4516847 1157607423 2130706415 -6161</internalNodes>
          <leafValues>
            -5.1206189393997192e-01 7.0560139417648315e-01</leafValues></_>
        <_>
          <internalNodes>
            0 -1 51 2147450876 1070496703 1600585180 -239681 2146396664
            1069239275 2077973976 -2228225</internalNodes>
          <leafValues>
            -7.6228410005569458e-01 4.5044580101966858e-01</leafValues></_>
        <_>
          <internalNodes>
            0 -1 32 -2 2138895294 422591484 1065105374 1063056380
            1004028405 960279292 -1025</internalNodes>
          <leafValues>
            -5.7736337184906006e-01 5.5226540565490723e-01</leafValues></_>
        <_>
          <internalNodes>
            0 -1 30 -1870637739 -1076143009 -1108094497 -1076199979
            -1953940547 -33841 -1347770406 -1073790993</internalNodes>
          <leafValues>
            -5.9435814619064331e-01 5.6115722656250000e-01</leafValues></_>
        <_>
          <internalNodes>
            0 -1 36 -1072971773 -705691777 -805306373 -35661825 -9437201
            -268435457 -71309313 -1013984753</internalNodes>
          <leafValues>
            -5.1217478513717651e-01 6.2384349107742310e-01</leafValues></_>
        <_>
          <internalNodes>
            0 -1 47 -2164262 -153214794 232012496 1067997576 -2108028464
            974128788 1047876088 2147483647</internalNodes>
          <leafValues>
            -7.3790806531906128e-01 4.0453425049781799e-01</leafValues></_>
        <_>
          <internalNodes>
            0 -1 39 -1 -34021378 -1208713220 535314174 2147287036
            802701301 1056227308 -65795</internalNodes>
          <leafValues>
            -5.1177424192428589e-01 5.8804428577423096e-01</leafValues></_>
        <_>
          <internalNodes>
            0 -1 43 -329731 -604343943 -101779971 1072675549 -70730787
            -67312147 -1359515681 -1430649769</internalNodes>
          <leafValues>
            -5.2905881404876709e-01 5.6697255373001099e-01</leafValues></_></weakClassifiers></_>
    <!-- stage 6 -->
    <_>
      <maxWeakCount>8</maxWeakCount>
      <stageThreshold>-1.3632676601409912e+00</stageThreshold>
      <weakClassifiers>
        <_>
          <internalNodes>
            0 -1 5 -65665 -369857 -69533697 -1147110017 -5377 -12695192
            -201326593 -33</internalNodes>
          <leafValues>
            -3.6672896146774292e-01 8.1150686740875244e-01</leafValues></_>
        <_>
          <internalNodes>
            0 -1 15 -118863672 -7809 -551560193 -44172065 -74519810
            -5259085 -67252244 -186325820</internalNodes>
          <leafValues>
            -7.5098031759262085e-01 4.6828806400299072e-01</leafValues></_>
        <_>
          <internalNodes>
            0 -1 17 -88087889 -1971091954 -1605942654 34316975
            -620758181 1108040207 1397154067 1465903103</internalNodes>
          <leafValues>
            -6.7022961378097534e-01 4.2075315117835999e-01</leafValues></_>
        <_>
          <internalNodes>
            0 -1 16 -204013572 -1614945897 -651087781 -1778913102
            132950955 534456795 781658926 738131978</internalNodes>
          <leafValues>
            -7.5326454639434814e-01 3.9142513275146484e-01</leafValues></_>
        <_>
          <internalNodes>
            0 -1 44 -1072970750 -70298625 -673197065 -44313607
            -232790049 -22160375 -674239489 -1022376693</internalNodes>
          <leafValues>
            -6.0310572385787964e-01 4.6448451280593872e-01</leafValues></_>
        <_>
          <internalNodes>
            0 -1 28 -2293764 2142765756 339746616 932233180 895269884
            975716592 1065139452 -1049601</internalNodes>
          <leafValues>
            -7.0257151126861572e-01 3.9120095968246460e-01</leafValues></_>
        <_>
          <internalNodes>
            0 -1 9 1078966803 1577057187 1006632757 -134 1458569214
            -2625 1683488593 -134220172</internalNodes>
          <leafValues>
            -5.1215606927871704e-01 5.5606812238693237e-01</leafValues></_>
        <_>
          <internalNodes>
            0 -1 46 -2 -75739344 433088476 1064591580 -997395480
            1050181436 466939868 -8705</internalNodes>
          <leafValues>
            -5.4642474651336670e-01 5.2026808261871338e-01</leafValues></_></weakClassifiers></_>
    <!-- stage 7 -->
    <_>
      <maxWeakCount>10</maxWeakCount>
      <stageThreshold>-7.0300078392028809e-01</stageThreshold>
      <weakClassifiers>
        <_>
          <internalNodes>
            0 -1 12 -368390057 -10757 -8195 -3285505 -17826305 -2561
            -318841345 -319990531</internalNodes>
          <leafValues>
            -4.9125230312347412e-01 6.7310994863510132e-01</leafValues></_>
        <_>
          <internalNodes>
            0 -1 14 1078969071 36699751 1929377514 -93325594 -271584289
            -273678369 -4718593 -206571553</internalNodes>
          <leafValues>
            -4.7443297505378723e-01 5.7325249910354614e-01</leafValues></_>
        <_>
          <internalNodes>
            0 -1 52 -12591330 387972927 -861151916 -1646404173
            -924120043 169562269 -921970603 -572663331</internalNodes>
          <leafValues>
            -6.6395241022109985e-01 4.0808153152465820e-01</leafValues></_>
        <_>
          <internalNodes>
            0 -1 38 -1073528829 -1073 -386401281 -15732385 -103811585
            -51654149 -136314945 -1072708209</internalNodes>
          <leafValues>
            -5.5625116825103760e-01 4.7018676996231079e-01</leafValues></_>
        <_>
          <internalNodes>
            0 -1 24 489688252 -1079250439 -679478273 -163531 1073102847
            -28503 2075033567 -1440548117</internalNodes>
          <leafValues>
            -8.3185279369354248e-01 3.3898094296455383e-01</leafValues></_>
        <_>
          <internalNodes>
            0 -1 7 1861152494 -672735798 -268469793 -58787668 737059823
            -6559555 1507821819 1342171903</internalNodes>
          <leafValues>
            -7.0694404840469360e-01 3.2660186290740967e-01</leafValues></_>
        <_>
          <internalNodes>
            0 -1 10 -216535297 1594590747 134227990 260148447 -72801041
            -879783140 -379855617 -805314577</internalNodes>
          <leafValues>
            -5.0191098451614380e-01 5.2283525466918945e-01</leafValues></_>
        <_>
          <internalNodes>
            0 -1 54 246095349 -3416772 -1077996420 883605040 -1931861044
            -1430602321 -34639620 -68486149</internalNodes>
          <leafValues>
            -5.0837677717208862e-01 5.2906209230422974e-01</leafValues></_>
        <_>
          <internalNodes>
            0 -1 48 -326 -1634327300 1470933084 737433448 -1427486472
            682907728 146284244 2146435071</internalNodes>
          <leafValues>
            -6.8012207746505737e-01 3.7317532300949097e-01</leafValues></_>
        <_>
          <internalNodes>
            0 -1 19 -503066494 -749864417 -585641633 -778309266
            -1383075873 952851897 -318775381 1128522507</internalNodes>
          <leafValues>
            -6.1090606451034546e-01 4.2987808585166931e-01</leafValues></_></weakClassifiers></_></stages>
  <features>
    <_>
      <rect>
        0 0 4 1</rect></_>
    <_>
      <rect>
        0 0 11 4</rect></_>
    <_>
      <rect>
        0 0 16 2</rect></_>
    <_>
      <rect>
        0 1 10 1</rect></_>
    <_>
      <rect>
        0 1 13 1</rect></_>
    <_>
      <rect>
        0 10 4 1</rect></_>
    <_>
      <rect>
        1 1 2 1</rect></_>
    <_>
      <rect>
        1 1 3 1</rect></_>
    <_>
      <rect>
        1 2 3 3</rect></_>
    <_>
      <rect>
        2 1 1 1</rect></_>
    <_>
      <rect>
        2 5 14 2</rect></_>
    <_>
      <rect>
        2 8 15 1</rect></_>
    <_>
      <rect>
        3 0 2 1</rect></_>
    <_>
      <rect>
        3 2 1 1</rect></_>
    <_>
      <rect>
        4 2 1 2</rect></_>
    <_>
      <rect>
        6 1 3 1</rect></_>
    <_>
      <rect>
        6 2 15 1</rect></_>
    <_>
      <rect>
        6 3 1 2</rect></_>
    <_>
      <rect>
        6 10 11 1</rect></_>
    <_>
      <rect>
        7 0 1 3</rect></_>
    <_>
      <rect>
        7 0 13 1</rect></_>
    <_>
      <rect>
        8 1 7 1</rect></_>
    <_>
      <rect>
        8 1 10 1</rect></_>
    <_>
      <rect>
        9 1 13 1</rect></_>
    <_>
      <rect>
        9 9 12 1</rect></_>
    <_>
      <rect>
        10 9 13 1</rect></_>
    <_>
      <rect>
        13 8 13 1</rect></_>
    <_>
      <rect>
        14 2 10 1</rect></_>
    <_>
      <rect>
        14 7 1 2</rect></_>
    <_>
      <rect>
        19 9 11 1</rect></_>
    <_>
      <rect>
        22 0 4 1</rect></_>
    <_>
      <rect>
        22 3 1 3</rect></_>
    <_>
      <rect>
        24 7 1 2</rect></_>
    <_>
      <rect>
        25 10 7 1</rect></_>
    <_>
      <rect>
        26 7 1 2</rect></_>
    <_>
      <rect>
        27 10 3 1</rect></_>
    <_>
      <rect>
        28 0 1 2</rect></_>
    <_>
      <rect>
        30 0 1 2</rect></_>
    <_>
      <rect>
        31 0 1 2</rect></_>
    <_>
      <rect>
        31 7 1 2</rect></_>
    <_>
      <rect>
        32 0 1 2</rect></_>
    <_>
      <rect>
        33 0 1 2</rect></_>
    <_>
      <rect>
        34 9 6 1</rect></_>
    <_>
      <rect>
        35 10 4 1</rect></_>
    <_>
      <rect>
        37 0 1 2</rect></_>
    <_>
      <rect>
        38 7 1 2</rect></_>
    <_>
      <rect>
        39 7 1 2</rect></_>
    <_>
      <rect>
        42 4 1 3</rect></_>
    <_>
      <rect>
        43 4 1 3</rect></_>
    <_>
      <rect>
        43 9 2 1</rect></_>
    <_>
      <rect>
        43 9 3 1</rect></_>
    <_>
      <rect>
        46 9 1 1</rect></_>
    <_>
      <rect>
        46 9 2 1</rect></_>
    <_>
      <rect>
        46 10 2 1</rect></_>
    <_>
      <rect>
        48 10 1 1</rect></_></features></cascade>
</opencv_storage>
