<?xml version="1.0"?>
<opencv_storage>
<stage4>
  <maxWeakCount>8</maxWeakCount>
  <stageThreshold>-5.6894880533218384e-01</stageThreshold>
  <weakClassifiers>
    <_>
      <internalNodes>
        0 -1 3382 -37464612 -2269218 -40961 -33589330 -17006598 -1348610
        -50561025 -52145500</internalNodes>
      <leafValues>
        -7.9168075323104858e-01 5.5287110805511475e-01</leafValues></_>
    <_>
      <internalNodes>
        0 -1 514 -286261249 -1364726545 -1 -688393 -807403521
        -1073741825 -1 -2445</internalNodes>
      <leafValues>
        -5.1155132055282593e-01 7.7096164226531982e-01</leafValues></_>
    <_>
      <internalNodes>
        0 -1 43 -823218514 -823204145 -1381111041 264105983 -543170625
        -1089763089 -812672081 -269485057</internalNodes>
      <leafValues>
        -6.9448935985565186e-01 5.2893358469009399e-01</leafValues></_>
    <_>
      <internalNodes>
        0 -1 9094 -6488099 -537079459 -977207299 -3351251 -6506499
        -1090981895 -73732097 -1363673020</internalNodes>
      <leafValues>
        -7.3815405368804932e-01 5.1181471347808838e-01</leafValues></_>
    <_>
      <internalNodes>
        0 -1 11254 2136989465 1059061739 -571736132 -541198369 796260153
        1971175292 -645169699 -33833985</internalNodes>
      <leafValues>
        -6.8728888034820557e-01 4.8616859316825867e-01</leafValues></_>
    <_>
      <internalNodes>
        0 -1 9491 -1073232893 -536879617 -307241345 -101190145
        -106956801 -70263761 -346031617 -1039153345</internalNodes>
      <leafValues>
        -5.4182714223861694e-01 6.3758707046508789e-01</leafValues></_>
    <_>
      <internalNodes>
        0 -1 3770 -2073092 -35331 852827835 1610438036 -738562 -22449793
        2127921087 1976827904</internalNodes>
      <leafValues>
        -7.9651832580566406e-01 4.0286055207252502e-01</leafValues></_>
    <_>
      <internalNodes>
        0 -1 10011 -1073233662 -11018241 -1479543061 -330769 -636749857
        -278930257 -460856321 -1022376177</internalNodes>
      <leafValues>
        -6.1910086870193481e-01 5.4571193456649780e-01</leafValues></_></weakClassifiers></stage4>
</opencv_storage>
