<?xml version="1.0"?>
<opencv_storage>
<stage5>
  <maxWeakCount>8</maxWeakCount>
  <stageThreshold>-1.2677733898162842e+00</stageThreshold>
  <weakClassifiers>
    <_>
      <internalNodes>
        0 -1 1428 -523241233 -1058013201 -1124204546 -252709130 4516847
        1157607423 2130706415 -6161</internalNodes>
      <leafValues>
        -5.1206189393997192e-01 7.0560139417648315e-01</leafValues></_>
    <_>
      <internalNodes>
        0 -1 11410 2147450876 1070496703 1600585180 -239681 2146396664
        1069239275 2077973976 -2228225</internalNodes>
      <leafValues>
        -7.6228410005569458e-01 4.5044580101966858e-01</leafValues></_>
    <_>
      <internalNodes>
        0 -1 8406 -2 2138895294 422591484 1065105374 1063056380
        1004028405 960279292 -1025</internalNodes>
      <leafValues>
        -5.7736337184906006e-01 5.5226540565490723e-01</leafValues></_>
    <_>
      <internalNodes>
        0 -1 7734 -1870637739 -1076143009 -1108094497 -1076199979
        -1953940547 -33841 -1347770406 -1073790993</internalNodes>
      <leafValues>
        -5.9435814619064331e-01 5.6115722656250000e-01</leafValues></_>
    <_>
      <internalNodes>
        0 -1 9101 -1072971773 -705691777 -805306373 -35661825 -9437201
        -268435457 -71309313 -1013984753</internalNodes>
      <leafValues>
        -5.1217478513717651e-01 6.2384349107742310e-01</leafValues></_>
    <_>
      <internalNodes>
        0 -1 11146 -2164262 -153214794 232012496 1067997576 -2108028464
        974128788 1047876088 2147483647</internalNodes>
      <leafValues>
        -7.3790806531906128e-01 4.0453425049781799e-01</leafValues></_>
    <_>
      <internalNodes>
        0 -1 9820 -1 -34021378 -1208713220 535314174 2147287036
        802701301 1056227308 -65795</internalNodes>
      <leafValues>
        -5.1177424192428589e-01 5.8804428577423096e-01</leafValues></_>
    <_>
      <internalNodes>
        0 -1 10450 -329731 -604343943 -101779971 1072675549 -70730787
        -67312147 -1359515681 -1430649769</internalNodes>
      <leafValues>
        -5.2905881404876709e-01 5.6697255373001099e-01</leafValues></_></weakClassifiers></stage5>
</opencv_storage>
