<?xml version="1.0"?>
<opencv_storage>
<stage7>
  <maxWeakCount>10</maxWeakCount>
  <stageThreshold>-7.0300078392028809e-01</stageThreshold>
  <weakClassifiers>
    <_>
      <internalNodes>
        0 -1 1304 -368390057 -10757 -8195 -3285505 -17826305 -2561
        -318841345 -319990531</internalNodes>
      <leafValues>
        -4.9125230312347412e-01 6.7310994863510132e-01</leafValues></_>
    <_>
      <internalNodes>
        0 -1 1845 1078969071 36699751 1929377514 -93325594 -271584289
        -273678369 -4718593 -206571553</internalNodes>
      <leafValues>
        -4.7443297505378723e-01 5.7325249910354614e-01</leafValues></_>
    <_>
      <internalNodes>
        0 -1 11411 -12591330 387972927 -861151916 -1646404173 -924120043
        169562269 -921970603 -572663331</internalNodes>
      <leafValues>
        -6.6395241022109985e-01 4.0808153152465820e-01</leafValues></_>
    <_>
      <internalNodes>
        0 -1 9673 -1073528829 -1073 -386401281 -15732385 -103811585
        -51654149 -136314945 -1072708209</internalNodes>
      <leafValues>
        -5.5625116825103760e-01 4.7018676996231079e-01</leafValues></_>
    <_>
      <internalNodes>
        0 -1 4013 489688252 -1079250439 -679478273 -163531 1073102847
        -28503 2075033567 -1440548117</internalNodes>
      <leafValues>
        -8.3185279369354248e-01 3.3898094296455383e-01</leafValues></_>
    <_>
      <internalNodes>
        0 -1 518 1861152494 -672735798 -268469793 -58787668 737059823
        -6559555 1507821819 1342171903</internalNodes>
      <leafValues>
        -7.0694404840469360e-01 3.2660186290740967e-01</leafValues></_>
    <_>
      <internalNodes>
        0 -1 1183 -216535297 1594590747 134227990 260148447 -72801041
        -879783140 -379855617 -805314577</internalNodes>
      <leafValues>
        -5.0191098451614380e-01 5.2283525466918945e-01</leafValues></_>
    <_>
      <internalNodes>
        0 -1 11465 246095349 -3416772 -1077996420 883605040 -1931861044
        -1430602321 -34639620 -68486149</internalNodes>
      <leafValues>
        -5.0837677717208862e-01 5.2906209230422974e-01</leafValues></_>
    <_>
      <internalNodes>
        0 -1 11224 -326 -1634327300 1470933084 737433448 -1427486472
        682907728 146284244 2146435071</internalNodes>
      <leafValues>
        -6.8012207746505737e-01 3.7317532300949097e-01</leafValues></_>
    <_>
      <internalNodes>
        0 -1 2914 -503066494 -749864417 -585641633 -778309266
        -1383075873 952851897 -318775381 1128522507</internalNodes>
      <leafValues>
        -6.1090606451034546e-01 4.2987808585166931e-01</leafValues></_></weakClassifiers></stage7>
</opencv_storage>
