<?xml version="1.0"?>
<opencv_storage>
<stage1>
  <maxWeakCount>5</maxWeakCount>
  <stageThreshold>-6.9833183288574219e-01</stageThreshold>
  <weakClassifiers>
    <_>
      <internalNodes>
        0 -1 2960 -1879042672 -1726414831 285284505 1058738195
        -1576496968 -1149235072 704645307 1059787163</internalNodes>
      <leafValues>
        -8.3230972290039062e-01 7.8344434499740601e-01</leafValues></_>
    <_>
      <internalNodes>
        0 -1 104 -1259268 -1175812 -217089 2111049444 -28930 -4198657
        -86273 -70308658</internalNodes>
      <leafValues>
        -7.3835271596908569e-01 8.1876313686370850e-01</leafValues></_>
    <_>
      <internalNodes>
        0 -1 11413 -2820 -4280325 -536937220 -675287809 -1431663992
        -1464162136 -1465743176 -1146410837</internalNodes>
      <leafValues>
        -6.3997018337249756e-01 8.7693071365356445e-01</leafValues></_>
    <_>
      <internalNodes>
        0 -1 10797 -328724 1576599292 523542524 1035746780 -1615020580
        747134972 535838716 -1073741825</internalNodes>
      <leafValues>
        -7.0532715320587158e-01 7.8170311450958252e-01</leafValues></_>
    <_>
      <internalNodes>
        0 -1 5531 -711667308 -552534015 1359029137 -15134689 -2147426070
        -1147666294 1132661387 187367434</internalNodes>
      <leafValues>
        -7.6390826702117920e-01 7.0072704553604126e-01</leafValues></_></weakClassifiers></stage1>
</opencv_storage>
