<?xml version="1.0"?>
<opencv_storage>
<stage9>
  <maxWeakCount>5</maxWeakCount>
  <stageThreshold>-1.5871429443359375e+00</stageThreshold>
  <weakClassifiers>
    <_>
      <internalNodes>
        0 -1 501 -1 -8437793 -547618817 -886278 -16818689 -14724775
        -88086081 -11272193</internalNodes>
      <leafValues>
        -8.0635106563568115e-01 3.6499321460723877e-01</leafValues></_>
    <_>
      <internalNodes>
        0 -1 3190 -67108913 -907284529 -826284318 -789385474 -9509041
        1466137351 -138938665 -143144961</internalNodes>
      <leafValues>
        -6.9904047250747681e-01 4.4177615642547607e-01</leafValues></_>
    <_>
      <internalNodes>
        0 -1 12532 -2013244045 -34049 532676607 -67142881 -1145046033
        -335555585 -12582913 -67412481</internalNodes>
      <leafValues>
        -7.7534937858581543e-01 4.4095486402511597e-01</leafValues></_>
    <_>
      <internalNodes>
        0 -1 15300 -536873054 -2002059378 1626862146 1353187122
        -547658162 52164363 -228092410 1397751791</internalNodes>
      <leafValues>
        -8.6724168062210083e-01 3.8247254490852356e-01</leafValues></_>
    <_>
      <internalNodes>
        0 -1 86 -487595265 16773003 -2027686149 1089420218 1207945471
        1299930367 1471894783 1461712895</internalNodes>
      <leafValues>
        -8.2969117164611816e-01 3.8499221205711365e-01</leafValues></_></weakClassifiers></stage9>
</opencv_storage>
