<?xml version="1.0"?>
<opencv_storage>
<stage3>
  <maxWeakCount>4</maxWeakCount>
  <stageThreshold>-2.7068299055099487e-01</stageThreshold>
  <weakClassifiers>
    <_>
      <internalNodes>
        0 -1 1661 -1 -16777729 -2427393 -3233 -68157697 -71566341
        -1048577 -262145</internalNodes>
      <leafValues>
        -9.3149334192276001e-01 8.9494162797927856e-01</leafValues></_>
    <_>
      <internalNodes>
        0 -1 220 -257 -86780673 -4198417 -1179649 -67111937 -21498881
        -201360641 -1</internalNodes>
      <leafValues>
        -8.9401620626449585e-01 8.0108809471130371e-01</leafValues></_>
    <_>
      <internalNodes>
        0 -1 995 -131073 -207873 -33554945 -1057 -67245059 -3649
        -16778241 -131073</internalNodes>
      <leafValues>
        -8.9426380395889282e-01 8.2257449626922607e-01</leafValues></_>
    <_>
      <internalNodes>
        0 -1 15028 1548091207 -2049 -710942721 -1057 -67112961 -1056065
        -68157441 -1025</internalNodes>
      <leafValues>
        -9.3911623954772949e-01 7.5398606061935425e-01</leafValues></_></weakClassifiers></stage3>
</opencv_storage>
