<?xml version="1.0"?>
<!--
opencv_traincascade -data /home/holger/cv/data_equ_all/p5000_n2500_full_background_fa_04/ -vec /home/holger/cv/kennzeichen_equ_all/kennzeichen_60x13_equ_all_full_background_rot.vec -bg /home/holger/cv/neg_additional/index.info -numPos 5000 -numNeg 2500 -numStages 7 -w 60 -h 13 -featureType LBP -maxFalseAlarmRate 0.4
-->
<opencv_storage>
<cascade>
  <stageType>BOOST</stageType>
  <featureType>LBP</featureType>
  <height>13</height>
  <width>60</width>
  <stageParams>
    <boostType>GAB</boostType>
    <minHitRate>9.9500000476837158e-01</minHitRate>
    <maxFalseAlarm>4.0000000596046448e-01</maxFalseAlarm>
    <weightTrimRate>9.4999999999999996e-01</weightTrimRate>
    <maxDepth>1</maxDepth>
    <maxWeakCount>100</maxWeakCount></stageParams>
  <featureParams>
    <maxCatCount>256</maxCatCount>
    <featSize>1</featSize></featureParams>
  <stageNum>7</stageNum>
  <stages>
    <!-- stage 0 -->
    <_>
      <maxWeakCount>2</maxWeakCount>
      <stageThreshold>-6.7399196326732635e-02</stageThreshold>
      <weakClassifiers>
        <_>
          <internalNodes>
            0 -1 15 353371160 2144670037 318775261 -551726755 940583160
            -1400143 680045566 -1440573270</internalNodes>
          <leafValues>
            -8.8566243648529053e-01 8.4063446521759033e-01</leafValues></_>
        <_>
          <internalNodes>
            0 -1 2 -712735010 -6487824 1564527583 -49020212 -74862593
            -71792451 -611807489 -1308532</internalNodes>
          <leafValues>
            -7.8133481740951538e-01 8.1826323270797729e-01</leafValues></_></weakClassifiers></_>
    <!-- stage 1 -->
    <_>
      <maxWeakCount>4</maxWeakCount>
      <stageThreshold>-2.4423037469387054e-01</stageThreshold>
      <weakClassifiers>
        <_>
          <internalNodes>
            0 -1 19 -67306499 -213195 -196611 -33796739 -73602307
            -4421463 -21168385 -1944059900</internalNodes>
          <leafValues>
            -7.4474960565567017e-01 8.6464965343475342e-01</leafValues></_>
        <_>
          <internalNodes>
            0 -1 13 277353873 1025448211 -1659888705 -1652881135
            403418105 -1142292297 774384571 1002113675</internalNodes>
          <leafValues>
            -7.6493120193481445e-01 7.8721147775650024e-01</leafValues></_>
        <_>
          <internalNodes>
            0 -1 18 487591096 1032974553 1537300479 -2632771 789215418
            -4553542 -1467299138 -1431641896</internalNodes>
          <leafValues>
            -8.9913213253021240e-01 6.0649424791336060e-01</leafValues></_>
        <_>
          <internalNodes>
            0 -1 8 -16064002 -8437165 122047727 -1612873588 -1160521217
            -74870605 1804013227 260767882</internalNodes>
          <leafValues>
            -8.1523418426513672e-01 6.5895617008209229e-01</leafValues></_></weakClassifiers></_>
    <!-- stage 2 -->
    <_>
      <maxWeakCount>4</maxWeakCount>
      <stageThreshold>-1.2656233310699463e+00</stageThreshold>
      <weakClassifiers>
        <_>
          <internalNodes>
            0 -1 11 -342891894 -1610383198 1107320834 34062987 19382274
            720898 1091027458 1112527087</internalNodes>
          <leafValues>
            -7.5490194559097290e-01 7.3992675542831421e-01</leafValues></_>
        <_>
          <internalNodes>
            0 -1 4 -1052689 149942015 -269603122 176918190 -1 83356927
            -33 -1</internalNodes>
          <leafValues>
            -5.8508771657943726e-01 7.6399546861648560e-01</leafValues></_>
        <_>
          <internalNodes>
            0 -1 26 -58408 520145363 260248052 -539403047 1929464304
            998314127 1846503896 -5243905</internalNodes>
          <leafValues>
            -8.1143939495086670e-01 5.8007609844207764e-01</leafValues></_>
        <_>
          <internalNodes>
            0 -1 0 -357637377 -209203053 16990747 2065125447 -1999965989
            -342734677 -1442066245 -823175977</internalNodes>
          <leafValues>
            -6.0902291536331177e-01 7.8572618961334229e-01</leafValues></_></weakClassifiers></_>
    <!-- stage 3 -->
    <_>
      <maxWeakCount>4</maxWeakCount>
      <stageThreshold>-3.5249453783035278e-01</stageThreshold>
      <weakClassifiers>
        <_>
          <internalNodes>
            0 -1 14 -104835620 -190987 -317104129 2147442173 -33783810
            -40965 -778241 -670818300</internalNodes>
          <leafValues>
            -7.1649956703186035e-01 7.6743310689926147e-01</leafValues></_>
        <_>
          <internalNodes>
            0 -1 5 -1937076994 -1612738081 -1316710433 -4452033
            -623126081 -6643555 -1081418817 -1440023889</internalNodes>
          <leafValues>
            -7.2628200054168701e-01 6.4031970500946045e-01</leafValues></_>
        <_>
          <internalNodes>
            0 -1 16 -107113000 -11071075 789587391 -1076035553
            -1960670277 -1146410578 181022463 1073678443</internalNodes>
          <leafValues>
            -7.5280147790908813e-01 5.2603465318679810e-01</leafValues></_>
        <_>
          <internalNodes>
            0 -1 1 -863048962 -107535909 -919153153 1349569554
            -455358294 -354481270 -829768805 -587213921</internalNodes>
          <leafValues>
            -7.2946870326995850e-01 5.6425237655639648e-01</leafValues></_></weakClassifiers></_>
    <!-- stage 4 -->
    <_>
      <maxWeakCount>5</maxWeakCount>
      <stageThreshold>-7.7751970291137695e-01</stageThreshold>
      <weakClassifiers>
        <_>
          <internalNodes>
            0 -1 27 2136997144 524156733 -33718788 -570427411 996113469
            2104209277 -537010723 -1</internalNodes>
          <leafValues>
            -6.6556757688522339e-01 7.2772920131683350e-01</leafValues></_>
        <_>
          <internalNodes>
            0 -1 3 -20250882 -957430718 1082836622 -1979053942
            -918816273 -5520613 -213127201 -810554369</internalNodes>
          <leafValues>
            -7.3774880170822144e-01 5.8723819255828857e-01</leafValues></_>
        <_>
          <internalNodes>
            0 -1 6 -357898497 -577033 -1146881 -296969 -286555905
            -1074900493 -270272257 -270057225</internalNodes>
          <leafValues>
            -5.5880028009414673e-01 6.8499648571014404e-01</leafValues></_>
        <_>
          <internalNodes>
            0 -1 17 -2147237886 -572529313 -1054886561 -139488869
            -101983265 -659557745 -1160776709 -1002183385</internalNodes>
          <leafValues>
            -6.5082234144210815e-01 6.0222053527832031e-01</leafValues></_>
        <_>
          <internalNodes>
            0 -1 20 -134220930 -1714375698 8390948 490996644 -238812944
            507510872 1064108613 2147483631</internalNodes>
          <leafValues>
            -7.3336452245712280e-01 5.2945369482040405e-01</leafValues></_></weakClassifiers></_>
    <!-- stage 5 -->
    <_>
      <maxWeakCount>5</maxWeakCount>
      <stageThreshold>-6.3257437944412231e-01</stageThreshold>
      <weakClassifiers>
        <_>
          <internalNodes>
            0 -1 24 -6489091 -537360747 -684041795 -6662563 -638911491
            -355075 -1085625345 177864720</internalNodes>
          <leafValues>
            -7.0091444253921509e-01 6.7417126893997192e-01</leafValues></_>
        <_>
          <internalNodes>
            0 -1 7 -286333697 -352326401 435158911 -135563 696253950
            -265 545256823 -7309</internalNodes>
          <leafValues>
            -5.0785213708877563e-01 6.9102257490158081e-01</leafValues></_>
        <_>
          <internalNodes>
            0 -1 22 -1073496062 -682626225 -100212525 -67110033
            -245371905 -104084517 -706752517 -1051753721</internalNodes>
          <leafValues>
            -5.7604902982711792e-01 6.4092177152633667e-01</leafValues></_>
        <_>
          <internalNodes>
            0 -1 10 -537330690 -2363013 521257275 -1076121126 735291839
            -1348826962 193792174 267321866</internalNodes>
          <leafValues>
            -7.5022041797637939e-01 4.9639230966567993e-01</leafValues></_>
        <_>
          <internalNodes>
            0 -1 25 -1073495037 -11281065 -134227969 -105922561
            -25171557 -537395201 -60823553 -1056193273</internalNodes>
          <leafValues>
            -5.2994000911712646e-01 6.8549090623855591e-01</leafValues></_></weakClassifiers></_>
    <!-- stage 6 -->
    <_>
      <maxWeakCount>5</maxWeakCount>
      <stageThreshold>-7.9036301374435425e-01</stageThreshold>
      <weakClassifiers>
        <_>
          <internalNodes>
            0 -1 12 -2147479211 -1076390471 -1186603041 -1076420653
            -1144058465 -1090835537 -1364587601 261033183</internalNodes>
          <leafValues>
            -7.3072361946105957e-01 6.4189887046813965e-01</leafValues></_>
        <_>
          <internalNodes>
            0 -1 9 -989855761 13624558 -1774193425 -16944930 1159721599
            1614789371 1818753855 -257</internalNodes>
          <leafValues>
            -6.3210499286651611e-01 6.5602445602416992e-01</leafValues></_>
        <_>
          <internalNodes>
            0 -1 23 1059012376 1058562719 387960829 -6338673 712732670
            -1075861254 -72357394 -272896326</internalNodes>
          <leafValues>
            -7.9197990894317627e-01 4.4834601879119873e-01</leafValues></_>
        <_>
          <internalNodes>
            0 -1 21 -67108865 -1692660236 453804828 1060902844 866708956
            749228677 999832028 -131</internalNodes>
          <leafValues>
            -5.3880465030670166e-01 6.4344060420989990e-01</leafValues></_>
        <_>
          <internalNodes>
            0 -1 28 -596689412 -2097289 -268620556 -1800621031
            -1140851207 -33637125 -89170436 -6556161</internalNodes>
          <leafValues>
            -5.3518140316009521e-01 6.6292423009872437e-01</leafValues></_></weakClassifiers></_></stages>
  <features>
    <_>
      <rect>
        0 0 4 1</rect></_>
    <_>
      <rect>
        0 1 7 1</rect></_>
    <_>
      <rect>
        0 1 13 1</rect></_>
    <_>
      <rect>
        0 1 14 4</rect></_>
    <_>
      <rect>
        0 2 4 3</rect></_>
    <_>
      <rect>
        0 9 17 1</rect></_>
    <_>
      <rect>
        1 0 3 1</rect></_>
    <_>
      <rect>
        1 1 2 1</rect></_>
    <_>
      <rect>
        1 2 17 1</rect></_>
    <_>
      <rect>
        2 2 2 1</rect></_>
    <_>
      <rect>
        5 2 18 1</rect></_>
    <_>
      <rect>
        6 3 1 2</rect></_>
    <_>
      <rect>
        8 0 2 1</rect></_>
    <_>
      <rect>
        8 0 12 1</rect></_>
    <_>
      <rect>
        8 1 12 1</rect></_>
    <_>
      <rect>
        9 9 17 1</rect></_>
    <_>
      <rect>
        11 8 16 1</rect></_>
    <_>
      <rect>
        12 0 1 2</rect></_>
    <_>
      <rect>
        28 9 10 1</rect></_>
    <_>
      <rect>
        34 10 6 1</rect></_>
    <_>
      <rect>
        36 4 2 3</rect></_>
    <_>
      <rect>
        36 7 1 2</rect></_>
    <_>
      <rect>
        38 0 1 2</rect></_>
    <_>
      <rect>
        39 9 7 1</rect></_>
    <_>
      <rect>
        40 10 6 1</rect></_>
    <_>
      <rect>
        49 0 1 2</rect></_>
    <_>
      <rect>
        51 9 2 1</rect></_>
    <_>
      <rect>
        51 9 3 1</rect></_>
    <_>
      <rect>
        56 10 1 1</rect></_></features></cascade>
</opencv_storage>
