<?xml version="1.0"?>
<opencv_storage>
<stage7>
  <maxWeakCount>6</maxWeakCount>
  <stageThreshold>-1.1444727182388306e+00</stageThreshold>
  <weakClassifiers>
    <_>
      <internalNodes>
        0 -1 1584 1324167935 1610594303 -671088641 -17677 1224736767
        -1033 1107165183 1442837107</internalNodes>
      <leafValues>
        -4.5185777544975281e-01 7.2663599252700806e-01</leafValues></_>
    <_>
      <internalNodes>
        0 -1 152 -258050 2143224760 1529613311 -4440068 -1702196801
        -1080342053 -338739521 -359905076</internalNodes>
      <leafValues>
        -7.0384514331817627e-01 5.1122760772705078e-01</leafValues></_>
    <_>
      <internalNodes>
        0 -1 12741 -1073265661 -136322149 -648036489 -76033121
        -457712641 -275785321 -76546341 -1051736273</internalNodes>
      <leafValues>
        -5.2895700931549072e-01 6.2150555849075317e-01</leafValues></_>
    <_>
      <internalNodes>
        0 -1 11304 -144903299 -2334899 -607092771 -539043955 -828572163
        -4564071 2039405501 -1364325375</internalNodes>
      <leafValues>
        -6.9770383834838867e-01 4.5852217078208923e-01</leafValues></_>
    <_>
      <internalNodes>
        0 -1 13157 -1073233917 -2656297 -538968065 -176161305 -41945089
        -4194313 -481297473 -1071134937</internalNodes>
      <leafValues>
        -5.4891562461853027e-01 5.9686613082885742e-01</leafValues></_>
    <_>
      <internalNodes>
        0 -1 14749 -3 -196610 1039958012 1072971772 -1150484996
        1048336245 1073496060 -513</internalNodes>
      <leafValues>
        -5.4791301488876343e-01 5.9625309705734253e-01</leafValues></_></weakClassifiers></stage7>
</opencv_storage>
