<?xml version="1.0"?>
<opencv_storage>
<stage6>
  <maxWeakCount>5</maxWeakCount>
  <stageThreshold>-7.9036301374435425e-01</stageThreshold>
  <weakClassifiers>
    <_>
      <internalNodes>
        0 -1 3852 -2147479211 -1076390471 -1186603041 -1076420653
        -1144058465 -1090835537 -1364587601 261033183</internalNodes>
      <leafValues>
        -7.3072361946105957e-01 6.4189887046813965e-01</leafValues></_>
    <_>
      <internalNodes>
        0 -1 1169 -989855761 13624558 -1774193425 -16944930 1159721599
        1614789371 1818753855 -257</internalNodes>
      <leafValues>
        -6.3210499286651611e-01 6.5602445602416992e-01</leafValues></_>
    <_>
      <internalNodes>
        0 -1 13694 1059012376 1058562719 387960829 -6338673 712732670
        -1075861254 -72357394 -272896326</internalNodes>
      <leafValues>
        -7.9197990894317627e-01 4.4834601879119873e-01</leafValues></_>
    <_>
      <internalNodes>
        0 -1 13117 -67108865 -1692660236 453804828 1060902844 866708956
        749228677 999832028 -131</internalNodes>
      <leafValues>
        -5.3880465030670166e-01 6.4344060420989990e-01</leafValues></_>
    <_>
      <internalNodes>
        0 -1 15313 -596689412 -2097289 -268620556 -1800621031
        -1140851207 -33637125 -89170436 -6556161</internalNodes>
      <leafValues>
        -5.3518140316009521e-01 6.6292423009872437e-01</leafValues></_></weakClassifiers></stage6>
</opencv_storage>
