<?xml version="1.0"?>
<opencv_storage>
<stage11>
  <maxWeakCount>5</maxWeakCount>
  <stageThreshold>-1.5450536012649536e+00</stageThreshold>
  <weakClassifiers>
    <_>
      <internalNodes>
        0 -1 1009 -20801 319794223 -2127068225 321910783 1242530987
        -1039433505 -338694193 -536870913</internalNodes>
      <leafValues>
        -7.1639221906661987e-01 3.3638143539428711e-01</leafValues></_>
    <_>
      <internalNodes>
        0 -1 10297 -1073486846 -212082725 -482093057 -226495533
        -337644545 -69470565 -363600897 1108329223</internalNodes>
      <leafValues>
        -7.3089694976806641e-01 3.5693469643592834e-01</leafValues></_>
    <_>
      <internalNodes>
        0 -1 8997 -328708 -209259164 147079184 -859657790 -1728122812
        -2013257594 -2008706708 2145384895</internalNodes>
      <leafValues>
        -7.0616948604583740e-01 3.8665142655372620e-01</leafValues></_>
    <_>
      <internalNodes>
        0 -1 9676 -133122 2132548584 226238204 1039209947 -1224982548
        977282798 967650815 2147467263</internalNodes>
      <leafValues>
        -7.3995155096054077e-01 3.7722942233085632e-01</leafValues></_>
    <_>
      <internalNodes>
        0 -1 7566 -2147466939 -2154505 -77342625 -5811265 -1433462273
        -72620629 -1108619557 -1410369569</internalNodes>
      <leafValues>
        -8.6164528131484985e-01 3.4060841798782349e-01</leafValues></_></weakClassifiers></stage11>
</opencv_storage>
