<?xml version="1.0"?>
<opencv_storage>
<stage2>
  <maxWeakCount>4</maxWeakCount>
  <stageThreshold>-4.0401536226272583e-01</stageThreshold>
  <weakClassifiers>
    <_>
      <internalNodes>
        0 -1 1661 -262145 -83886081 -8718849 -1 -1025 -68426773
        -36700161 -262145</internalNodes>
      <leafValues>
        -9.4268774986267090e-01 9.1237115859985352e-01</leafValues></_>
    <_>
      <internalNodes>
        0 -1 13155 -2097156 -2049 -673720321 -2098209 -84951041 -4194561
        -1310721 -1</internalNodes>
      <leafValues>
        -9.9620205163955688e-01 7.2676432132720947e-01</leafValues></_>
    <_>
      <internalNodes>
        0 -1 15338 -81 -8399905 -2097345 -1073750273 -6293505 2147212223
        -193 -1073741825</internalNodes>
      <leafValues>
        -9.5969706773757935e-01 7.2959411144256592e-01</leafValues></_>
    <_>
      <internalNodes>
        0 -1 15318 -786433 -207880225 -577 -1025 -645398657 -38408763
        -210 -218103809</internalNodes>
      <leafValues>
        -9.3784993886947632e-01 7.7160507440567017e-01</leafValues></_></weakClassifiers></stage2>
</opencv_storage>
