<?xml version="1.0"?>
<opencv_storage>
<stage6>
  <maxWeakCount>4</maxWeakCount>
  <stageThreshold>-1.8507791757583618e+00</stageThreshold>
  <weakClassifiers>
    <_>
      <internalNodes>
        0 -1 598 -892353793 -808981617 -1040022797 1377039299 -389035281
        -829453905 -671095569 -536872961</internalNodes>
      <leafValues>
        -8.4747040271759033e-01 3.5735151171684265e-01</leafValues></_>
    <_>
      <internalNodes>
        0 -1 504 -65537 -83329 -726475777 1066540663 -67109889 -4563329
        -69206017 -2360577</internalNodes>
      <leafValues>
        -7.0979398488998413e-01 5.5717581510543823e-01</leafValues></_>
    <_>
      <internalNodes>
        0 -1 15302 -201850902 -454100273 -486804928 -789579265
        2078273350 1081076687 -155976124 -251658241</internalNodes>
      <leafValues>
        -7.1563917398452759e-01 5.4540115594863892e-01</leafValues></_>
    <_>
      <internalNodes>
        0 -1 52 -1353791234 -2111905 -1154001025 -70004361 -1416696833
        -71566613 771488507 2133851643</internalNodes>
      <leafValues>
        -9.4545263051986694e-01 4.2212441563606262e-01</leafValues></_></weakClassifiers></stage6>
</opencv_storage>
