<?xml version="1.0"?>
<opencv_storage>
<stage5>
  <maxWeakCount>4</maxWeakCount>
  <stageThreshold>-1.8635861873626709e+00</stageThreshold>
  <weakClassifiers>
    <_>
      <internalNodes>
        0 -1 730 -268442897 -805322033 -1039482725 1616900591 -815805713
        -933500017 -1008741377 -538968065</internalNodes>
      <leafValues>
        -8.7015652656555176e-01 3.5448774695396423e-01</leafValues></_>
    <_>
      <internalNodes>
        0 -1 504 -65537 -78633 -142944769 1026565721 -105120065 -4564865
        -138150913 -8389889</internalNodes>
      <leafValues>
        -7.2713947296142578e-01 5.7246261835098267e-01</leafValues></_>
    <_>
      <internalNodes>
        0 -1 125 -257 -1056017 -8532818 -858919762 -4194305 -10817
        -70387218 -890246450</internalNodes>
      <leafValues>
        -7.2329270839691162e-01 5.8222019672393799e-01</leafValues></_>
    <_>
      <internalNodes>
        0 -1 5141 -196611 -2098179 -46138371 -2107395 -100733217
        -67458309 -274007041 774561245</internalNodes>
      <leafValues>
        -8.4851038455963135e-01 4.8432216048240662e-01</leafValues></_></weakClassifiers></stage5>
</opencv_storage>
