<?xml version="1.0"?>
<!--
opencv_traincascade -data /home/holger/cv/data_mixed/p5000_n4000_52x13_fa_03_extra_rot_index_neg/ -vec /home/holger/cv/kennzeichen_all_bg/kennzeichen_52x13_extra_rot.vec -bg /home/holger/cv/neg/index.info -numPos 5000 -numNeg 4000 -numStages 10 -w 52 -h 13 -featureType LBP -maxFalseAlarmRate 0.3
-->
<opencv_storage>
<cascade>
  <stageType>BOOST</stageType>
  <featureType>LBP</featureType>
  <height>13</height>
  <width>52</width>
  <stageParams>
    <boostType>GAB</boostType>
    <minHitRate>9.9500000476837158e-01</minHitRate>
    <maxFalseAlarm>3.0000001192092896e-01</maxFalseAlarm>
    <weightTrimRate>9.4999999999999996e-01</weightTrimRate>
    <maxDepth>1</maxDepth>
    <maxWeakCount>100</maxWeakCount></stageParams>
  <featureParams>
    <maxCatCount>256</maxCatCount>
    <featSize>1</featSize></featureParams>
  <stageNum>10</stageNum>
  <stages>
    <!-- stage 0 -->
    <_>
      <maxWeakCount>4</maxWeakCount>
      <stageThreshold>-1.5391865968704224e+00</stageThreshold>
      <weakClassifiers>
        <_>
          <internalNodes>
            0 -1 4 -66581250 -10681900 -637531651 -50069184 -89617409
            -7697703 -1165193985 -293074804</internalNodes>
          <leafValues>
            -8.4659683704376221e-01 8.1737452745437622e-01</leafValues></_>
        <_>
          <internalNodes>
            0 -1 14 -2004841220 -7876327 319074783 -578808497 1586288863
            -71724869 -1937184001 -1425867798</internalNodes>
          <leafValues>
            -7.8164583444595337e-01 7.8019028902053833e-01</leafValues></_>
        <_>
          <internalNodes>
            0 -1 24 -124680808 -539426541 345310387 522125627 -880203607
            -1147467605 186256014 1073676715</internalNodes>
          <leafValues>
            -7.5074726343154907e-01 6.5622717142105103e-01</leafValues></_>
        <_>
          <internalNodes>
            0 -1 5 -17892098 -758201846 -1542798710 -1929344978
            -270537729 -72431430 -288625665 -810811713</internalNodes>
          <leafValues>
            -7.2203278541564941e-01 6.6877979040145874e-01</leafValues></_></weakClassifiers></_>
    <!-- stage 1 -->
    <_>
      <maxWeakCount>5</maxWeakCount>
      <stageThreshold>-7.4184864759445190e-01</stageThreshold>
      <weakClassifiers>
        <_>
          <internalNodes>
            0 -1 44 -196611 -131203 -196611 -184523 -458755 -65539
            -196609 -1465253888</internalNodes>
          <leafValues>
            -7.2356534004211426e-01 8.0795109272003174e-01</leafValues></_>
        <_>
          <internalNodes>
            0 -1 39 1024466716 2131843039 -1087243267 -298593 1300922110
            -6645302 -1364547334 -1347686757</internalNodes>
          <leafValues>
            -7.1226012706756592e-01 7.2898006439208984e-01</leafValues></_>
        <_>
          <internalNodes>
            0 -1 3 -721621258 -604024836 -33620225 -33755654 -25170177
            -1073745921 -593921 -2109697</internalNodes>
          <leafValues>
            -6.2093394994735718e-01 7.5989919900894165e-01</leafValues></_>
        <_>
          <internalNodes>
            0 -1 26 -1325378420 -1156377325 454103551 -1149562573
            -1843717937 -1074110953 990591707 -1086383205</internalNodes>
          <leafValues>
            -6.5940988063812256e-01 6.5615034103393555e-01</leafValues></_>
        <_>
          <internalNodes>
            0 -1 15 -540222216 -538406456 -2109568771 1061292749
            -2561027 -1537124 -594886657 -1052673</internalNodes>
          <leafValues>
            -6.8805676698684692e-01 6.5876036882400513e-01</leafValues></_></weakClassifiers></_>
    <!-- stage 2 -->
    <_>
      <maxWeakCount>5</maxWeakCount>
      <stageThreshold>-7.3109698295593262e-01</stageThreshold>
      <weakClassifiers>
        <_>
          <internalNodes>
            0 -1 12 -1048593 7252718 -340857174 145459855 -536870913
            4540671 -8389457 -1025</internalNodes>
          <leafValues>
            -6.4918881654739380e-01 7.9228985309600830e-01</leafValues></_>
        <_>
          <internalNodes>
            0 -1 20 -134807554 -8415777 -385610821 -1174830965 700219627
            -272957301 195627691 732889098</internalNodes>
          <leafValues>
            -7.0344698429107666e-01 6.7922061681747437e-01</leafValues></_>
        <_>
          <internalNodes>
            0 -1 58 -8389316 524183637 -586590756 -1145308773 2035898709
            454885467 -839255843 -67108865</internalNodes>
          <leafValues>
            -7.0246291160583496e-01 5.9139806032180786e-01</leafValues></_>
        <_>
          <internalNodes>
            0 -1 47 -1073495037 -45100141 -147854289 -136316657
            -208674005 -607960949 -345507073 -1021328121</internalNodes>
          <leafValues>
            -5.5298399925231934e-01 7.3906737565994263e-01</leafValues></_>
        <_>
          <internalNodes>
            0 -1 48 -5130 1926660228 1611169808 13242500 171882712
            603983880 1033909276 2143289179</internalNodes>
          <leafValues>
            -6.9172990322113037e-01 5.8312475681304932e-01</leafValues></_></weakClassifiers></_>
    <!-- stage 3 -->
    <_>
      <maxWeakCount>6</maxWeakCount>
      <stageThreshold>-1.5474809408187866e+00</stageThreshold>
      <weakClassifiers>
        <_>
          <internalNodes>
            0 -1 40 -196611 -82051 -196611 -25219 -196611 -65539 -458753
            -1363540988</internalNodes>
          <leafValues>
            -6.9692307710647583e-01 7.2901958227157593e-01</leafValues></_>
        <_>
          <internalNodes>
            0 -1 25 -40347140 -428555 -4243457 -4254211 -67862530
            -317201 -4695041 -58432128</internalNodes>
          <leafValues>
            -7.3377525806427002e-01 6.0394614934921265e-01</leafValues></_>
        <_>
          <internalNodes>
            0 -1 29 -652759664 -6348363 1060842943 -1075890369
            -1147294721 -1075114502 965423103 1073415835</internalNodes>
          <leafValues>
            -7.3494541645050049e-01 5.2368152141571045e-01</leafValues></_>
        <_>
          <internalNodes>
            0 -1 17 -523507457 -1058013201 -1191581698 -184559888
            4517741 1157574655 1601172479 -134223889</internalNodes>
          <leafValues>
            -6.1185008287429810e-01 6.1405318975448608e-01</leafValues></_>
        <_>
          <internalNodes>
            0 -1 1 -924391706 2113927887 -1633732705 -810555825
            -790762771 -1077982515 -298948114 -269497361</internalNodes>
          <leafValues>
            -7.1306127309799194e-01 5.1404762268066406e-01</leafValues></_>
        <_>
          <internalNodes>
            0 -1 37 -1870637859 -2941476 -1616977921 -1107658337
            -1078198305 -3175973 -1364443143 -1078061573</internalNodes>
          <leafValues>
            -6.2175613641738892e-01 5.6079560518264771e-01</leafValues></_></weakClassifiers></_>
    <!-- stage 4 -->
    <_>
      <maxWeakCount>6</maxWeakCount>
      <stageThreshold>-5.0866776704788208e-01</stageThreshold>
      <weakClassifiers>
        <_>
          <internalNodes>
            0 -1 8 -357915969 -44041 -1 1610577919 -320146689 -1059329
            -286276353 -974699273</internalNodes>
          <leafValues>
            -5.8034396171569824e-01 6.8194729089736938e-01</leafValues></_>
        <_>
          <internalNodes>
            0 -1 56 -49168 1073381366 -1721819660 -69123 444299004
            2130310094 -6292548 -1025</internalNodes>
          <leafValues>
            -7.4407136440277100e-01 4.8916622996330261e-01</leafValues></_>
        <_>
          <internalNodes>
            0 -1 50 -1073496061 -538970161 -18874369 -212609745
            -71303169 -1 -3145793 -1022377201</internalNodes>
          <leafValues>
            -5.5834209918975830e-01 6.4662396907806396e-01</leafValues></_>
        <_>
          <internalNodes>
            0 -1 31 -1065098750 -521146129 -752093401 -86507569
            -498348033 -1345600862 -741355289 1078968899</internalNodes>
          <leafValues>
            -6.7048984766006470e-01 4.8981657624244690e-01</leafValues></_>
        <_>
          <internalNodes>
            0 -1 30 490282040 2145383389 1605621241 -2141743 2145270750
            -1076123413 1871367918 -1431647814</internalNodes>
          <leafValues>
            -7.7229511737823486e-01 4.2421483993530273e-01</leafValues></_>
        <_>
          <internalNodes>
            0 -1 51 -69209214 1372553606 1099760396 -76585969 -204475968
            272876051 -1299732913 1930421231</internalNodes>
          <leafValues>
            -6.8658703565597534e-01 4.6005818247795105e-01</leafValues></_></weakClassifiers></_>
    <!-- stage 5 -->
    <_>
      <maxWeakCount>7</maxWeakCount>
      <stageThreshold>-6.6010546684265137e-01</stageThreshold>
      <weakClassifiers>
        <_>
          <internalNodes>
            0 -1 61 -516 -1 -1073742340 -769 -1430606664 -1431655750
            -1078215528 -1431569221</internalNodes>
          <leafValues>
            -5.7716596126556396e-01 6.5165638923645020e-01</leafValues></_>
        <_>
          <internalNodes>
            0 -1 10 -286327041 -1 -131073 -168397360 -286326785 -1
            -335675393 -1048577</internalNodes>
          <leafValues>
            -4.8795333504676819e-01 7.2824764251708984e-01</leafValues></_>
        <_>
          <internalNodes>
            0 -1 9 -420478977 -1364726033 -32769 -134893965 266338303
            -1073741825 -134217729 -36237</internalNodes>
          <leafValues>
            -4.3081793189048767e-01 7.0354378223419189e-01</leafValues></_>
        <_>
          <internalNodes>
            0 -1 55 -67334 -591646576 585370292 666909672 710473976
            740560564 1002716636 2143287295</internalNodes>
          <leafValues>
            -6.9989496469497681e-01 4.4702935218811035e-01</leafValues></_>
        <_>
          <internalNodes>
            0 -1 36 -1069292029 -2177 -103286273 -134219781 -1 -67373861
            -67109953 -1020803189</internalNodes>
          <leafValues>
            -5.0697857141494751e-01 6.1738312244415283e-01</leafValues></_>
        <_>
          <internalNodes>
            0 -1 33 -640221700 -1074548289 -1648509443 -67789001
            534494095 -1363176132 800459050 804192778</internalNodes>
          <leafValues>
            -6.8911606073379517e-01 4.8486021161079407e-01</leafValues></_>
        <_>
          <internalNodes>
            0 -1 22 -84414489 -2144369721 -2141985918 572760495
            -565462170 43729155 -1038618073 1398794223</internalNodes>
          <leafValues>
            -6.7195022106170654e-01 4.5053532719612122e-01</leafValues></_></weakClassifiers></_>
    <!-- stage 6 -->
    <_>
      <maxWeakCount>7</maxWeakCount>
      <stageThreshold>-7.0380675792694092e-01</stageThreshold>
      <weakClassifiers>
        <_>
          <internalNodes>
            0 -1 23 -268413611 -24577 -33554433 -1073782817 -1074798593
            -20481 -1090572289 -1343287841</internalNodes>
          <leafValues>
            -5.2855408191680908e-01 6.4994883537292480e-01</leafValues></_>
        <_>
          <internalNodes>
            0 -1 57 1061158685 1058930623 -643959299 -1 2067789693
            2139090427 -4235811 -289</internalNodes>
          <leafValues>
            -6.0161274671554565e-01 5.4900699853897095e-01</leafValues></_>
        <_>
          <internalNodes>
            0 -1 19 1112531659 540012111 1993339630 -756026642
            -111156225 -270015521 -5770241 -134219809</internalNodes>
          <leafValues>
            -5.4987841844558716e-01 6.0077518224716187e-01</leafValues></_>
        <_>
          <internalNodes>
            0 -1 49 -536870913 -196612 905723836 1037860604 -1208156164
            1054113749 1072971772 -1</internalNodes>
          <leafValues>
            -4.6016508340835571e-01 6.2567347288131714e-01</leafValues></_>
        <_>
          <internalNodes>
            0 -1 45 -1072709373 -2177 -33558529 -70254609 -262145 -65
            -1912602689 -1019230417</internalNodes>
          <leafValues>
            -4.8303800821304321e-01 6.0585772991180420e-01</leafValues></_>
        <_>
          <internalNodes>
            0 -1 42 -805504035 -555926699 -1151533571 1610112637
            -240587843 -1078182403 2143084287 -1364589567</internalNodes>
          <leafValues>
            -6.6484355926513672e-01 4.8870655894279480e-01</leafValues></_>
        <_>
          <internalNodes>
            0 -1 21 -51855152 -2113063 -78136097 -4633571 -6422786
            -2407721 -270800129 -998971708</internalNodes>
          <leafValues>
            -7.5957107543945312e-01 3.4782689809799194e-01</leafValues></_></weakClassifiers></_>
    <!-- stage 7 -->
    <_>
      <maxWeakCount>8</maxWeakCount>
      <stageThreshold>-6.9163644313812256e-01</stageThreshold>
      <weakClassifiers>
        <_>
          <internalNodes>
            0 -1 7 -65537 -376997 -69533697 1001420661 -100668677
            -8423044 -67108865 -1</internalNodes>
          <leafValues>
            -3.6683607101440430e-01 7.9983729124069214e-01</leafValues></_>
        <_>
          <internalNodes>
            0 -1 54 -65540 -983108 2101116404 1066940372 1073545212
            1004032916 778579948 -32769</internalNodes>
          <leafValues>
            -6.5285086631774902e-01 4.7315028309822083e-01</leafValues></_>
        <_>
          <internalNodes>
            0 -1 2 -286855425 -287318273 -285220865 -999297298
            -848563969 -2359381 -1882850049 -957350161</internalNodes>
          <leafValues>
            -6.1662775278091431e-01 4.4303628802299500e-01</leafValues></_>
        <_>
          <internalNodes>
            0 -1 53 -1073496062 -547368577 -742654145 -538977345
            -67112193 -624957301 -604635137 -1039153393</internalNodes>
          <leafValues>
            -5.4976731538772583e-01 4.8649501800537109e-01</leafValues></_>
        <_>
          <internalNodes>
            0 -1 16 -536719273 -135840389 1072815609 1071610175
            -89147395 -4332103 967693565 753751277</internalNodes>
          <leafValues>
            -6.9577664136886597e-01 3.5791879892349243e-01</leafValues></_>
        <_>
          <internalNodes>
            0 -1 43 494673660 469760917 963542013 -4328613 1069441023
            2126181375 2141908991 -1363476481</internalNodes>
          <leafValues>
            -8.0435568094253540e-01 3.1487429141998291e-01</leafValues></_>
        <_>
          <internalNodes>
            0 -1 60 -545259714 489681438 -937174820 -1663173647
            1217202196 1212814489 -906278703 -572927715</internalNodes>
          <leafValues>
            -7.0747846364974976e-01 3.8055777549743652e-01</leafValues></_>
        <_>
          <internalNodes>
            0 -1 34 -1069293310 -615255885 -388367393 -2107809 -36971777
            -24147069 -1835297 -1053309433</internalNodes>
          <leafValues>
            -5.6611073017120361e-01 4.8690003156661987e-01</leafValues></_></weakClassifiers></_>
    <!-- stage 8 -->
    <_>
      <maxWeakCount>7</maxWeakCount>
      <stageThreshold>-1.2018942832946777e+00</stageThreshold>
      <weakClassifiers>
        <_>
          <internalNodes>
            0 -1 11 -805306369 -454103314 -1371537665 -16777474
            1971322743 -2072510466 1995962231 -524545</internalNodes>
          <leafValues>
            -5.0000000000000000e-01 6.3355314731597900e-01</leafValues></_>
        <_>
          <internalNodes>
            0 -1 27 -36416036 -33728075 -67936257 -560262 -118727682
            -4298836 -73900034 -123452412</internalNodes>
          <leafValues>
            -7.9239857196807861e-01 3.8429498672485352e-01</leafValues></_>
        <_>
          <internalNodes>
            0 -1 41 -2147461801 -40993 -1080819713 -1079347713
            -1343276035 -4519503 -1081401859 -1074063905</internalNodes>
          <leafValues>
            -6.2996709346771240e-01 4.0048959851264954e-01</leafValues></_>
        <_>
          <internalNodes>
            0 -1 62 1073741823 528668667 259055061 -577203491 429590752
            1302907037 1485692365 1574795741</internalNodes>
          <leafValues>
            -6.5388184785842896e-01 4.0032318234443665e-01</leafValues></_>
        <_>
          <internalNodes>
            0 -1 52 -286265821 -405811422 -1037573118 1879748522
            1204667463 1246381582 1887653906 1392507807</internalNodes>
          <leafValues>
            -6.8021190166473389e-01 3.6741536855697632e-01</leafValues></_>
        <_>
          <internalNodes>
            0 -1 28 -16466 1539868654 889721392 425508612 2135726284
            249825820 2029816042 2147483647</internalNodes>
          <leafValues>
            -6.3358509540557861e-01 3.9412173628807068e-01</leafValues></_>
        <_>
          <internalNodes>
            0 -1 35 -131074 -543631724 -1828130312 1006403567 986478076
            788292465 1000128504 -4194305</internalNodes>
          <leafValues>
            -5.6662726402282715e-01 4.4400134682655334e-01</leafValues></_></weakClassifiers></_>
    <!-- stage 9 -->
    <_>
      <maxWeakCount>9</maxWeakCount>
      <stageThreshold>-8.8799738883972168e-01</stageThreshold>
      <weakClassifiers>
        <_>
          <internalNodes>
            0 -1 6 -385880321 1381426943 -352392449 -536883457
            -176685221 -260408065 -58720261 -1</internalNodes>
          <leafValues>
            -3.7387835979461670e-01 7.2145545482635498e-01</leafValues></_>
        <_>
          <internalNodes>
            0 -1 59 2147450876 1065253719 1572599548 -2326561 1848340476
            2076132283 1610341340 -2229253</internalNodes>
          <leafValues>
            -7.0545482635498047e-01 4.0217369794845581e-01</leafValues></_>
        <_>
          <internalNodes>
            0 -1 0 -298850585 -8965129 -402729217 -538749965 -1431404289
            -1079021069 -1393827598 -282111755</internalNodes>
          <leafValues>
            -4.8523956537246704e-01 5.1684755086898804e-01</leafValues></_>
        <_>
          <internalNodes>
            0 -1 46 -1 -537069572 -1073938532 1068777468 -1229127684
            735600380 1027375100 -262145</internalNodes>
          <leafValues>
            -4.4533443450927734e-01 5.5794042348861694e-01</leafValues></_>
        <_>
          <internalNodes>
            0 -1 13 -86018 -2383506 609759167 760940202 -1069329
            -1145326917 -3458049 -1073758209</internalNodes>
          <leafValues>
            -6.1935758590698242e-01 3.9595565199851990e-01</leafValues></_>
        <_>
          <internalNodes>
            0 -1 32 -68386852 2134865649 -1156352001 1978487825
            -1177808897 -1367298 262680511 2143569472</internalNodes>
          <leafValues>
            -7.0772927999496460e-01 3.5823872685432434e-01</leafValues></_>
        <_>
          <internalNodes>
            0 -1 18 1613295843 -795350457 -1145700630 -17827098
            1930289627 -13069 -2360325 -252717153</internalNodes>
          <leafValues>
            -4.8669943213462830e-01 5.1213628053665161e-01</leafValues></_>
        <_>
          <internalNodes>
            0 -1 38 -1073496064 -206450617 -942944269 -1143737721
            -364125457 -290502621 -875300789 1091301427</internalNodes>
          <leafValues>
            -6.8543356657028198e-01 3.6479783058166504e-01</leafValues></_>
        <_>
          <internalNodes>
            0 -1 63 -952141517 -10318 -2049181775 -220745225 -1278549086
            -407649049 -1630997006 -1498221625</internalNodes>
          <leafValues>
            -4.9048811197280884e-01 5.0165545940399170e-01</leafValues></_></weakClassifiers></_></stages>
  <features>
    <_>
      <rect>
        0 0 3 1</rect></_>
    <_>
      <rect>
        0 0 10 2</rect></_>
    <_>
      <rect>
        0 1 7 2</rect></_>
    <_>
      <rect>
        0 1 8 1</rect></_>
    <_>
      <rect>
        0 1 12 1</rect></_>
    <_>
      <rect>
        0 1 12 4</rect></_>
    <_>
      <rect>
        0 6 3 2</rect></_>
    <_>
      <rect>
        0 10 4 1</rect></_>
    <_>
      <rect>
        1 0 3 1</rect></_>
    <_>
      <rect>
        1 1 2 1</rect></_>
    <_>
      <rect>
        1 1 5 1</rect></_>
    <_>
      <rect>
        1 2 2 1</rect></_>
    <_>
      <rect>
        1 2 3 3</rect></_>
    <_>
      <rect>
        1 6 14 2</rect></_>
    <_>
      <rect>
        1 9 16 1</rect></_>
    <_>
      <rect>
        2 7 12 2</rect></_>
    <_>
      <rect>
        3 0 2 1</rect></_>
    <_>
      <rect>
        3 2 1 1</rect></_>
    <_>
      <rect>
        4 2 1 1</rect></_>
    <_>
      <rect>
        4 2 1 2</rect></_>
    <_>
      <rect>
        5 2 15 1</rect></_>
    <_>
      <rect>
        6 1 3 1</rect></_>
    <_>
      <rect>
        6 3 1 2</rect></_>
    <_>
      <rect>
        7 0 2 1</rect></_>
    <_>
      <rect>
        7 8 15 1</rect></_>
    <_>
      <rect>
        8 1 11 1</rect></_>
    <_>
      <rect>
        9 0 13 1</rect></_>
    <_>
      <rect>
        9 1 7 1</rect></_>
    <_>
      <rect>
        9 4 1 3</rect></_>
    <_>
      <rect>
        9 8 14 1</rect></_>
    <_>
      <rect>
        9 9 14 1</rect></_>
    <_>
      <rect>
        10 0 1 3</rect></_>
    <_>
      <rect>
        12 1 13 1</rect></_>
    <_>
      <rect>
        13 2 13 1</rect></_>
    <_>
      <rect>
        22 0 1 2</rect></_>
    <_>
      <rect>
        22 7 1 2</rect></_>
    <_>
      <rect>
        24 0 1 2</rect></_>
    <_>
      <rect>
        24 0 3 1</rect></_>
    <_>
      <rect>
        25 0 1 3</rect></_>
    <_>
      <rect>
        25 9 9 1</rect></_>
    <_>
      <rect>
        25 10 6 1</rect></_>
    <_>
      <rect>
        26 0 3 1</rect></_>
    <_>
      <rect>
        26 10 4 1</rect></_>
    <_>
      <rect>
        27 9 6 1</rect></_>
    <_>
      <rect>
        27 10 7 1</rect></_>
    <_>
      <rect>
        29 0 1 2</rect></_>
    <_>
      <rect>
        29 7 1 2</rect></_>
    <_>
      <rect>
        30 0 1 2</rect></_>
    <_>
      <rect>
        31 4 1 3</rect></_>
    <_>
      <rect>
        31 7 1 2</rect></_>
    <_>
      <rect>
        32 0 1 2</rect></_>
    <_>
      <rect>
        34 2 2 3</rect></_>
    <_>
      <rect>
        34 5 1 1</rect></_>
    <_>
      <rect>
        38 0 1 2</rect></_>
    <_>
      <rect>
        40 7 1 2</rect></_>
    <_>
      <rect>
        42 4 1 3</rect></_>
    <_>
      <rect>
        43 9 2 1</rect></_>
    <_>
      <rect>
        43 9 3 1</rect></_>
    <_>
      <rect>
        45 9 2 1</rect></_>
    <_>
      <rect>
        46 9 1 1</rect></_>
    <_>
      <rect>
        46 9 2 1</rect></_>
    <_>
      <rect>
        46 10 2 1</rect></_>
    <_>
      <rect>
        47 9 1 1</rect></_>
    <_>
      <rect>
        49 9 1 1</rect></_></features></cascade>
</opencv_storage>
