<?xml version="1.0"?>
<opencv_storage>
<stage5>
  <maxWeakCount>7</maxWeakCount>
  <stageThreshold>-6.6010546684265137e-01</stageThreshold>
  <weakClassifiers>
    <_>
      <internalNodes>
        0 -1 11413 -516 -1 -1073742340 -769 -1430606664 -1431655750
        -1078215528 -1431569221</internalNodes>
      <leafValues>
        -5.7716596126556396e-01 6.5165638923645020e-01</leafValues></_>
    <_>
      <internalNodes>
        0 -1 526 -286327041 -1 -131073 -168397360 -286326785 -1
        -335675393 -1048577</internalNodes>
      <leafValues>
        -4.8795333504676819e-01 7.2824764251708984e-01</leafValues></_>
    <_>
      <internalNodes>
        0 -1 514 -420478977 -1364726033 -32769 -134893965 266338303
        -1073741825 -134217729 -36237</internalNodes>
      <leafValues>
        -4.3081793189048767e-01 7.0354378223419189e-01</leafValues></_>
    <_>
      <internalNodes>
        0 -1 11146 -67334 -591646576 585370292 666909672 710473976
        740560564 1002716636 2143287295</internalNodes>
      <leafValues>
        -6.9989496469497681e-01 4.4702935218811035e-01</leafValues></_>
    <_>
      <internalNodes>
        0 -1 8217 -1069292029 -2177 -103286273 -134219781 -1 -67373861
        -67109953 -1020803189</internalNodes>
      <leafValues>
        -5.0697857141494751e-01 6.1738312244415283e-01</leafValues></_>
    <_>
      <internalNodes>
        0 -1 5210 -640221700 -1074548289 -1648509443 -67789001 534494095
        -1363176132 800459050 804192778</internalNodes>
      <leafValues>
        -6.8911606073379517e-01 4.8486021161079407e-01</leafValues></_>
    <_>
      <internalNodes>
        0 -1 2688 -84414489 -2144369721 -2141985918 572760495 -565462170
        43729155 -1038618073 1398794223</internalNodes>
      <leafValues>
        -6.7195022106170654e-01 4.5053532719612122e-01</leafValues></_></weakClassifiers></stage5>
</opencv_storage>
