<?xml version="1.0"?>
<opencv_storage>
<stage6>
  <maxWeakCount>7</maxWeakCount>
  <stageThreshold>-7.0380675792694092e-01</stageThreshold>
  <weakClassifiers>
    <_>
      <internalNodes>
        0 -1 2916 -268413611 -24577 -33554433 -1073782817 -1074798593
        -20481 -1090572289 -1343287841</internalNodes>
      <leafValues>
        -5.2855408191680908e-01 6.4994883537292480e-01</leafValues></_>
    <_>
      <internalNodes>
        0 -1 11254 1061158685 1058930623 -643959299 -1 2067789693
        2139090427 -4235811 -289</internalNodes>
      <leafValues>
        -6.0161274671554565e-01 5.4900699853897095e-01</leafValues></_>
    <_>
      <internalNodes>
        0 -1 1845 1112531659 540012111 1993339630 -756026642 -111156225
        -270015521 -5770241 -134219809</internalNodes>
      <leafValues>
        -5.4987841844558716e-01 6.0077518224716187e-01</leafValues></_>
    <_>
      <internalNodes>
        0 -1 9820 -536870913 -196612 905723836 1037860604 -1208156164
        1054113749 1072971772 -1</internalNodes>
      <leafValues>
        -4.6016508340835571e-01 6.2567347288131714e-01</leafValues></_>
    <_>
      <internalNodes>
        0 -1 9309 -1072709373 -2177 -33558529 -70254609 -262145 -65
        -1912602689 -1019230417</internalNodes>
      <leafValues>
        -4.8303800821304321e-01 6.0585772991180420e-01</leafValues></_>
    <_>
      <internalNodes>
        0 -1 8887 -805504035 -555926699 -1151533571 1610112637
        -240587843 -1078182403 2143084287 -1364589567</internalNodes>
      <leafValues>
        -6.6484355926513672e-01 4.8870655894279480e-01</leafValues></_>
    <_>
      <internalNodes>
        0 -1 2590 -51855152 -2113063 -78136097 -4633571 -6422786
        -2407721 -270800129 -998971708</internalNodes>
      <leafValues>
        -7.5957107543945312e-01 3.4782689809799194e-01</leafValues></_></weakClassifiers></stage6>
</opencv_storage>
