<?xml version="1.0"?>
<opencv_storage>
<stage9>
  <maxWeakCount>9</maxWeakCount>
  <stageThreshold>-8.8799738883972168e-01</stageThreshold>
  <weakClassifiers>
    <_>
      <internalNodes>
        0 -1 328 -385880321 1381426943 -352392449 -536883457 -176685221
        -260408065 -58720261 -1</internalNodes>
      <leafValues>
        -3.7387835979461670e-01 7.2145545482635498e-01</leafValues></_>
    <_>
      <internalNodes>
        0 -1 11410 2147450876 1065253719 1572599548 -2326561 1848340476
        2076132283 1610341340 -2229253</internalNodes>
      <leafValues>
        -7.0545482635498047e-01 4.0217369794845581e-01</leafValues></_>
    <_>
      <internalNodes>
        0 -1 8 -298850585 -8965129 -402729217 -538749965 -1431404289
        -1079021069 -1393827598 -282111755</internalNodes>
      <leafValues>
        -4.8523956537246704e-01 5.1684755086898804e-01</leafValues></_>
    <_>
      <internalNodes>
        0 -1 9456 -1 -537069572 -1073938532 1068777468 -1229127684
        735600380 1027375100 -262145</internalNodes>
      <leafValues>
        -4.4533443450927734e-01 5.5794042348861694e-01</leafValues></_>
    <_>
      <internalNodes>
        0 -1 792 -86018 -2383506 609759167 760940202 -1069329
        -1145326917 -3458049 -1073758209</internalNodes>
      <leafValues>
        -6.1935758590698242e-01 3.9595565199851990e-01</leafValues></_>
    <_>
      <internalNodes>
        0 -1 4832 -68386852 2134865649 -1156352001 1978487825
        -1177808897 -1367298 262680511 2143569472</internalNodes>
      <leafValues>
        -7.0772927999496460e-01 3.5823872685432434e-01</leafValues></_>
    <_>
      <internalNodes>
        0 -1 1844 1613295843 -795350457 -1145700630 -17827098 1930289627
        -13069 -2360325 -252717153</internalNodes>
      <leafValues>
        -4.8669943213462830e-01 5.1213628053665161e-01</leafValues></_>
    <_>
      <internalNodes>
        0 -1 8452 -1073496064 -206450617 -942944269 -1143737721
        -364125457 -290502621 -875300789 1091301427</internalNodes>
      <leafValues>
        -6.8543356657028198e-01 3.6479783058166504e-01</leafValues></_>
    <_>
      <internalNodes>
        0 -1 11490 -952141517 -10318 -2049181775 -220745225 -1278549086
        -407649049 -1630997006 -1498221625</internalNodes>
      <leafValues>
        -4.9048811197280884e-01 5.0165545940399170e-01</leafValues></_></weakClassifiers></stage9>
</opencv_storage>
