<?xml version="1.0"?>
<opencv_storage>
<stage8>
  <maxWeakCount>7</maxWeakCount>
  <stageThreshold>-1.2018942832946777e+00</stageThreshold>
  <weakClassifiers>
    <_>
      <internalNodes>
        0 -1 581 -805306369 -454103314 -1371537665 -16777474 1971322743
        -2072510466 1995962231 -524545</internalNodes>
      <leafValues>
        -5.0000000000000000e-01 6.3355314731597900e-01</leafValues></_>
    <_>
      <internalNodes>
        0 -1 3746 -36416036 -33728075 -67936257 -560262 -118727682
        -4298836 -73900034 -123452412</internalNodes>
      <leafValues>
        -7.9239857196807861e-01 3.8429498672485352e-01</leafValues></_>
    <_>
      <internalNodes>
        0 -1 8692 -2147461801 -40993 -1080819713 -1079347713 -1343276035
        -4519503 -1081401859 -1074063905</internalNodes>
      <leafValues>
        -6.2996709346771240e-01 4.0048959851264954e-01</leafValues></_>
    <_>
      <internalNodes>
        0 -1 11438 1073741823 528668667 259055061 -577203491 429590752
        1302907037 1485692365 1574795741</internalNodes>
      <leafValues>
        -6.5388184785842896e-01 4.0032318234443665e-01</leafValues></_>
    <_>
      <internalNodes>
        0 -1 10268 -286265821 -405811422 -1037573118 1879748522
        1204667463 1246381582 1887653906 1392507807</internalNodes>
      <leafValues>
        -6.8021190166473389e-01 3.6741536855697632e-01</leafValues></_>
    <_>
      <internalNodes>
        0 -1 3864 -16466 1539868654 889721392 425508612 2135726284
        249825820 2029816042 2147483647</internalNodes>
      <leafValues>
        -6.3358509540557861e-01 3.9412173628807068e-01</leafValues></_>
    <_>
      <internalNodes>
        0 -1 7933 -131074 -543631724 -1828130312 1006403567 986478076
        788292465 1000128504 -4194305</internalNodes>
      <leafValues>
        -5.6662726402282715e-01 4.4400134682655334e-01</leafValues></_></weakClassifiers></stage8>
</opencv_storage>
