<?xml version="1.0"?>
<opencv_storage>
<stage4>
  <maxWeakCount>4</maxWeakCount>
  <stageThreshold>-1.8447961807250977e+00</stageThreshold>
  <weakClassifiers>
    <_>
      <internalNodes>
        0 -1 815 -69212437 -808456497 -1071980365 1615057887 -875575089
        -821312757 1986511603 -538968065</internalNodes>
      <leafValues>
        -7.6175546646118164e-01 5.2236753702163696e-01</leafValues></_>
    <_>
      <internalNodes>
        0 -1 17549 -4 -1123 -543424515 -2371331 -71319553 -1402641
        -7340033 -1610656491</internalNodes>
      <leafValues>
        -8.3330845832824707e-01 4.9886295199394226e-01</leafValues></_>
    <_>
      <internalNodes>
        0 -1 6444 -1145547267 -567299 -1076405761 -1077977601
        -1081344517 -2362737 -1078988801 -1077945601</internalNodes>
      <leafValues>
        -7.9349917173385620e-01 5.2880942821502686e-01</leafValues></_>
    <_>
      <internalNodes>
        0 -1 16467 -805051902 -8397845 -245895217 -143141605 -8388929
        -71566373 -542646277 1109901315</internalNodes>
      <leafValues>
        -7.8840446472167969e-01 5.0066041946411133e-01</leafValues></_></weakClassifiers></stage4>
</opencv_storage>
