<?xml version="1.0"?>
<opencv_storage>
<stage7>
  <maxWeakCount>4</maxWeakCount>
  <stageThreshold>-9.6325451135635376e-01</stageThreshold>
  <weakClassifiers>
    <_>
      <internalNodes>
        0 -1 11477 -67110005 -673209361 -252194304 -782511149 -605822193
        1596656907 -203951646 -201326593</internalNodes>
      <leafValues>
        -7.8632479906082153e-01 3.5802468657493591e-01</leafValues></_>
    <_>
      <internalNodes>
        0 -1 430 -65538 -360705 -572850689 -1080398217 -70272033 -266789
        -67436549 -1438712961</internalNodes>
      <leafValues>
        -8.3852326869964600e-01 3.8539659976959229e-01</leafValues></_>
    <_>
      <internalNodes>
        0 -1 64 -1079358210 2144819199 -1178640385 1610568055
        -1120141313 -2098501 1067056639 -1285</internalNodes>
      <leafValues>
        -9.1082811355590820e-01 3.7820276618003845e-01</leafValues></_>
    <_>
      <internalNodes>
        0 -1 9752 -1034952190 1080254664 4408832 -263749945 1128784642
        33607243 1112794859 -134219777</internalNodes>
      <leafValues>
        -7.9584765434265137e-01 4.3123465776443481e-01</leafValues></_></weakClassifiers></stage7>
</opencv_storage>
