<?xml version="1.0"?>
<!--
opencv_traincascade -data data_equ_all/p1600_n4870_68x13/ -vec kennzeichen_equ_all/kennzeichen_equ_all_68x13.vec -bg neg/index.info -numPos 1600 -numNeg 4870 -numStages 20 -w 68 -h 13 -featureType LBP
-->
<opencv_storage>
<cascade>
  <stageType>BOOST</stageType>
  <featureType>LBP</featureType>
  <height>13</height>
  <width>68</width>
  <stageParams>
    <boostType>GAB</boostType>
    <minHitRate>9.9500000476837158e-01</minHitRate>
    <maxFalseAlarm>5.0000000000000000e-01</maxFalseAlarm>
    <weightTrimRate>9.4999999999999996e-01</weightTrimRate>
    <maxDepth>1</maxDepth>
    <maxWeakCount>100</maxWeakCount></stageParams>
  <featureParams>
    <maxCatCount>256</maxCatCount>
    <featSize>1</featSize></featureParams>
  <stageNum>14</stageNum>
  <stages>
    <!-- stage 0 -->
    <_>
      <maxWeakCount>2</maxWeakCount>
      <stageThreshold>-2.8282111883163452e-01</stageThreshold>
      <weakClassifiers>
        <_>
          <internalNodes>
            0 -1 31 -103493124 -2108971 2132400127 -173675 -1718952961
            -4683332 -611653377 -5580339</internalNodes>
          <leafValues>
            -9.8494946956634521e-01 7.2072565555572510e-01</leafValues></_>
        <_>
          <internalNodes>
            0 -1 27 -1819257348 -543469163 1602296319 -541781633
            -1417102849 -4485893 -1683317249 -538995745</internalNodes>
          <leafValues>
            -9.8391294479370117e-01 7.0212835073471069e-01</leafValues></_></weakClassifiers></_>
    <!-- stage 1 -->
    <_>
      <maxWeakCount>3</maxWeakCount>
      <stageThreshold>-1.2490236759185791e+00</stageThreshold>
      <weakClassifiers>
        <_>
          <internalNodes>
            0 -1 16 -134283266 -2450433 -146867713 -4570497 -37881349
            -69220165 -372507649 -341053445</internalNodes>
          <leafValues>
            -8.7231349945068359e-01 5.0464040040969849e-01</leafValues></_>
        <_>
          <internalNodes>
            0 -1 49 -6291460 -2387011 -576987139 -2108995 -1141966083
            -4544039 -286598145 -541107943</internalNodes>
          <leafValues>
            -8.9191222190856934e-01 5.4095315933227539e-01</leafValues></_>
        <_>
          <internalNodes>
            0 -1 2 -353566978 -28225 -1714957345 -1076366725 -1347491329
            -335836261 -1358963969 1068489647</internalNodes>
          <leafValues>
            -8.6175173521041870e-01 5.6813609600067139e-01</leafValues></_></weakClassifiers></_>
    <!-- stage 2 -->
    <_>
      <maxWeakCount>3</maxWeakCount>
      <stageThreshold>-1.2381472587585449e+00</stageThreshold>
      <weakClassifiers>
        <_>
          <internalNodes>
            0 -1 33 -1145547299 -42529 -1621108225 -42633 -1140871681
            -284229 -1079116801 -1145086977</internalNodes>
          <leafValues>
            -9.2526996135711670e-01 5.5108696222305298e-01</leafValues></_>
        <_>
          <internalNodes>
            0 -1 30 -8593411 -8771 -1082392579 -10307 -72695809 -4281347
            -4521985 -1079321123</internalNodes>
          <leafValues>
            -8.6873567104339600e-01 6.2612926959991455e-01</leafValues></_>
        <_>
          <internalNodes>
            0 -1 14 -1356692226 -1080313345 1033183231 -1076551681
            536419327 -1077969153 -1141129217 -1073791489</internalNodes>
          <leafValues>
            -9.1608268022537231e-01 5.5585837364196777e-01</leafValues></_></weakClassifiers></_>
    <!-- stage 3 -->
    <_>
      <maxWeakCount>3</maxWeakCount>
      <stageThreshold>-1.3264639377593994e+00</stageThreshold>
      <weakClassifiers>
        <_>
          <internalNodes>
            0 -1 9 -420483345 -1058870577 -2884865 -521142273 -975182081
            1073998079 -72352001 -1</internalNodes>
          <leafValues>
            -8.6368566751480103e-01 3.8056898117065430e-01</leafValues></_>
        <_>
          <internalNodes>
            0 -1 7 -65538 -2228260 -44106241 -2230068 -87098882 -67329
            -1646593 -1442141558</internalNodes>
          <leafValues>
            -8.6475193500518799e-01 4.8146015405654907e-01</leafValues></_>
        <_>
          <internalNodes>
            0 -1 46 -105949860 -304641 -544246273 -40993 -1075872769
            -4218693 -1148503553 -1077968897</internalNodes>
          <leafValues>
            -8.4228098392486572e-01 5.1398217678070068e-01</leafValues></_></weakClassifiers></_>
    <!-- stage 4 -->
    <_>
      <maxWeakCount>4</maxWeakCount>
      <stageThreshold>-9.1080337762832642e-01</stageThreshold>
      <weakClassifiers>
        <_>
          <internalNodes>
            0 -1 21 -67113217 -806360337 -1071979854 1612442575
            -875565361 -816125109 1968686071 -545259521</internalNodes>
          <leafValues>
            -7.9943388700485229e-01 4.4881889224052429e-01</leafValues></_>
        <_>
          <internalNodes>
            0 -1 34 -2097156 -2100739 -12854273 -2100227 -1377282 -82243
            -74519553 -537174707</internalNodes>
          <leafValues>
            -8.7477815151214600e-01 4.3037840723991394e-01</leafValues></_>
        <_>
          <internalNodes>
            0 -1 3 -1081422594 -604023809 1027563007 -536913409
            -1348469761 -265329 994050047 -4195361</internalNodes>
          <leafValues>
            -8.7945836782455444e-01 4.1480815410614014e-01</leafValues></_>
        <_>
          <internalNodes>
            0 -1 29 -536892481 -1080082457 1068829119 530519999
            -1885394241 1068180383 1071582143 536813567</internalNodes>
          <leafValues>
            -8.9965230226516724e-01 3.9397406578063965e-01</leafValues></_></weakClassifiers></_>
    <!-- stage 5 -->
    <_>
      <maxWeakCount>4</maxWeakCount>
      <stageThreshold>-1.9706859588623047e+00</stageThreshold>
      <weakClassifiers>
        <_>
          <internalNodes>
            0 -1 6 -1 -69211185 -204476433 -806359346 -106178049
            -67115297 -657464081 -806359345</internalNodes>
          <leafValues>
            -8.0677330493927002e-01 3.6994567513465881e-01</leafValues></_>
        <_>
          <internalNodes>
            0 -1 56 -85 -472917337 -788541280 -252190721 -78644466
            1129307407 -755763454 -218103809</internalNodes>
          <leafValues>
            -6.8124002218246460e-01 5.6644219160079956e-01</leafValues></_>
        <_>
          <internalNodes>
            0 -1 15 -65538 -6397122 1474231295 -1615715727 -5259793
            -4212305 -67108865 775842671</internalNodes>
          <leafValues>
            -8.6953532695770264e-01 4.2376634478569031e-01</leafValues></_>
        <_>
          <internalNodes>
            0 -1 1 -1364271362 -1610616321 -1625587713 1065351575
            -1979188225 -536917573 -1442849793 268393723</internalNodes>
          <leafValues>
            -9.0643894672393799e-01 3.7895259261131287e-01</leafValues></_></weakClassifiers></_>
    <!-- stage 6 -->
    <_>
      <maxWeakCount>4</maxWeakCount>
      <stageThreshold>-8.8390856981277466e-01</stageThreshold>
      <weakClassifiers>
        <_>
          <internalNodes>
            0 -1 20 -257 -3150610 -66388993 -898701714 -2097669
            -68166661 -101711877 -1048593</internalNodes>
          <leafValues>
            -7.7898114919662476e-01 4.1374662518501282e-01</leafValues></_>
        <_>
          <internalNodes>
            0 -1 45 -805051902 -14690973 -75497473 -202386561 -68158469
            -67108965 -271056901 1124327979</internalNodes>
          <leafValues>
            -7.9651248455047607e-01 3.8349542021751404e-01</leafValues></_>
        <_>
          <internalNodes>
            0 -1 50 -175915006 1519098543 -1055145325 -72629937
            -619982333 -123486198 -821042941 1074250335</internalNodes>
          <leafValues>
            -8.0264055728912354e-01 3.8950547575950623e-01</leafValues></_>
        <_>
          <internalNodes>
            0 -1 41 -196611 -2332163 -72559267 -6503971 -71500868
            -72680259 -1079444547 -1078321827</internalNodes>
          <leafValues>
            -8.7792837619781494e-01 3.6536297202110291e-01</leafValues></_></weakClassifiers></_>
    <!-- stage 7 -->
    <_>
      <maxWeakCount>5</maxWeakCount>
      <stageThreshold>-1.4672323465347290e+00</stageThreshold>
      <weakClassifiers>
        <_>
          <internalNodes>
            0 -1 25 -50332418 1440271514 -930261764 -704644353 -77865985
            -537924173 -1320481 -33554433</internalNodes>
          <leafValues>
            -8.0729168653488159e-01 2.4167561531066895e-01</leafValues></_>
        <_>
          <internalNodes>
            0 -1 43 -4696611 -43521 -10788865 -34849 -262145 -4240969
            -71602437 -67403777</internalNodes>
          <leafValues>
            -7.6570540666580200e-01 4.3513607978820801e-01</leafValues></_>
        <_>
          <internalNodes>
            0 -1 59 -117 -674234441 -222858496 1381496826 207487752
            206360074 1658155651 -680001537</internalNodes>
          <leafValues>
            -5.9374487400054932e-01 5.9037655591964722e-01</leafValues></_>
        <_>
          <internalNodes>
            0 -1 51 -94113278 -341118229 -382746573 -538188897
            -351807989 -1297133406 -644889441 1091039819</internalNodes>
          <leafValues>
            -7.2719961404800415e-01 4.6249881386756897e-01</leafValues></_>
        <_>
          <internalNodes>
            0 -1 54 -67371012 -67374593 -618924035 -280065 -218105411
            -67467047 1790705405 209669461</internalNodes>
          <leafValues>
            -9.0203601121902466e-01 3.7774193286895752e-01</leafValues></_></weakClassifiers></_>
    <!-- stage 8 -->
    <_>
      <maxWeakCount>5</maxWeakCount>
      <stageThreshold>-1.3257238864898682e+00</stageThreshold>
      <weakClassifiers>
        <_>
          <internalNodes>
            0 -1 12 -420485377 -1028144385 -524882721 -606093057
            -758390785 -324286529 -34867313 -5</internalNodes>
          <leafValues>
            -7.8292632102966309e-01 2.8648003935813904e-01</leafValues></_>
        <_>
          <internalNodes>
            0 -1 32 -1197353659 -513 -549463073 -1076111009 -1344284161
            -67137793 -1141899521 -1074799617</internalNodes>
          <leafValues>
            -6.6705119609832764e-01 4.5962014794349670e-01</leafValues></_>
        <_>
          <internalNodes>
            0 -1 40 -428883933 1081006959 1615202816 1663820623
            1716774727 1080226499 2012468279 -671612929</internalNodes>
          <leafValues>
            -6.7944854497909546e-01 4.7328126430511475e-01</leafValues></_>
        <_>
          <internalNodes>
            0 -1 53 -33596076 -8449537 -1183629825 530283519 -73712709
            -39163173 -1149140993 1069252603</internalNodes>
          <leafValues>
            -8.7001329660415649e-01 3.6662998795509338e-01</leafValues></_>
        <_>
          <internalNodes>
            0 -1 57 -149 -1917848786 -224402912 -218117665 -49283768
            34526990 -475533246 -134221089</internalNodes>
          <leafValues>
            -6.0568565130233765e-01 5.6331312656402588e-01</leafValues></_></weakClassifiers></_>
    <!-- stage 9 -->
    <_>
      <maxWeakCount>5</maxWeakCount>
      <stageThreshold>-1.6186568737030029e+00</stageThreshold>
      <weakClassifiers>
        <_>
          <internalNodes>
            0 -1 18 -890246401 45080511 -268705793 -209978441 -805319201
            -805307925 1609293823 -874514465</internalNodes>
          <leafValues>
            -7.8305226564407349e-01 2.9454109072685242e-01</leafValues></_>
        <_>
          <internalNodes>
            0 -1 10 -270532857 -812781755 -394268510 -486544433
            -167778532 1263249201 -197140320 -138412097</internalNodes>
          <leafValues>
            -6.7932617664337158e-01 3.9042472839355469e-01</leafValues></_>
        <_>
          <internalNodes>
            0 -1 37 -2147461817 -40993 -1115947009 -35698177 -1342279969
            -67384145 -1414562049 -1146397185</internalNodes>
          <leafValues>
            -7.7352547645568848e-01 3.8698643445968628e-01</leafValues></_>
        <_>
          <internalNodes>
            0 -1 42 -1058282494 -234886145 -302252033 -46139393
            -201333025 -71303809 -136583169 33771615</internalNodes>
          <leafValues>
            -8.0535578727722168e-01 3.4445756673812866e-01</leafValues></_>
        <_>
          <internalNodes>
            0 -1 17 -2296834 -6298820 -1212752393 -4728740 -102833265
            -3159203 -754286177 -886906913</internalNodes>
          <leafValues>
            -8.8772243261337280e-01 3.4434100985527039e-01</leafValues></_></weakClassifiers></_>
    <!-- stage 10 -->
    <_>
      <maxWeakCount>5</maxWeakCount>
      <stageThreshold>-1.2129904031753540e+00</stageThreshold>
      <weakClassifiers>
        <_>
          <internalNodes>
            0 -1 11 -17827073 -218959617 -66912513 -201598117 -385876737
            -260843333 -78643265 -1</internalNodes>
          <leafValues>
            -7.3830693960189819e-01 4.2438271641731262e-01</leafValues></_>
        <_>
          <internalNodes>
            0 -1 39 -2147396281 -537182761 -1680379905 -51209
            -1365561601 -268703045 -1079260417 -69511713</internalNodes>
          <leafValues>
            -6.9515061378479004e-01 4.2667946219444275e-01</leafValues></_>
        <_>
          <internalNodes>
            0 -1 8 1074709070 1329883087 143316181 -2492931 1141222047
            -843978025 -682098689 -1025</internalNodes>
          <leafValues>
            -7.1408730745315552e-01 4.1423323750495911e-01</leafValues></_>
        <_>
          <internalNodes>
            0 -1 38 -1 -458795 -1174879751 -77835043 -202323 -5332311
            -1409752067 -1078297667</internalNodes>
          <leafValues>
            -5.4094433784484863e-01 5.8744829893112183e-01</leafValues></_>
        <_>
          <internalNodes>
            0 -1 52 -3153750 -805060086 -2111651798 -263270398
            -194330240 -100081629 -896562676 1342427215</internalNodes>
          <leafValues>
            -7.7465182542800903e-01 4.5427393913269043e-01</leafValues></_></weakClassifiers></_>
    <!-- stage 11 -->
    <_>
      <maxWeakCount>5</maxWeakCount>
      <stageThreshold>-1.4948951005935669e+00</stageThreshold>
      <weakClassifiers>
        <_>
          <internalNodes>
            0 -1 4 -1114145 -540103482 -720117953 -77181238 -396110913
            -61139867 -808470529 -8390657</internalNodes>
          <leafValues>
            -7.5881034135818481e-01 2.9147982597351074e-01</leafValues></_>
        <_>
          <internalNodes>
            0 -1 55 -2 1060906964 356521848 1071527774 -1658012996
            200026332 1018517755 1069547519</internalNodes>
          <leafValues>
            -7.6035201549530029e-01 3.1442543864250183e-01</leafValues></_>
        <_>
          <internalNodes>
            0 -1 5 -209715201 -2626930 -786971002 -531838330 -112855809
            -69260325 -601103382 -925908018</internalNodes>
          <leafValues>
            -7.0826947689056396e-01 3.7796601653099060e-01</leafValues></_>
        <_>
          <internalNodes>
            0 -1 22 -267298 -1074105572 -1666969868 933402902 -697482388
            520101964 1536065022 1610612735</internalNodes>
          <leafValues>
            -6.6916203498840332e-01 4.3452489376068115e-01</leafValues></_>
        <_>
          <internalNodes>
            0 -1 47 -196609 -70499495 -965717251 -34283051 -1953987683
            -902166079 -1176442195 -5744423</internalNodes>
          <leafValues>
            -7.7676564455032349e-01 3.8769251108169556e-01</leafValues></_></weakClassifiers></_>
    <!-- stage 12 -->
    <_>
      <maxWeakCount>6</maxWeakCount>
      <stageThreshold>-1.7517380714416504e+00</stageThreshold>
      <weakClassifiers>
        <_>
          <internalNodes>
            0 -1 19 -269489409 59753359 -1014255115 -211846345
            -862992661 -1962165757 -643831589 -6291457</internalNodes>
          <leafValues>
            -7.3575329780578613e-01 3.7147101759910583e-01</leafValues></_>
        <_>
          <internalNodes>
            0 -1 26 -1071397886 1321710279 -1710759361 -43026637
            -978599285 -655650629 -113128705 -1072971705</internalNodes>
          <leafValues>
            -6.5568780899047852e-01 4.0630620718002319e-01</leafValues></_>
        <_>
          <internalNodes>
            0 -1 0 -829497346 -542158319 -1319938277 2132111705
            794935467 -83670527 -1456350773 252658939</internalNodes>
          <leafValues>
            -7.5236493349075317e-01 3.5906836390495300e-01</leafValues></_>
        <_>
          <internalNodes>
            0 -1 58 -283120815 -671101074 805240758 -219508741
            -134260982 1044365270 -1225399424 -202903589</internalNodes>
          <leafValues>
            -5.0902628898620605e-01 5.9916698932647705e-01</leafValues></_>
        <_>
          <internalNodes>
            0 -1 44 -741347190 -251444597 35709056 -1846861501
            -804526714 268843520 -2135752502 323736427</internalNodes>
          <leafValues>
            -6.8090993165969849e-01 4.8197665810585022e-01</leafValues></_>
        <_>
          <internalNodes>
            0 -1 28 -893393013 -1555087079 268879008 537379169
            -1022656433 1342229505 -242888319 2001703679</internalNodes>
          <leafValues>
            -6.4287644624710083e-01 4.7066763043403625e-01</leafValues></_></weakClassifiers></_>
    <!-- stage 13 -->
    <_>
      <maxWeakCount>6</maxWeakCount>
      <stageThreshold>-1.6067465543746948e+00</stageThreshold>
      <weakClassifiers>
        <_>
          <internalNodes>
            0 -1 24 -82073697 -619511547 353042713 1933824056 1279951034
            -2046246704 -502279985 -8388885</internalNodes>
          <leafValues>
            -7.1433889865875244e-01 5.1454544067382812e-01</leafValues></_>
        <_>
          <internalNodes>
            0 -1 23 -138412033 -687673562 -85141904 -654248540 -2621457
            -1375349065 -578822661 -586290289</internalNodes>
          <leafValues>
            -5.2841567993164062e-01 6.3043200969696045e-01</leafValues></_>
        <_>
          <internalNodes>
            0 -1 13 -1071749506 -1004929018 -2076802533 197330967
            -229395781 -838688768 243321883 -538981109</internalNodes>
          <leafValues>
            -6.8107545375823975e-01 4.6643951535224915e-01</leafValues></_>
        <_>
          <internalNodes>
            0 -1 36 -8401057 -869339330 -63333072 14859894 2130601807
            105314143 -453585547 -688980001</internalNodes>
          <leafValues>
            -5.1008397340774536e-01 6.4420920610427856e-01</leafValues></_>
        <_>
          <internalNodes>
            0 -1 35 -1467985595 -82640889 -2129571821 -887937901
            -1987344181 -1465767808 -1995718517 -1735696181</internalNodes>
          <leafValues>
            -8.0828058719635010e-01 4.2658266425132751e-01</leafValues></_>
        <_>
          <internalNodes>
            0 -1 48 -174925858 1761787906 -2146934784 1342308426
            -2013019964 245778 442435 1093615723</internalNodes>
          <leafValues>
            -7.4693006277084351e-01 4.4007113575935364e-01</leafValues></_></weakClassifiers></_></stages>
  <features>
    <_>
      <rect>
        0 0 5 1</rect></_>
    <_>
      <rect>
        0 0 6 1</rect></_>
    <_>
      <rect>
        0 0 10 1</rect></_>
    <_>
      <rect>
        0 0 20 1</rect></_>
    <_>
      <rect>
        0 1 5 1</rect></_>
    <_>
      <rect>
        0 1 14 2</rect></_>
    <_>
      <rect>
        0 1 16 2</rect></_>
    <_>
      <rect>
        0 1 20 1</rect></_>
    <_>
      <rect>
        0 3 20 1</rect></_>
    <_>
      <rect>
        0 5 3 2</rect></_>
    <_>
      <rect>
        0 6 1 1</rect></_>
    <_>
      <rect>
        0 6 3 2</rect></_>
    <_>
      <rect>
        0 6 4 2</rect></_>
    <_>
      <rect>
        0 7 5 2</rect></_>
    <_>
      <rect>
        0 9 18 1</rect></_>
    <_>
      <rect>
        0 10 7 1</rect></_>
    <_>
      <rect>
        0 10 9 1</rect></_>
    <_>
      <rect>
        0 10 20 1</rect></_>
    <_>
      <rect>
        1 0 2 3</rect></_>
    <_>
      <rect>
        1 1 2 3</rect></_>
    <_>
      <rect>
        1 1 5 2</rect></_>
    <_>
      <rect>
        1 3 1 2</rect></_>
    <_>
      <rect>
        1 7 1 2</rect></_>
    <_>
      <rect>
        1 7 17 1</rect></_>
    <_>
      <rect>
        3 3 1 2</rect></_>
    <_>
      <rect>
        3 4 2 3</rect></_>
    <_>
      <rect>
        7 0 1 2</rect></_>
    <_>
      <rect>
        8 0 17 1</rect></_>
    <_>
      <rect>
        8 6 1 1</rect></_>
    <_>
      <rect>
        10 6 17 2</rect></_>
    <_>
      <rect>
        11 10 12 1</rect></_>
    <_>
      <rect>
        11 10 18 1</rect></_>
    <_>
      <rect>
        13 0 5 1</rect></_>
    <_>
      <rect>
        14 0 10 1</rect></_>
    <_>
      <rect>
        29 10 13 1</rect></_>
    <_>
      <rect>
        30 0 1 1</rect></_>
    <_>
      <rect>
        32 4 1 1</rect></_>
    <_>
      <rect>
        34 0 2 1</rect></_>
    <_>
      <rect>
        35 10 1 1</rect></_>
    <_>
      <rect>
        36 0 2 1</rect></_>
    <_>
      <rect>
        37 3 2 1</rect></_>
    <_>
      <rect>
        37 10 2 1</rect></_>
    <_>
      <rect>
        38 0 2 2</rect></_>
    <_>
      <rect>
        38 0 6 1</rect></_>
    <_>
      <rect>
        39 2 3 3</rect></_>
    <_>
      <rect>
        40 0 3 2</rect></_>
    <_>
      <rect>
        41 0 9 1</rect></_>
    <_>
      <rect>
        42 10 1 1</rect></_>
    <_>
      <rect>
        44 1 2 4</rect></_>
    <_>
      <rect>
        44 10 8 1</rect></_>
    <_>
      <rect>
        45 0 2 3</rect></_>
    <_>
      <rect>
        47 0 2 3</rect></_>
    <_>
      <rect>
        48 1 2 3</rect></_>
    <_>
      <rect>
        50 0 6 1</rect></_>
    <_>
      <rect>
        50 10 6 1</rect></_>
    <_>
      <rect>
        54 7 2 2</rect></_>
    <_>
      <rect>
        64 5 1 1</rect></_>
    <_>
      <rect>
        64 6 1 1</rect></_>
    <_>
      <rect>
        65 1 1 1</rect></_>
    <_>
      <rect>
        65 5 1 2</rect></_></features></cascade>
</opencv_storage>
