<?xml version="1.0"?>
<opencv_storage>
<stage12>
  <maxWeakCount>6</maxWeakCount>
  <stageThreshold>-1.7517380714416504e+00</stageThreshold>
  <weakClassifiers>
    <_>
      <internalNodes>
        0 -1 666 -269489409 59753359 -1014255115 -211846345 -862992661
        -1962165757 -643831589 -6291457</internalNodes>
      <leafValues>
        -7.3575329780578613e-01 3.7147101759910583e-01</leafValues></_>
    <_>
      <internalNodes>
        0 -1 3875 -1071397886 1321710279 -1710759361 -43026637
        -978599285 -655650629 -113128705 -1072971705</internalNodes>
      <leafValues>
        -6.5568780899047852e-01 4.0630620718002319e-01</leafValues></_>
    <_>
      <internalNodes>
        0 -1 16 -829497346 -542158319 -1319938277 2132111705 794935467
        -83670527 -1456350773 252658939</internalNodes>
      <leafValues>
        -7.5236493349075317e-01 3.5906836390495300e-01</leafValues></_>
    <_>
      <internalNodes>
        0 -1 19712 -283120815 -671101074 805240758 -219508741 -134260982
        1044365270 -1225399424 -202903589</internalNodes>
      <leafValues>
        -5.0902628898620605e-01 5.9916698932647705e-01</leafValues></_>
    <_>
      <internalNodes>
        0 -1 16304 -741347190 -251444597 35709056 -1846861501 -804526714
        268843520 -2135752502 323736427</internalNodes>
      <leafValues>
        -6.8090993165969849e-01 4.8197665810585022e-01</leafValues></_>
    <_>
      <internalNodes>
        0 -1 4774 -893393013 -1555087079 268879008 537379169 -1022656433
        1342229505 -242888319 2001703679</internalNodes>
      <leafValues>
        -6.4287644624710083e-01 4.7066763043403625e-01</leafValues></_></weakClassifiers></stage12>
</opencv_storage>
