<?xml version="1.0"?>
<opencv_storage>
<stage6>
  <maxWeakCount>4</maxWeakCount>
  <stageThreshold>-1.3873054981231689e+00</stageThreshold>
  <weakClassifiers>
    <_>
      <internalNodes>
        0 -1 2587 -352329746 15662830 -1429934098 -979173786 1089928703
        5242599 -436209665 -679481345</internalNodes>
      <leafValues>
        -6.3123643398284912e-01 7.7614420652389526e-01</leafValues></_>
    <_>
      <internalNodes>
        0 -1 7531 -1073692672 -44838449 -1744712229 -7351849 -359935073
        -74727381 -935069281 -1836846445</internalNodes>
      <leafValues>
        -7.3366755247116089e-01 5.9710687398910522e-01</leafValues></_>
    <_>
      <internalNodes>
        0 -1 4278 -76561885 1644630019 1074110469 1078444619 1397170691
        33687552 1644929387 1400897515</internalNodes>
      <leafValues>
        -6.9329446554183960e-01 5.8138471841812134e-01</leafValues></_>
    <_>
      <internalNodes>
        0 -1 27743 -719390244 1460949776 809566488 -1183954176
        -1154629464 1871327376 1116440904 -2102305</internalNodes>
      <leafValues>
        -7.3648768663406372e-01 5.6524956226348877e-01</leafValues></_></weakClassifiers></stage6>
</opencv_storage>
