<?xml version="1.0"?>
<opencv_storage>
<stage17>
  <maxWeakCount>6</maxWeakCount>
  <stageThreshold>-8.1580698490142822e-01</stageThreshold>
  <weakClassifiers>
    <_>
      <internalNodes>
        0 -1 4844 854265 1609431803 -763367442 -269500722 2130689919
        -16793601 -8392841 1186923379</internalNodes>
      <leafValues>
        -5.8325582742691040e-01 6.6895025968551636e-01</leafValues></_>
    <_>
      <internalNodes>
        0 -1 27649 -86124801 981237247 -1073889283 -1212417 -67516417
        -1163001921 168300144 -1438590881</internalNodes>
      <leafValues>
        -4.7361689805984497e-01 6.0482817888259888e-01</leafValues></_>
    <_>
      <internalNodes>
        0 -1 19986 -1073496061 -32769 -134217729 -42475849 -264193
        -524297 -4353 -1059072533</internalNodes>
      <leafValues>
        -4.3000826239585876e-01 6.7342370748519897e-01</leafValues></_>
    <_>
      <internalNodes>
        0 -1 23403 -10493953 -1261698 2138341244 2147024892 -1145520132
        -1342373890 1065156604 -1</internalNodes>
      <leafValues>
        -4.0831530094146729e-01 6.9100075960159302e-01</leafValues></_>
    <_>
      <internalNodes>
        0 -1 21655 -1693319211 2096723405 -1627586561 896974335
        -1107354532 -1615532036 -1074044932 -1147675905</internalNodes>
      <leafValues>
        -4.9006444215774536e-01 6.2620049715042114e-01</leafValues></_>
    <_>
      <internalNodes>
        0 -1 727 -1510806690 -606876477 539640091 -71711905 1173992939
        -1414557304 139369355 -84746657</internalNodes>
      <leafValues>
        -6.4612728357315063e-01 5.0280946493148804e-01</leafValues></_></weakClassifiers></stage17>
</opencv_storage>
