<?xml version="1.0"?>
<opencv_storage>
<stage12>
  <maxWeakCount>5</maxWeakCount>
  <stageThreshold>-6.8728601932525635e-01</stageThreshold>
  <weakClassifiers>
    <_>
      <internalNodes>
        0 -1 3260 -340794638 -536871437 -268470337 -1343225858
        -805306369 -6145 -805314821 1132414439</internalNodes>
      <leafValues>
        -4.6760743856430054e-01 7.7431327104568481e-01</leafValues></_>
    <_>
      <internalNodes>
        0 -1 27645 -1185694209 -1751139883 -82701827 -1156089547
        2014000057 1771997424 -342344705 -1145434920</internalNodes>
      <leafValues>
        -6.0251444578170776e-01 5.8733701705932617e-01</leafValues></_>
    <_>
      <internalNodes>
        0 -1 27742 -170401105 730224911 1464148256 -1224163057
        -282195700 168472587 -87838459 860355487</internalNodes>
      <leafValues>
        -7.3292112350463867e-01 4.7307848930358887e-01</leafValues></_>
    <_>
      <internalNodes>
        0 -1 1616 1648884343 1341122479 -809500705 -41945289 -150995997
        -41 -541590021 -808455566</internalNodes>
      <leafValues>
        -5.5549466609954834e-01 6.2375098466873169e-01</leafValues></_>
    <_>
      <internalNodes>
        0 -1 23457 -1073487358 -100167281 -842939809 -214960417
        -112199453 -1201616890 -465476789 1078981195</internalNodes>
      <leafValues>
        -7.2775882482528687e-01 4.9200597405433655e-01</leafValues></_></weakClassifiers></stage12>
</opencv_storage>
