<?xml version="1.0"?>
<opencv_storage>
<stage15>
  <maxWeakCount>5</maxWeakCount>
  <stageThreshold>-4.8431035876274109e-01</stageThreshold>
  <weakClassifiers>
    <_>
      <internalNodes>
        0 -1 3266 -1609568529 -1573917122 -286330898 -722469306
        -2131899137 -1963983009 -152043521 17254231</internalNodes>
      <leafValues>
        -5.4844003915786743e-01 7.0013689994812012e-01</leafValues></_>
    <_>
      <internalNodes>
        0 -1 21629 -133289 -58850521 -137 -293903600 -50348097 -65681
        -1090523205 -1905792509</internalNodes>
      <leafValues>
        -4.0395382046699524e-01 7.2629898786544800e-01</leafValues></_>
    <_>
      <internalNodes>
        0 -1 27536 -67108891 -34095233 1073708845 -268451907 -142608535
        -402653185 -19 -1342197761</internalNodes>
      <leafValues>
        -5.0840115547180176e-01 6.4176279306411743e-01</leafValues></_>
    <_>
      <internalNodes>
        0 -1 23053 -8388610 2077818460 1762187028 -1211051328 951905484
        1005322932 974413816 -33041</internalNodes>
      <leafValues>
        -5.7929342985153198e-01 5.7419186830520630e-01</leafValues></_>
    <_>
      <internalNodes>
        0 -1 27923 1935662079 2038330367 1344034132 491319412 624761577
        998912033 961239773 1073340105</internalNodes>
      <leafValues>
        -7.2151178121566772e-01 4.2552527785301208e-01</leafValues></_></weakClassifiers></stage15>
</opencv_storage>
