<?xml version="1.0"?>
<opencv_storage>
<stage10>
  <maxWeakCount>4</maxWeakCount>
  <stageThreshold>-1.1666296720504761e+00</stageThreshold>
  <weakClassifiers>
    <_>
      <internalNodes>
        0 -1 109 -326439222 -125123346 -1882273202 -810561843 -873791553
        -1048578 -286594049 -1048577</internalNodes>
      <leafValues>
        -5.7068061828613281e-01 7.4196577072143555e-01</leafValues></_>
    <_>
      <internalNodes>
        0 -1 25380 -1318234 2064318592 151128064 361644032 173187072
        210903105 595788456 2143289343</internalNodes>
      <leafValues>
        -7.1406513452529907e-01 5.7254135608673096e-01</leafValues></_>
    <_>
      <internalNodes>
        0 -1 25479 -16908289 -8519817 -16810115 -26017953 -1082196049
        -81921 788000715 -1977148670</internalNodes>
      <leafValues>
        -5.5113160610198975e-01 7.0161640644073486e-01</leafValues></_>
    <_>
      <internalNodes>
        0 -1 27744 -102762693 2116016567 -2146445518 -1128542073
        1309087539 813834537 -1248084446 -719064901</internalNodes>
      <leafValues>
        -6.4339864253997803e-01 5.9955525398254395e-01</leafValues></_></weakClassifiers></stage10>
</opencv_storage>
