<?xml version="1.0"?>
<opencv_storage>
<stage5>
  <maxWeakCount>4</maxWeakCount>
  <stageThreshold>-8.0294734239578247e-01</stageThreshold>
  <weakClassifiers>
    <_>
      <internalNodes>
        0 -1 345 -355474705 11461326 -2105062674 -1028666181 -1022639921
        1073996877 -205532165 -2097153</internalNodes>
      <leafValues>
        -8.2428652048110962e-01 5.1090550422668457e-01</leafValues></_>
    <_>
      <internalNodes>
        0 -1 15303 -67114070 -1400186454 1107410944 1886376195
        -347149752 714764 1375937026 1078984655</internalNodes>
      <leafValues>
        -8.4922558069229126e-01 3.9276790618896484e-01</leafValues></_>
    <_>
      <internalNodes>
        0 -1 148 -8454146 -2092 -4924417 -4326148 -1175520290 -293749
        -18809857 -893222774</internalNodes>
      <leafValues>
        -7.7938234806060791e-01 4.6378174424171448e-01</leafValues></_>
    <_>
      <internalNodes>
        0 -1 14169 -10747908 -6581479 -15756291 -14945795 -88342536
        -1079279190 196300797 166678805</internalNodes>
      <leafValues>
        -9.2723834514617920e-01 4.3481087684631348e-01</leafValues></_></weakClassifiers></stage5>
</opencv_storage>
