<?xml version="1.0"?>
<opencv_storage>
<stage1>
  <maxWeakCount>8</maxWeakCount>
  <stageThreshold>-9.4732329249382019e-02</stageThreshold>
  <weakClassifiers>
    <_>
      <internalNodes>
        0 -1 171 -1052689 7319279 -269553970 -1970303313 -2049 15721599
        -1048609 -4097</internalNodes>
      <leafValues>
        -6.0207068920135498e-01 8.0645161867141724e-01</leafValues></_>
    <_>
      <internalNodes>
        0 -1 11826 -196611 -540054763 -552807971 -10515371 -339017731
        -1074073383 -1508353 -1430649787</internalNodes>
      <leafValues>
        -7.0540040731430054e-01 6.4663082361221313e-01</leafValues></_>
    <_>
      <internalNodes>
        0 -1 104 -320158978 -4202018 -719956481 1414976592 -1433735937
        -69209957 -293929985 -1025</internalNodes>
      <leafValues>
        -7.1611988544464111e-01 6.1248815059661865e-01</leafValues></_>
    <_>
      <internalNodes>
        0 -1 15155 -8195 1035927551 2113820124 1576926719 2136833533
        2136866815 1308614141 -1</internalNodes>
      <leafValues>
        -6.2232041358947754e-01 6.8312197923660278e-01</leafValues></_>
    <_>
      <internalNodes>
        0 -1 2669 -620764533 537119264 1073791042 1078195787 -375665333
        33772298 21745666 1400109023</internalNodes>
      <leafValues>
        -7.3468267917633057e-01 6.0076361894607544e-01</leafValues></_>
    <_>
      <internalNodes>
        0 -1 12741 -2147236861 -205553665 -268435457 -570952253
        -236978177 -2049 -612632577 -1039145693</internalNodes>
      <leafValues>
        -5.5025303363800049e-01 7.2348362207412720e-01</leafValues></_>
    <_>
      <internalNodes>
        0 -1 14923 -208935165 -901087232 -939129726 1074495648
        -502643381 1208696832 1125077251 1445972895</internalNodes>
      <leafValues>
        -7.3810392618179321e-01 5.4423373937606812e-01</leafValues></_>
    <_>
      <internalNodes>
        0 -1 4756 -1853876771 2147179999 -1078321153 -1078206625
        -1074413574 -4243457 -1086373893 -1078256257</internalNodes>
      <leafValues>
        -6.2249660491943359e-01 6.5783071517944336e-01</leafValues></_></weakClassifiers></stage1>
</opencv_storage>
