<?xml version="1.0"?>
<opencv_storage>
<stage0>
  <maxWeakCount>5</maxWeakCount>
  <stageThreshold>4.0400511026382446e-01</stageThreshold>
  <weakClassifiers>
    <_>
      <internalNodes>
        0 -1 4714 487588888 2144670165 452992989 -551726755 940583160
        -349511 680045566 -1440548694</internalNodes>
      <leafValues>
        -9.2935240268707275e-01 7.9422050714492798e-01</leafValues></_>
    <_>
      <internalNodes>
        0 -1 128 -141785380 -6487824 1564527583 -49020212 -74862593
        -71661379 -74936577 -1308532</internalNodes>
      <leafValues>
        -8.3916527032852173e-01 7.8465181589126587e-01</leafValues></_>
    <_>
      <internalNodes>
        0 -1 12946 -73600003 -33809995 -45023747 -551976939 -75448584
        -482628 -360010757 -1464336384</internalNodes>
      <leafValues>
        -8.0221158266067505e-01 8.0257570743560791e-01</leafValues></_>
    <_>
      <internalNodes>
        0 -1 4697 -1806660196 -539557423 420544831 1066729747 -58119745
        -1078261509 462096559 798949387</internalNodes>
      <leafValues>
        -8.4033268690109253e-01 6.6517221927642822e-01</leafValues></_>
    <_>
      <internalNodes>
        0 -1 5725 -112148484 -140791340 -131880205 1610448927 -612308035
        -73687876 713099435 252379146</internalNodes>
      <leafValues>
        -7.7932506799697876e-01 7.0477485656738281e-01</leafValues></_></weakClassifiers></stage0>
</opencv_storage>
