<?xml version="1.0"?>
<opencv_storage>
<stage11>
  <maxWeakCount>4</maxWeakCount>
  <stageThreshold>-2.4002728462219238e+00</stageThreshold>
  <weakClassifiers>
    <_>
      <internalNodes>
        0 -1 13644 -144703521 -745291310 -720842281 -69478887 -919938885
        -377241591 -1291063153 -7344497</internalNodes>
      <leafValues>
        -9.3330109119415283e-01 1.</leafValues></_>
    <_>
      <internalNodes>
        0 -1 4087 -678168594 -8142848 1073840208 -247234087 -491929570
        1310363794 1350690555 -744490001</internalNodes>
      <leafValues>
        -9.0479320287704468e-01 1.7208132147789001e-01</leafValues></_>
    <_>
      <internalNodes>
        0 -1 5372 -616574105 -984882609 -1877823394 -801800176 -95698163
        369229835 -519380975 -134746213</internalNodes>
      <leafValues>
        -8.2827508449554443e-01 4.6844315528869629e-01</leafValues></_>
    <_>
      <internalNodes>
        0 -1 14965 -20189734 1434632192 1627394580 1354843266 -525745958
        -1870479358 1073963024 1793057627</internalNodes>
      <leafValues>
        -8.1077796220779419e-01 5.4172909259796143e-01</leafValues></_></weakClassifiers></stage11>
</opencv_storage>
