<?xml version="1.0"?>
<opencv_storage>
<stage5>
  <maxWeakCount>4</maxWeakCount>
  <stageThreshold>-2.3359518051147461e+00</stageThreshold>
  <weakClassifiers>
    <_>
      <internalNodes>
        0 -1 1380 -4194305 -33556613 -619196673 -2367521 -11796481
        -1057797 -2098241 -1</internalNodes>
      <leafValues>
        -9.3746924400329590e-01 5.7971015572547913e-02</leafValues></_>
    <_>
      <internalNodes>
        0 -1 15300 -85 -306446354 -390147934 -207358017 -4786
        -1952719953 -86000890 -134217729</internalNodes>
      <leafValues>
        -8.6008489131927490e-01 2.8015047311782837e-01</leafValues></_>
    <_>
      <internalNodes>
        0 -1 3848 -1474171065 -10785 -674522145 -2114565 -70257669
        -3155985 -69240065 -1078215169</internalNodes>
      <leafValues>
        -8.2565116882324219e-01 4.9259370565414429e-01</leafValues></_>
    <_>
      <internalNodes>
        0 -1 277 -1293421918 -3229777 -711272713 -38804481 -92541449
        -538976101 -119537665 -1048581</internalNodes>
      <leafValues>
        -8.5298192501068115e-01 5.3690528869628906e-01</leafValues></_></weakClassifiers></stage5>
</opencv_storage>
