<?xml version="1.0"?>
<opencv_storage>
<stage4>
  <maxWeakCount>4</maxWeakCount>
  <stageThreshold>-2.3548665046691895e+00</stageThreshold>
  <weakClassifiers>
    <_>
      <internalNodes>
        0 -1 99 -1 -4993 -73143297 -269500161 -36702213 -2112033
        -67895297 -4097</internalNodes>
      <leafValues>
        -9.5642262697219849e-01 -9.8814226686954498e-02</leafValues></_>
    <_>
      <internalNodes>
        0 -1 12949 -1068767417 -10750465 -676339777 -2097281 -56628225
        -68433201 -169870337 -1007687765</internalNodes>
      <leafValues>
        -8.6697077751159668e-01 2.9068648815155029e-01</leafValues></_>
    <_>
      <internalNodes>
        0 -1 598 -352599317 -278011166 -221016353 1131935711 -807408658
        -938480677 1609556971 -545268233</internalNodes>
      <leafValues>
        -7.7904284000396729e-01 5.9724980592727661e-01</leafValues></_>
    <_>
      <internalNodes>
        0 -1 485 -270102786 -402725889 -309284897 -328705 2077229055
        -275030853 -6553601 -1</internalNodes>
      <leafValues>
        -9.1008740663528442e-01 5.3212553262710571e-01</leafValues></_></weakClassifiers></stage4>
</opencv_storage>
