<?xml version="1.0"?>
<opencv_storage>
<stage9>
  <maxWeakCount>4</maxWeakCount>
  <stageThreshold>-2.1554448604583740e+00</stageThreshold>
  <weakClassifiers>
    <_>
      <internalNodes>
        0 -1 4852 -1 -533507 -71304705 -3 -67306497 -5643 -3805185 -33</internalNodes>
      <leafValues>
        -9.4123506546020508e-01 -1.0869564861059189e-01</leafValues></_>
    <_>
      <internalNodes>
        0 -1 16 -286326785 -3109 -543327233 -1075847813 -1881669633
        -282759 -353378369 -268445441</internalNodes>
      <leafValues>
        -8.7514388561248779e-01 2.0101894438266754e-01</leafValues></_>
    <_>
      <internalNodes>
        0 -1 4530 -2101249 -14354 337522456 2147352286 -473039443
        1053629933 2145386495 2147483391</internalNodes>
      <leafValues>
        -7.8923332691192627e-01 4.5208385586738586e-01</leafValues></_>
    <_>
      <internalNodes>
        0 -1 12298 -2080350893 -513 1790965247 -2133093 -1553 -1052689
        -335806725 -32769</internalNodes>
      <leafValues>
        -9.2534947395324707e-01 4.5016744732856750e-01</leafValues></_></weakClassifiers></stage9>
</opencv_storage>
