<?xml version="1.0"?>
<opencv_storage>
<stage3>
  <maxWeakCount>18</maxWeakCount>
  <stageThreshold>4.3894636631011963e-01</stageThreshold>
  <weakClassifiers>
    <_>
      <internalNodes>
        0 -1 11413 -1796 -1142955779 -579863044 -1078209025 -1430607704
        -1431655766 -1426345736 -1440024389</internalNodes>
      <leafValues>
        -6.3706564903259277e-01 5.5831706523895264e-01</leafValues></_>
    <_>
      <internalNodes>
        0 -1 1845 1112531691 537787975 1951922158 -790628658 -447745025
        -340788273 -613421057 -135268385</internalNodes>
      <leafValues>
        -5.4061269760131836e-01 5.7055956125259399e-01</leafValues></_>
    <_>
      <internalNodes>
        0 -1 888 706892115 -11841039 -34088453 1397972341 -1349582149
        -4205837 -341192197 -844802575</internalNodes>
      <leafValues>
        -5.6015759706497192e-01 5.0171554088592529e-01</leafValues></_>
    <_>
      <internalNodes>
        0 -1 10323 -1073496062 -740306017 -182454819 -73927929
        -529532225 -343150289 -537926657 -1038106577</internalNodes>
      <leafValues>
        -5.1927310228347778e-01 5.3297114372253418e-01</leafValues></_>
    <_>
      <internalNodes>
        0 -1 11438 1073741823 -1348798529 1474944509 -1647563269
        162211984 246257793 -837228067 1608383229</internalNodes>
      <leafValues>
        -6.2974202632904053e-01 4.4142442941665649e-01</leafValues></_>
    <_>
      <internalNodes>
        0 -1 8406 -2 1943556828 1461205336 1069028062 503115436
        489180081 1040096248 -1</internalNodes>
      <leafValues>
        -6.1001557111740112e-01 4.2240983247756958e-01</leafValues></_>
    <_>
      <internalNodes>
        0 -1 96 -16871682 -8975529 -669096643 -195758500 -68460289
        -68681149 -1244756801 2013259519</internalNodes>
      <leafValues>
        -7.3064547777175903e-01 3.8679626584053040e-01</leafValues></_>
    <_>
      <internalNodes>
        0 -1 11153 -67377277 -341079286 -1564851710 1344748074
        -832575666 33702147 -788377117 1392508671</internalNodes>
      <leafValues>
        -6.6300767660140991e-01 3.7551894783973694e-01</leafValues></_>
    <_>
      <internalNodes>
        0 -1 6161 -275391020 -1111608897 188173311 -1107848933 268373935
        798695871 2077167146 804200962</internalNodes>
      <leafValues>
        -7.7127015590667725e-01 3.2187187671661377e-01</leafValues></_>
    <_>
      <internalNodes>
        0 -1 2526 -1333635627 -1678044841 -58501131 -2053817889
        -1621948005 -71669846 -1551857957 -1947268641</internalNodes>
      <leafValues>
        -5.9117990732192993e-01 4.3167901039123535e-01</leafValues></_>
    <_>
      <internalNodes>
        0 -1 3359 -903626238 -86512345 -646716720 -142346726 -7472145
        -893417814 -630982940 1074000462</internalNodes>
      <leafValues>
        -6.6397464275360107e-01 3.8147103786468506e-01</leafValues></_>
    <_>
      <internalNodes>
        0 -1 10366 -695209778 328396994 -2146926400 -619583423
        -262438706 1375916624 -2012483125 1095753883</internalNodes>
      <leafValues>
        -6.1979442834854126e-01 4.0170115232467651e-01</leafValues></_>
    <_>
      <internalNodes>
        0 -1 10797 -65540 -81208388 22338396 866940380 -1142113796
        782784692 790900220 -2113555</internalNodes>
      <leafValues>
        -7.0610457658767700e-01 3.5868555307388306e-01</leafValues></_>
    <_>
      <internalNodes>
        0 -1 10460 -1870637231 1065306079 -816261769 -1378454165
        -1681550689 -83989968 -1360880929 -1342275649</internalNodes>
      <leafValues>
        -5.7614976167678833e-01 4.4682142138481140e-01</leafValues></_>
    <_>
      <internalNodes>
        0 -1 1015 -2097218097 1884284298 -2018391313 -548937474 508351
        807140941 2040450046 -34609169</internalNodes>
      <leafValues>
        -5.2535194158554077e-01 5.4369723796844482e-01</leafValues></_>
    <_>
      <internalNodes>
        0 -1 11253 -1614823760 429039854 -2055009104 -23411687
        1755787964 1873478560 -1366389832 -4461606</internalNodes>
      <leafValues>
        -7.4798512458801270e-01 3.7246844172477722e-01</leafValues></_>
    <_>
      <internalNodes>
        0 -1 11490 -34125 -201623109 -134874191 -168595013 -1209011738
        -404750345 -170085133 -1231757381</internalNodes>
      <leafValues>
        -4.8033463954925537e-01 5.7930815219879150e-01</leafValues></_>
    <_>
      <internalNodes>
        0 -1 1742 -1060710194 -1256725051 1380569183 1175834871
        1168756807 -1055143665 -433072641 -958401025</internalNodes>
      <leafValues>
        -6.3648045063018799e-01 4.7244992852210999e-01</leafValues></_></weakClassifiers></stage3>
</opencv_storage>
