<?xml version="1.0"?>
<opencv_storage>
<stage14>
  <maxWeakCount>5</maxWeakCount>
  <stageThreshold>-5.1409214735031128e-01</stageThreshold>
  <weakClassifiers>
    <_>
      <internalNodes>
        0 -1 92 -823197697 -65810 1877999615 -1896952114 267386879
        -67117057 1333788671 1877737471</internalNodes>
      <leafValues>
        -4.2660233378410339e-01 7.2764521837234497e-01</leafValues></_>
    <_>
      <internalNodes>
        0 -1 15261 -83886084 -67371025 -65540 -12845057 683158056
        -1430636008 -1095804168 -1171068405</internalNodes>
      <leafValues>
        -5.6039166450500488e-01 5.9219104051589966e-01</leafValues></_>
    <_>
      <internalNodes>
        0 -1 13859 -1073496062 -741356145 -360450721 -201604201
        -913584177 -28421857 -18101525 -1068777173</internalNodes>
      <leafValues>
        -5.5698317289352417e-01 5.4649317264556885e-01</leafValues></_>
    <_>
      <internalNodes>
        0 -1 453 -142692386 -177035812 -1042772457 -1073795753
        -1949325681 -639954847 -640700981 -17601</internalNodes>
      <leafValues>
        -6.5383791923522949e-01 4.6503415703773499e-01</leafValues></_>
    <_>
      <internalNodes>
        0 -1 4390 -1288739 -164355 -40961 -34849 -41505 -32769 -57345
        -19961650</internalNodes>
      <leafValues>
        -5.2146714925765991e-01 5.6485092639923096e-01</leafValues></_></weakClassifiers></stage14>
</opencv_storage>
