<?xml version="1.0"?>
<opencv_storage>
<stage12>
  <maxWeakCount>5</maxWeakCount>
  <stageThreshold>-3.3395960927009583e-01</stageThreshold>
  <weakClassifiers>
    <_>
      <internalNodes>
        0 -1 2201 -54741 1999577679 577749578 541583103 -479256500
        1108125294 -738220177 2004877263</internalNodes>
      <leafValues>
        -4.4070079922676086e-01 7.4198251962661743e-01</leafValues></_>
    <_>
      <internalNodes>
        0 -1 8 -818940425 -76865033 2146563839 -33614857 -76627457
        -269529355 -89463045 -269265679</internalNodes>
      <leafValues>
        -3.5791471600532532e-01 7.9125273227691650e-01</leafValues></_>
    <_>
      <internalNodes>
        0 -1 15024 -2637891 -1658866861 -1465248835 -1659519525
        -2135966723 1257220267 -380765703 -540038145</internalNodes>
      <leafValues>
        -5.4300057888031006e-01 5.8491808176040649e-01</leafValues></_>
    <_>
      <internalNodes>
        0 -1 11051 -1073496062 -174066275 -918299945 -2631475 -633869313
        -122951161 -403845377 -970488521</internalNodes>
      <leafValues>
        -5.8526933193206787e-01 5.5109935998916626e-01</leafValues></_>
    <_>
      <internalNodes>
        0 -1 2446 -1123371169 -1658908233 -2053915689 -2483881
        1572567293 -275218253 -1140966513 537590479</internalNodes>
      <leafValues>
        -6.6102766990661621e-01 4.6500718593597412e-01</leafValues></_></weakClassifiers></stage12>
</opencv_storage>
