<?xml version="1.0"?>
<opencv_storage>
<stage15>
  <maxWeakCount>5</maxWeakCount>
  <stageThreshold>-4.5136544108390808e-01</stageThreshold>
  <weakClassifiers>
    <_>
      <internalNodes>
        0 -1 14559 -16777220 -301989889 -1 -1 1845231359 -1073741825
        242822194 136531731</internalNodes>
      <leafValues>
        -5.1735538244247437e-01 6.8929386138916016e-01</leafValues></_>
    <_>
      <internalNodes>
        0 -1 2550 -286599841 -2653861 1830670835 -75115658 -472933477
        -1670135661 -808855045 1724764304</internalNodes>
      <leafValues>
        -5.6512898206710815e-01 5.4952889680862427e-01</leafValues></_>
    <_>
      <internalNodes>
        0 -1 13829 -1 -1076044420 -42172420 -1092321348 -302194692
        -1610842628 1046233084 -16417</internalNodes>
      <leafValues>
        -4.6526634693145752e-01 6.7611783742904663e-01</leafValues></_>
    <_>
      <internalNodes>
        0 -1 14873 -1073496061 -73663729 -607140397 -175914625
        -1010043909 -92044629 -340004881 -1051990781</internalNodes>
      <leafValues>
        -4.5988881587982178e-01 6.3916426897048950e-01</leafValues></_>
    <_>
      <internalNodes>
        0 -1 5742 -1053010 -1834849700 119152896 169355270 -1994342126
        264372224 933822728 2143282051</internalNodes>
      <leafValues>
        -6.5743690729141235e-01 4.5063981413841248e-01</leafValues></_></weakClassifiers></stage15>
</opencv_storage>
