<?xml version="1.0"?>
<opencv_storage>
<stage13>
  <maxWeakCount>6</maxWeakCount>
  <stageThreshold>-1.0009405612945557e+00</stageThreshold>
  <weakClassifiers>
    <_>
      <internalNodes>
        0 -1 15258 -1081475 1073676287 -570601987 1845391359 1574919596
        503078861 503274972 1507688445</internalNodes>
      <leafValues>
        -6.2403100728988647e-01 6.6637480258941650e-01</leafValues></_>
    <_>
      <internalNodes>
        0 -1 2146 -534578437 -134217857 -403177493 -503841559 1078128574
        -285212673 -142606337 -2100225</internalNodes>
      <leafValues>
        -4.9671408534049988e-01 6.4610087871551514e-01</leafValues></_>
    <_>
      <internalNodes>
        0 -1 1581 -549195068 -805923 -32779393 -2364894 -387076373
        -105134645 -610537025 702483115</internalNodes>
      <leafValues>
        -6.7221897840499878e-01 4.7131031751632690e-01</leafValues></_>
    <_>
      <internalNodes>
        0 -1 12909 -1 -196612 -1644658692 1071398868 -1094909956
        1073512317 259817468 -1</internalNodes>
      <leafValues>
        -4.8306968808174133e-01 6.6729897260665894e-01</leafValues></_>
    <_>
      <internalNodes>
        0 -1 13791 -79169286 -753564700 453248016 494495632 -381291792
        246686208 1554895046 2143287231</internalNodes>
      <leafValues>
        -6.3214856386184692e-01 4.8916479945182800e-01</leafValues></_>
    <_>
      <internalNodes>
        0 -1 224 -272636129 27102919 -83904901 -1025 2113917627
        1488860937 -151227344 -545325073</internalNodes>
      <leafValues>
        -5.2362787723541260e-01 6.1683595180511475e-01</leafValues></_></weakClassifiers></stage13>
</opencv_storage>
