<?xml version="1.0"?>
<opencv_storage>
<stage8>
  <maxWeakCount>5</maxWeakCount>
  <stageThreshold>-3.8673514127731323e-01</stageThreshold>
  <weakClassifiers>
    <_>
      <internalNodes>
        0 -1 15101 -53332 -1644199937 -1073791508 -1107362305 -49412
        1073692671 2147425788 -32769</internalNodes>
      <leafValues>
        -6.3738018274307251e-01 7.3551058769226074e-01</leafValues></_>
    <_>
      <internalNodes>
        0 -1 600 1722804223 -50414474 32505725 -1107313095 1106706423
        -1073759491 541062519 -1051021</internalNodes>
      <leafValues>
        -5.3847664594650269e-01 7.6445049047470093e-01</leafValues></_>
    <_>
      <internalNodes>
        0 -1 78 -17892658 -1572913 1082385606 1627447855 -398206785
        -873481541 -961828097 -69207045</internalNodes>
      <leafValues>
        -6.2132865190505981e-01 6.2216919660568237e-01</leafValues></_>
    <_>
      <internalNodes>
        0 -1 2474 -590029579 -33583873 -8705 -1778414337 -318776065
        -1191363073 -1359181569 -1996550913</internalNodes>
      <leafValues>
        -5.7740700244903564e-01 6.8273854255676270e-01</leafValues></_>
    <_>
      <internalNodes>
        0 -1 12949 -1073496061 -129 -1241516033 -134218349 -453246977
        -4225 -67373153 -1072700149</internalNodes>
      <leafValues>
        -4.9921125173568726e-01 7.4435943365097046e-01</leafValues></_></weakClassifiers></stage8>
</opencv_storage>
