<?xml version="1.0"?>
<opencv_storage>
<stage4>
  <maxWeakCount>10</maxWeakCount>
  <stageThreshold>-5.8262550830841064e-01</stageThreshold>
  <weakClassifiers>
    <_>
      <internalNodes>
        0 -1 11413 -4 -2109761 -744227364 -1109657089 -1433752904
        -1431664470 -1159063368 -1431635781</internalNodes>
      <leafValues>
        -6.2389254570007324e-01 5.7862204313278198e-01</leafValues></_>
    <_>
      <internalNodes>
        0 -1 1428 -523240705 -1058013329 -1728053249 -235940902 4250571
        -989876225 1593835503 -67110913</internalNodes>
      <leafValues>
        -4.8752677440643311e-01 7.0373094081878662e-01</leafValues></_>
    <_>
      <internalNodes>
        0 -1 2590 -51756864 -4098 -539266049 -164387 -1141921026
        -4469797 -302121507 -723196732</internalNodes>
      <leafValues>
        -7.7562487125396729e-01 4.4270640611648560e-01</leafValues></_>
    <_>
      <internalNodes>
        0 -1 11359 -8388675 2132541439 -542115876 1072430591 2050718073
        2131360399 -538247191 -67372097</internalNodes>
      <leafValues>
        -5.5669903755187988e-01 5.5128991603851318e-01</leafValues></_>
    <_>
      <internalNodes>
        0 -1 11181 -1072709630 -545522729 -35404837 -137365121
        -493892937 -3410525 -430972193 -1039142393</internalNodes>
      <leafValues>
        -5.7947969436645508e-01 5.3934133052825928e-01</leafValues></_>
    <_>
      <internalNodes>
        0 -1 10884 -1055229 -955261178 -2145177598 1644783754 1649395979
        196972 -221101358 1928323039</internalNodes>
      <leafValues>
        -6.7613130807876587e-01 4.2299839854240417e-01</leafValues></_>
    <_>
      <internalNodes>
        0 -1 9820 -1 -483332 -1217126660 768892924 -1074200580
        1058561533 1073510396 -8193</internalNodes>
      <leafValues>
        -5.0194430351257324e-01 6.1215275526046753e-01</leafValues></_>
    <_>
      <internalNodes>
        0 -1 9299 1059012380 1058638846 -1679040523 -206313313 803158590
        1073393320 -1467028742 -1431343478</internalNodes>
      <leafValues>
        -7.6655989885330200e-01 3.7992531061172485e-01</leafValues></_>
    <_>
      <internalNodes>
        0 -1 8153 -268441721 -1419000853 -492374014 1625485570
        1743645763 1141042439 -218635066 -498601089</internalNodes>
      <leafValues>
        -5.5794113874435425e-01 4.8581364750862122e-01</leafValues></_>
    <_>
      <internalNodes>
        0 -1 4866 -706412548 2063046491 1964181459 -1619943605 133697535
        -1415615893 870589071 1878983178</internalNodes>
      <leafValues>
        -6.7251586914062500e-01 4.2471888661384583e-01</leafValues></_></weakClassifiers></stage4>
</opencv_storage>
