<?xml version="1.0"?>
<opencv_storage>
<stage2>
  <maxWeakCount>8</maxWeakCount>
  <stageThreshold>-2.4359554052352905e-01</stageThreshold>
  <weakClassifiers>
    <_>
      <internalNodes>
        0 -1 586 -17 15706862 -273749334 716155567 -536870913 7162495
        -4369 -1</internalNodes>
      <leafValues>
        -6.2687599658966064e-01 7.9567360877990723e-01</leafValues></_>
    <_>
      <internalNodes>
        0 -1 9306 -196611 -25731 -42009091 -2134147 -2162689 -5326343
        -608240641 -1363542016</internalNodes>
      <leafValues>
        -6.6237640380859375e-01 6.4114135503768921e-01</leafValues></_>
    <_>
      <internalNodes>
        0 -1 8685 -1073496062 -639638657 -134217729 -204474393
        -503320641 -75563025 -143656961 -1022369529</internalNodes>
      <leafValues>
        -5.9642636775970459e-01 6.5921008586883545e-01</leafValues></_>
    <_>
      <internalNodes>
        0 -1 9520 -356006910 -1006444030 -1002258426 -1026628989
        -116141565 -2147302909 -177741310 1359991747</internalNodes>
      <leafValues>
        -6.8792808055877686e-01 5.6143379211425781e-01</leafValues></_>
    <_>
      <internalNodes>
        0 -1 5496 -171682308 -2131980 -3713155 -437803 -68559877
        -5541713 -72061953 2111045632</internalNodes>
      <leafValues>
        -7.7042162418365479e-01 4.7960025072097778e-01</leafValues></_>
    <_>
      <internalNodes>
        0 -1 2298 -473960209 -483734546 -496041952 41927358 -749050041
        34031302 -730339577 -1008733441</internalNodes>
      <leafValues>
        -5.5197232961654663e-01 6.9551008939743042e-01</leafValues></_>
    <_>
      <internalNodes>
        0 -1 10497 -202640758 -1782099325 289939970 1915437127
        -267918678 1367490817 1099162507 1938804719</internalNodes>
      <leafValues>
        -6.4578753709793091e-01 5.6954759359359741e-01</leafValues></_>
    <_>
      <internalNodes>
        0 -1 11254 2134900529 2132204479 -2143070244 -572529697
        252129905 1941959182 -888280147 -16449</internalNodes>
      <leafValues>
        -6.4053356647491455e-01 5.7785940170288086e-01</leafValues></_></weakClassifiers></stage2>
</opencv_storage>
