<?xml version="1.0"?>
<opencv_storage>
<stage9>
  <maxWeakCount>5</maxWeakCount>
  <stageThreshold>-1.1551413536071777e+00</stageThreshold>
  <weakClassifiers>
    <_>
      <internalNodes>
        0 -1 459 -20481 -23649 32706559 536807351 -103026689 -84440138
        -488657157 -8197</internalNodes>
      <leafValues>
        -7.3263597488403320e-01 3.0239233374595642e-01</leafValues></_>
    <_>
      <internalNodes>
        0 -1 19345 -1073487869 -257 -537398273 -265793 -1345 -55841953
        -269485057 -1037310665</internalNodes>
      <leafValues>
        -5.3759604692459106e-01 5.6120413541793823e-01</leafValues></_>
    <_>
      <internalNodes>
        0 -1 112 -85393410 -69634 -585113601 1688530534 -67175937
        -21253125 -561906945 1213158343</internalNodes>
      <leafValues>
        -7.6663345098495483e-01 3.8900178670883179e-01</leafValues></_>
    <_>
      <internalNodes>
        0 -1 6579 -2103617 1062929175 710746651 1000808970 1338450351
        1071590703 132055982 992150059</internalNodes>
      <leafValues>
        -7.2992980480194092e-01 3.9473092555999756e-01</leafValues></_>
    <_>
      <internalNodes>
        0 -1 574 -896808758 -1894911345 1565518931 1595658707 -878982934
        -812923061 1095228356 -748961725</internalNodes>
      <leafValues>
        -5.7900965213775635e-01 5.2529615163803101e-01</leafValues></_></weakClassifiers></stage9>
</opencv_storage>
