<?xml version="1.0"?>
<opencv_storage>
<stage10>
  <maxWeakCount>5</maxWeakCount>
  <stageThreshold>-1.3217767477035522e+00</stageThreshold>
  <weakClassifiers>
    <_>
      <internalNodes>
        0 -1 4891 -583852545 -16385 1040137215 -8405217 2122316799
        -67109073 -1073763329 -1285</internalNodes>
      <leafValues>
        -7.1046125888824463e-01 2.8798410296440125e-01</leafValues></_>
    <_>
      <internalNodes>
        0 -1 13312 -2013248443 -11265 -339746817 -2132257 -1079246849
        -1090520121 -1075052545 -1078236673</internalNodes>
      <leafValues>
        -8.6222022771835327e-01 2.6813358068466187e-01</leafValues></_>
    <_>
      <internalNodes>
        0 -1 1565 -86323970 1416676580 -933113729 1910166491 1224395514
        -654354210 -544407553 -578813953</internalNodes>
      <leafValues>
        -6.2002521753311157e-01 4.4786524772644043e-01</leafValues></_>
    <_>
      <internalNodes>
        0 -1 16177 -36 534517500 1702387164 496252380 -1348944900
        179832976 960330748 1073700863</internalNodes>
      <leafValues>
        -7.7009201049804688e-01 3.8346555829048157e-01</leafValues></_>
    <_>
      <internalNodes>
        0 -1 15444 -2013047465 -4201537 -378813985 2147434971
        -1161057537 -40968057 -1075851809 -272665633</internalNodes>
      <leafValues>
        -5.0665581226348877e-01 5.7313156127929688e-01</leafValues></_></weakClassifiers></stage10>
</opencv_storage>
