<?xml version="1.0"?>
<opencv_storage>
<stage5>
  <maxWeakCount>5</maxWeakCount>
  <stageThreshold>-1.4323838949203491e+00</stageThreshold>
  <weakClassifiers>
    <_>
      <internalNodes>
        0 -1 815 -268439829 -873470321 1117421778 1079241435 -825242033
        -854603409 1992017863 -536870913</internalNodes>
      <leafValues>
        -7.6881939172744751e-01 4.3227091431617737e-01</leafValues></_>
    <_>
      <internalNodes>
        0 -1 24 -1360068898 -6327821 798482271 -1077945389 -1342702593
        -9506 -1343496449 268392959</internalNodes>
      <leafValues>
        -9.2862993478775024e-01 3.1423726677894592e-01</leafValues></_>
    <_>
      <internalNodes>
        0 -1 447 -2101505 1073581279 563546301 263915103 -70517777
        -1616180325 -31457281 -1</internalNodes>
      <leafValues>
        -6.1693507432937622e-01 5.9639590978622437e-01</leafValues></_>
    <_>
      <internalNodes>
        0 -1 13968 -353377790 -888675765 -2132286902 -472919729
        -196623721 -896806845 -160435361 1074262595</internalNodes>
      <leafValues>
        -7.7804970741271973e-01 4.8010575771331787e-01</leafValues></_>
    <_>
      <internalNodes>
        0 -1 18095 -1028 -72393731 -172895239 -2368007 -605291523
        -72644449 -1887743043 230645013</internalNodes>
      <leafValues>
        -9.1687178611755371e-01 4.1718301177024841e-01</leafValues></_></weakClassifiers></stage5>
</opencv_storage>
