<?xml version="1.0"?>
<opencv_storage>
<stage10>
  <maxWeakCount>4</maxWeakCount>
  <stageThreshold>-1.6067119836807251e+00</stageThreshold>
  <weakClassifiers>
    <_>
      <internalNodes>
        0 -1 602 -268439553 45068175 -277388833 599778071 1241498523
        -1891642941 -913047557 -1</internalNodes>
      <leafValues>
        -7.4842768907546997e-01 3.5384616255760193e-01</leafValues></_>
    <_>
      <internalNodes>
        0 -1 15335 -1137 -812657169 -958409216 -742399753 1192165645
        157426439 -472385806 -135270401</internalNodes>
      <leafValues>
        -5.9579044580459595e-01 5.5856251716613770e-01</leafValues></_>
    <_>
      <internalNodes>
        0 -1 10467 -196611 -2297380 -1121401347 -2356739 -1097009667
        -1075017747 -1627849731 -1079316995</internalNodes>
      <leafValues>
        -8.4648764133453369e-01 3.8831299543380737e-01</leafValues></_>
    <_>
      <internalNodes>
        0 -1 15315 -1015033342 -211820325 -249834497 -738305793
        1964994839 1130419479 1659880162 -817627429</internalNodes>
      <leafValues>
        -6.5080690383911133e-01 4.8027381300926208e-01</leafValues></_></weakClassifiers></stage10>
</opencv_storage>
