<?xml version="1.0"?>
<opencv_storage>
<stage11>
  <maxWeakCount>5</maxWeakCount>
  <stageThreshold>-1.3051196336746216e+00</stageThreshold>
  <weakClassifiers>
    <_>
      <internalNodes>
        0 -1 387 -360717569 -1028144385 -432877825 -541080929
        -1007944225 -897363653 -651698241 -8213</internalNodes>
      <leafValues>
        -7.4942702054977417e-01 3.2456663250923157e-01</leafValues></_>
    <_>
      <internalNodes>
        0 -1 15331 -67112021 -527369 -818417504 -258745997 1344259854
        1226818891 -250883166 -134742277</internalNodes>
      <leafValues>
        -6.0463589429855347e-01 5.1272130012512207e-01</leafValues></_>
    <_>
      <internalNodes>
        0 -1 7247 -2099201 -75501093 -239347201 -2098397 -914368018
        -609619 468705930 1361265154</internalNodes>
      <leafValues>
        -6.7684781551361084e-01 4.6257492899894714e-01</leafValues></_>
    <_>
      <internalNodes>
        0 -1 3408 -503135742 -613944699 -349703949 -76549913 -363869861
        -605037717 -272633145 1108076111</internalNodes>
      <leafValues>
        -7.6642280817031860e-01 4.1144886612892151e-01</leafValues></_>
    <_>
      <internalNodes>
        0 -1 14565 -800857982 -79957029 -109184293 -681580865 -572787717
        -3169409 -791952433 1108034059</internalNodes>
      <leafValues>
        -7.2120243310928345e-01 4.5587888360023499e-01</leafValues></_></weakClassifiers></stage11>
</opencv_storage>
