<?xml version="1.0"?>
<opencv_storage>
<stage5>
  <maxWeakCount>4</maxWeakCount>
  <stageThreshold>-1.7853603363037109e+00</stageThreshold>
  <weakClassifiers>
    <_>
      <internalNodes>
        0 -1 385 -84939009 -757413189 -184230153 -100670721 -122699585
        -267173713 -104346625 -1</internalNodes>
      <leafValues>
        -7.3855590820312500e-01 5.3597652912139893e-01</leafValues></_>
    <_>
      <internalNodes>
        0 -1 14034 -43692 -4230789 -112254977 1067417439 -2409797
        -1078327061 -1145094213 1069251583</internalNodes>
      <leafValues>
        -9.1405296325683594e-01 3.6974775791168213e-01</leafValues></_>
    <_>
      <internalNodes>
        0 -1 12303 -1073496030 -607403049 -641755145 -146025985
        -262147073 -75781281 -102763809 1124319759</internalNodes>
      <leafValues>
        -8.0087625980377197e-01 4.6408465504646301e-01</leafValues></_>
    <_>
      <internalNodes>
        0 -1 15329 -134219893 -806355025 1895264864 1364457451
        1248743178 239922958 -151554142 -413663233</internalNodes>
      <leafValues>
        -6.1567586660385132e-01 6.6246598958969116e-01</leafValues></_></weakClassifiers></stage5>
</opencv_storage>
