<?xml version="1.0"?>
<opencv_storage>
<stage3>
  <maxWeakCount>6</maxWeakCount>
  <stageThreshold>-4.5055627822875977e-01</stageThreshold>
  <weakClassifiers>
    <_>
      <internalNodes>
        0 -1 1416 -553388833 -188645357 -1073680365 -787360489
        -249315125 -133619583 -1065319725 -70256421</internalNodes>
      <leafValues>
        -9.3981593847274780e-01 8.7333756685256958e-01</leafValues></_>
    <_>
      <internalNodes>
        0 -1 14950 -867831609 -745033551 -1602027049 -237305343
        -1844729201 -402522110 -2105438993 -24136034</internalNodes>
      <leafValues>
        -9.1904056072235107e-01 7.6874071359634399e-01</leafValues></_>
    <_>
      <internalNodes>
        0 -1 674 -202119185 -779911036 -1878519023 -805174847 -936719937
        545294539 -1207852885 2030559626</internalNodes>
      <leafValues>
        -9.6183031797409058e-01 7.3691749572753906e-01</leafValues></_>
    <_>
      <internalNodes>
        0 -1 995 -610410497 -241686239 1895897269 -645854117 -1656127303
        -931069951 -753761889 -340147809</internalNodes>
      <leafValues>
        -9.0039545297622681e-01 8.2078331708908081e-01</leafValues></_>
    <_>
      <internalNodes>
        0 -1 461 -250350217 -176094199 -1006516928 -598200128 269189278
        -1971158784 -2084396869 -82591273</internalNodes>
      <leafValues>
        -8.8538694381713867e-01 8.1558960676193237e-01</leafValues></_>
    <_>
      <internalNodes>
        0 -1 15287 -178465793 -553644021 -1937620844 -751828983
        -532047719 -108888064 -2136833911 -5657397</internalNodes>
      <leafValues>
        -9.5179486274719238e-01 7.4343901872634888e-01</leafValues></_></weakClassifiers></stage3>
</opencv_storage>
