<?xml version="1.0"?>
<!--
opencv_traincascade -data /home/holger/cv/data_equ_all/p5000_n4000_full_background_fa_03/ -vec /home/holger/cv/kennzeichen_equ_all/kennzeichen_60x13_equ_all_full_background_rot.vec -bg /home/holger/cv/neg_additional/index.info -numPos 5000 -numNeg 4000 -numStages 8 -w 60 -h 13 -featureType LBP -maxFalseAlarmRate 0.3
-->
<opencv_storage>
<cascade>
  <stageType>BOOST</stageType>
  <featureType>LBP</featureType>
  <height>13</height>
  <width>60</width>
  <stageParams>
    <boostType>GAB</boostType>
    <minHitRate>9.9500000476837158e-01</minHitRate>
    <maxFalseAlarm>3.0000001192092896e-01</maxFalseAlarm>
    <weightTrimRate>9.4999999999999996e-01</weightTrimRate>
    <maxDepth>1</maxDepth>
    <maxWeakCount>100</maxWeakCount></stageParams>
  <featureParams>
    <maxCatCount>256</maxCatCount>
    <featSize>1</featSize></featureParams>
  <stageNum>8</stageNum>
  <stages>
    <!-- stage 0 -->
    <_>
      <maxWeakCount>2</maxWeakCount>
      <stageThreshold>-1.4470058679580688e-01</stageThreshold>
      <weakClassifiers>
        <_>
          <internalNodes>
            0 -1 20 487588888 2144670165 452992989 -551726755 940583160
            -349511 680045566 -1440548694</internalNodes>
          <leafValues>
            -9.2935240268707275e-01 7.9422050714492798e-01</leafValues></_>
        <_>
          <internalNodes>
            0 -1 3 -141785380 -6487824 1564527583 -49020212 -74862593
            -71661379 -74936577 -1308532</internalNodes>
          <leafValues>
            -8.3916527032852173e-01 7.8465181589126587e-01</leafValues></_></weakClassifiers></_>
    <!-- stage 1 -->
    <_>
      <maxWeakCount>4</maxWeakCount>
      <stageThreshold>-2.8610184788703918e-01</stageThreshold>
      <weakClassifiers>
        <_>
          <internalNodes>
            0 -1 25 -196611 -217259 -196611 -179075 -327683 -196611
            -65537 -1901592576</internalNodes>
          <leafValues>
            -7.6755809783935547e-01 8.1436288356781006e-01</leafValues></_>
        <_>
          <internalNodes>
            0 -1 16 -1853876847 -1088480967 -1655496769 -1078249519
            -1690325061 -1080426317 1026235323 1059785631</internalNodes>
          <leafValues>
            -7.5490891933441162e-01 7.3377615213394165e-01</leafValues></_>
        <_>
          <internalNodes>
            0 -1 6 -1391809284 -1076163859 22351359 -1879235377
            -1158043137 -1079271013 722014203 268110571</internalNodes>
          <leafValues>
            -8.5294783115386963e-01 6.1876219511032104e-01</leafValues></_>
        <_>
          <internalNodes>
            0 -1 13 -11730946 -37776421 758614247 -536893244 -1164968961
            -71333443 -1953822037 261030570</internalNodes>
          <leafValues>
            -8.0187577009201050e-01 6.1760300397872925e-01</leafValues></_></weakClassifiers></_>
    <!-- stage 2 -->
    <_>
      <maxWeakCount>5</maxWeakCount>
      <stageThreshold>-8.8329952955245972e-01</stageThreshold>
      <weakClassifiers>
        <_>
          <internalNodes>
            0 -1 4 -17 13610735 -269554034 179244687 -1 74441855
            -1048613 -1</internalNodes>
          <leafValues>
            -6.0100090503692627e-01 7.9105126857757568e-01</leafValues></_>
        <_>
          <internalNodes>
            0 -1 38 -50696 494714323 855770580 -573778597 1532041712
            1531783375 1835892728 -5</internalNodes>
          <leafValues>
            -8.2735860347747803e-01 5.4736483097076416e-01</leafValues></_>
        <_>
          <internalNodes>
            0 -1 0 -357637889 -134253577 -268471297 -604540681
            -1431658241 -336654081 -353372417 -290499337</internalNodes>
          <leafValues>
            -6.3277441263198853e-01 7.0753860473632812e-01</leafValues></_>
        <_>
          <internalNodes>
            0 -1 18 -70754820 -2268715 -551726113 1469800285 -8094722
            -71603525 -42710021 -875533436</internalNodes>
          <leafValues>
            -7.7800917625427246e-01 5.3628242015838623e-01</leafValues></_>
        <_>
          <internalNodes>
            0 -1 15 -606084469 34046058 1087881730 1346630151
            -2004114101 33767683 1178849282 1197470703</internalNodes>
          <leafValues>
            -7.2495192289352417e-01 6.1553061008453369e-01</leafValues></_></weakClassifiers></_>
    <!-- stage 3 -->
    <_>
      <maxWeakCount>5</maxWeakCount>
      <stageThreshold>-1.0458691120147705e+00</stageThreshold>
      <weakClassifiers>
        <_>
          <internalNodes>
            0 -1 35 -67305475 -33568771 -547692579 -100011 -67175427
            -71389251 -1682260993 236584960</internalNodes>
          <leafValues>
            -8.1692457199096680e-01 5.8376657962799072e-01</leafValues></_>
        <_>
          <internalNodes>
            0 -1 8 -389091586 -35663521 -44277761 -195673904 -1427197441
            -71314477 -542179841 -305138177</internalNodes>
          <leafValues>
            -7.4149763584136963e-01 5.3875392675399780e-01</leafValues></_>
        <_>
          <internalNodes>
            0 -1 24 -10510947 -673609 487791935 2136936863 -1353708097
            -1078260577 463407807 1073692607</internalNodes>
          <leafValues>
            -7.0102339982986450e-01 5.4171276092529297e-01</leafValues></_>
        <_>
          <internalNodes>
            0 -1 36 -1542 996049292 1036255492 490754828 2060218504
            147329676 432616072 1877998591</internalNodes>
          <leafValues>
            -7.6376545429229736e-01 5.1958709955215454e-01</leafValues></_>
        <_>
          <internalNodes>
            0 -1 31 -1073496061 -136841825 -673185793 -41953297
            -889194497 -4718593 -480248833 -1019492605</internalNodes>
          <leafValues>
            -5.8626210689544678e-01 6.7176985740661621e-01</leafValues></_></weakClassifiers></_>
    <!-- stage 4 -->
    <_>
      <maxWeakCount>6</maxWeakCount>
      <stageThreshold>-4.2039451003074646e-01</stageThreshold>
      <weakClassifiers>
        <_>
          <internalNodes>
            0 -1 1 -355538177 -134237217 -304254465 392152799 -389373441
            -1330951 -844479237 1173307647</internalNodes>
          <leafValues>
            -6.9185006618499756e-01 5.8992552757263184e-01</leafValues></_>
        <_>
          <internalNodes>
            0 -1 30 1057963800 521788895 -538984963 -2123361 2069839870
            1073416618 -96493574 -268464470</internalNodes>
          <leafValues>
            -7.9535126686096191e-01 4.5645543932914734e-01</leafValues></_>
        <_>
          <internalNodes>
            0 -1 14 -1070931221 -858792209 -49818658 -520622394 4389818
            -291141 -136579125 -6209</internalNodes>
          <leafValues>
            -6.1692065000534058e-01 6.0751223564147949e-01</leafValues></_>
        <_>
          <internalNodes>
            0 -1 19 -37464612 -52235 -106471425 -52772 -1195573832
            -89310833 -101439013 -121368352</internalNodes>
          <leafValues>
            -8.0800926685333252e-01 4.6393728256225586e-01</leafValues></_>
        <_>
          <internalNodes>
            0 -1 26 -1069038589 -671092737 -738197505 -570966601
            -104857601 -301991937 -402653185 -1049632237</internalNodes>
          <leafValues>
            -5.6371146440505981e-01 6.7248326539993286e-01</leafValues></_>
        <_>
          <internalNodes>
            0 -1 23 -67586 459044812 -1950346244 1064581337 1070078908
            1050148893 999039996 -257</internalNodes>
          <leafValues>
            -6.1555778980255127e-01 5.7920867204666138e-01</leafValues></_></weakClassifiers></_>
    <!-- stage 5 -->
    <_>
      <maxWeakCount>7</maxWeakCount>
      <stageThreshold>-8.9700120687484741e-01</stageThreshold>
      <weakClassifiers>
        <_>
          <internalNodes>
            0 -1 40 -12583106 524023743 -570598948 1577048477 1297809789
            223136121 -641643047 -570564611</internalNodes>
          <leafValues>
            -6.6435188055038452e-01 5.9451657533645630e-01</leafValues></_>
        <_>
          <internalNodes>
            0 -1 2 -353441042 -475134737 -1880961537 -1342205985
            -1684276497 -98858561 -74450433 -1</internalNodes>
          <leafValues>
            -6.9035953283309937e-01 5.2456641197204590e-01</leafValues></_>
        <_>
          <internalNodes>
            0 -1 7 -823201921 -285225349 2141978623 -676236 -1014005761
            -68162313 662427511 -530829</internalNodes>
          <leafValues>
            -5.8905428647994995e-01 6.1596703529357910e-01</leafValues></_>
        <_>
          <internalNodes>
            0 -1 33 -1072970745 -570428097 -539000833 -167774209
            -335546369 -4194337 -34078721 -1049639677</internalNodes>
          <leafValues>
            -5.0209242105484009e-01 6.6040158271789551e-01</leafValues></_>
        <_>
          <internalNodes>
            0 -1 22 -15364836 -14737545 1594959167 1071464219
            -1614214465 -1141171361 1061882815 536808815</internalNodes>
          <leafValues>
            -7.6201009750366211e-01 4.5921751856803894e-01</leafValues></_>
        <_>
          <internalNodes>
            0 -1 37 -1073496061 -2631717 -311700513 -2100325 -276826657
            -2372945 -92278785 -1070873329</internalNodes>
          <leafValues>
            -5.9203374385833740e-01 5.8367818593978882e-01</leafValues></_>
        <_>
          <internalNodes>
            0 -1 32 -67108866 -1284730434 285737476 527793130 -66534428
            730079788 493434664 2147483647</internalNodes>
          <leafValues>
            -6.9906014204025269e-01 4.9061161279678345e-01</leafValues></_></weakClassifiers></_>
    <!-- stage 6 -->
    <_>
      <maxWeakCount>6</maxWeakCount>
      <stageThreshold>-1.2161897420883179e+00</stageThreshold>
      <weakClassifiers>
        <_>
          <internalNodes>
            0 -1 41 -67109380 -262401 -33555204 2113666559 -1363531592
            -1413825862 -270542600 -21304165</internalNodes>
          <leafValues>
            -5.6166493892669678e-01 6.2372750043869019e-01</leafValues></_>
        <_>
          <internalNodes>
            0 -1 11 -822083585 -991954962 103808991 -2882 1082129791
            1912602623 1736441663 -8193</internalNodes>
          <leafValues>
            -5.0937169790267944e-01 6.1156570911407471e-01</leafValues></_>
        <_>
          <internalNodes>
            0 -1 29 -1 -1611112484 536674172 1073545212 -1077084164
            1069309941 1071415288 -3</internalNodes>
          <leafValues>
            -4.9002555012702942e-01 6.2973898649215698e-01</leafValues></_>
        <_>
          <internalNodes>
            0 -1 21 -35103268 -39428 -635486849 1610445140 -22265857
            -4502597 -85689349 1037321280</internalNodes>
          <leafValues>
            -8.2160359621047974e-01 3.9806425571441650e-01</leafValues></_>
        <_>
          <internalNodes>
            0 -1 27 -2146713597 -2621441 -1 -79693921 -67108929 -65
            -76546081 -1053830353</internalNodes>
          <leafValues>
            -5.3780770301818848e-01 5.7183665037155151e-01</leafValues></_>
        <_>
          <internalNodes>
            0 -1 10 721572305 -610575787 1261960695 -1646041291
            -1146168333 -67433821 -1146433541 -1902094607</internalNodes>
          <leafValues>
            -6.2502837181091309e-01 4.6090650558471680e-01</leafValues></_></weakClassifiers></_>
    <!-- stage 7 -->
    <_>
      <maxWeakCount>7</maxWeakCount>
      <stageThreshold>-7.1919286251068115e-01</stageThreshold>
      <weakClassifiers>
        <_>
          <internalNodes>
            0 -1 9 -2162689 -10846945 -67305473 -1112384195 -17572869
            -4300929 -16973825 -1</internalNodes>
          <leafValues>
            -3.7101012468338013e-01 8.1001633405685425e-01</leafValues></_>
        <_>
          <internalNodes>
            0 -1 39 2147475453 536542207 -308348420 1610415967
            2080210940 2079030199 -659818115 -540018401</internalNodes>
          <leafValues>
            -6.0976481437683105e-01 5.2736818790435791e-01</leafValues></_>
        <_>
          <internalNodes>
            0 -1 34 -1073495040 -136315057 -778567725 -773324801
            -384836865 -337388565 -538443777 -1055931129</internalNodes>
          <leafValues>
            -5.9698611497879028e-01 5.0531125068664551e-01</leafValues></_>
        <_>
          <internalNodes>
            0 -1 5 -556859393 -6553601 -364577025 250408622 -378170625
            1060602315 -611452193 1257237231</internalNodes>
          <leafValues>
            -7.0359569787979126e-01 4.2188641428947449e-01</leafValues></_>
        <_>
          <internalNodes>
            0 -1 17 -8392757 -1574730962 44023842 34333579 -371208321
            936503 1138737719 1407178719</internalNodes>
          <leafValues>
            -6.3837248086929321e-01 4.6184888482093811e-01</leafValues></_>
        <_>
          <internalNodes>
            0 -1 12 1208111483 -2402347 -683540545 2135128533
            -1974779649 -20972641 -274612739 -840936975</internalNodes>
          <leafValues>
            -5.8779293298721313e-01 4.9160045385360718e-01</leafValues></_>
        <_>
          <internalNodes>
            0 -1 28 -606076929 936129432 -628817964 1073003516
            1001316860 1068515332 986193916 -1025</internalNodes>
          <leafValues>
            -4.8344317078590393e-01 6.0871458053588867e-01</leafValues></_></weakClassifiers></_></stages>
  <features>
    <_>
      <rect>
        0 0 4 1</rect></_>
    <_>
      <rect>
        0 0 5 1</rect></_>
    <_>
      <rect>
        0 0 14 4</rect></_>
    <_>
      <rect>
        0 1 13 1</rect></_>
    <_>
      <rect>
        0 2 4 3</rect></_>
    <_>
      <rect>
        0 2 8 1</rect></_>
    <_>
      <rect>
        0 8 18 1</rect></_>
    <_>
      <rect>
        1 1 2 1</rect></_>
    <_>
      <rect>
        1 1 6 1</rect></_>
    <_>
      <rect>
        1 10 4 1</rect></_>
    <_>
      <rect>
        2 0 2 1</rect></_>
    <_>
      <rect>
        2 2 2 1</rect></_>
    <_>
      <rect>
        3 0 2 1</rect></_>
    <_>
      <rect>
        3 2 16 1</rect></_>
    <_>
      <rect>
        4 2 1 1</rect></_>
    <_>
      <rect>
        5 3 1 2</rect></_>
    <_>
      <rect>
        7 0 13 1</rect></_>
    <_>
      <rect>
        7 3 1 2</rect></_>
    <_>
      <rect>
        8 1 12 1</rect></_>
    <_>
      <rect>
        9 1 9 1</rect></_>
    <_>
      <rect>
        9 9 17 1</rect></_>
    <_>
      <rect>
        10 1 15 1</rect></_>
    <_>
      <rect>
        11 8 16 1</rect></_>
    <_>
      <rect>
        13 7 1 2</rect></_>
    <_>
      <rect>
        18 8 14 1</rect></_>
    <_>
      <rect>
        30 10 8 1</rect></_>
    <_>
      <rect>
        31 0 1 2</rect></_>
    <_>
      <rect>
        34 0 1 2</rect></_>
    <_>
      <rect>
        35 7 1 2</rect></_>
    <_>
      <rect>
        36 7 1 2</rect></_>
    <_>
      <rect>
        36 9 8 1</rect></_>
    <_>
      <rect>
        37 0 1 2</rect></_>
    <_>
      <rect>
        37 4 2 3</rect></_>
    <_>
      <rect>
        38 0 1 2</rect></_>
    <_>
      <rect>
        40 0 1 2</rect></_>
    <_>
      <rect>
        40 10 6 1</rect></_>
    <_>
      <rect>
        48 4 2 3</rect></_>
    <_>
      <rect>
        49 0 1 2</rect></_>
    <_>
      <rect>
        51 9 2 1</rect></_>
    <_>
      <rect>
        52 9 2 1</rect></_>
    <_>
      <rect>
        53 9 2 1</rect></_>
    <_>
      <rect>
        54 10 2 1</rect></_></features></cascade>
</opencv_storage>
