<?xml version="1.0"?>
<opencv_storage>
<stage4>
  <maxWeakCount>6</maxWeakCount>
  <stageThreshold>-4.2039451003074646e-01</stageThreshold>
  <weakClassifiers>
    <_>
      <internalNodes>
        0 -1 16 -355538177 -134237217 -304254465 392152799 -389373441
        -1330951 -844479237 1173307647</internalNodes>
      <leafValues>
        -6.9185006618499756e-01 5.8992552757263184e-01</leafValues></_>
    <_>
      <internalNodes>
        0 -1 13147 1057963800 521788895 -538984963 -2123361 2069839870
        1073416618 -96493574 -268464470</internalNodes>
      <leafValues>
        -7.9535126686096191e-01 4.5645543932914734e-01</leafValues></_>
    <_>
      <internalNodes>
        0 -1 2146 -1070931221 -858792209 -49818658 -520622394 4389818
        -291141 -136579125 -6209</internalNodes>
      <leafValues>
        -6.1692065000534058e-01 6.0751223564147949e-01</leafValues></_>
    <_>
      <internalNodes>
        0 -1 4390 -37464612 -52235 -106471425 -52772 -1195573832
        -89310833 -101439013 -121368352</internalNodes>
      <leafValues>
        -8.0800926685333252e-01 4.6393728256225586e-01</leafValues></_>
    <_>
      <internalNodes>
        0 -1 11831 -1069038589 -671092737 -738197505 -570966601
        -104857601 -301991937 -402653185 -1049632237</internalNodes>
      <leafValues>
        -5.6371146440505981e-01 6.7248326539993286e-01</leafValues></_>
    <_>
      <internalNodes>
        0 -1 6296 -67586 459044812 -1950346244 1064581337 1070078908
        1050148893 999039996 -257</internalNodes>
      <leafValues>
        -6.1555778980255127e-01 5.7920867204666138e-01</leafValues></_></weakClassifiers></stage4>
</opencv_storage>
