<?xml version="1.0"?>
<opencv_storage>
<stage1>
  <maxWeakCount>4</maxWeakCount>
  <stageThreshold>-2.8610184788703918e-01</stageThreshold>
  <weakClassifiers>
    <_>
      <internalNodes>
        0 -1 11827 -196611 -217259 -196611 -179075 -327683 -196611
        -65537 -1901592576</internalNodes>
      <leafValues>
        -7.6755809783935547e-01 8.1436288356781006e-01</leafValues></_>
    <_>
      <internalNodes>
        0 -1 3454 -1853876847 -1088480967 -1655496769 -1078249519
        -1690325061 -1080426317 1026235323 1059785631</internalNodes>
      <leafValues>
        -7.5490891933441162e-01 7.3377615213394165e-01</leafValues></_>
    <_>
      <internalNodes>
        0 -1 477 -1391809284 -1076163859 22351359 -1879235377
        -1158043137 -1079271013 722014203 268110571</internalNodes>
      <leafValues>
        -8.5294783115386963e-01 6.1876219511032104e-01</leafValues></_>
    <_>
      <internalNodes>
        0 -1 1705 -11730946 -37776421 758614247 -536893244 -1164968961
        -71333443 -1953822037 261030570</internalNodes>
      <leafValues>
        -8.0187577009201050e-01 6.1760300397872925e-01</leafValues></_></weakClassifiers></stage1>
</opencv_storage>
