<?xml version="1.0"?>
<opencv_storage>
<stage6>
  <maxWeakCount>6</maxWeakCount>
  <stageThreshold>-1.2161897420883179e+00</stageThreshold>
  <weakClassifiers>
    <_>
      <internalNodes>
        0 -1 15261 -67109380 -262401 -33555204 2113666559 -1363531592
        -1413825862 -270542600 -21304165</internalNodes>
      <leafValues>
        -5.6166493892669678e-01 6.2372750043869019e-01</leafValues></_>
    <_>
      <internalNodes>
        0 -1 1169 -822083585 -991954962 103808991 -2882 1082129791
        1912602623 1736441663 -8193</internalNodes>
      <leafValues>
        -5.0937169790267944e-01 6.1156570911407471e-01</leafValues></_>
    <_>
      <internalNodes>
        0 -1 13117 -1 -1611112484 536674172 1073545212 -1077084164
        1069309941 1071415288 -3</internalNodes>
      <leafValues>
        -4.9002555012702942e-01 6.2973898649215698e-01</leafValues></_>
    <_>
      <internalNodes>
        0 -1 4852 -35103268 -39428 -635486849 1610445140 -22265857
        -4502597 -85689349 1037321280</internalNodes>
      <leafValues>
        -8.2160359621047974e-01 3.9806425571441650e-01</leafValues></_>
    <_>
      <internalNodes>
        0 -1 12533 -2146713597 -2621441 -1 -79693921 -67108929 -65
        -76546081 -1053830353</internalNodes>
      <leafValues>
        -5.3780770301818848e-01 5.7183665037155151e-01</leafValues></_>
    <_>
      <internalNodes>
        0 -1 1018 721572305 -610575787 1261960695 -1646041291
        -1146168333 -67433821 -1146433541 -1902094607</internalNodes>
      <leafValues>
        -6.2502837181091309e-01 4.6090650558471680e-01</leafValues></_></weakClassifiers></stage6>
</opencv_storage>
