<?xml version="1.0"?>
<opencv_storage>
<stage2>
  <maxWeakCount>4</maxWeakCount>
  <stageThreshold>-4.2054274678230286e-01</stageThreshold>
  <weakClassifiers>
    <_>
      <internalNodes>
        0 -1 99 -257 -521222994 1848426502 950346 -7612417 -808468053
        -1047532549 -805311489</internalNodes>
      <leafValues>
        -7.6988983154296875e-01 7.3584908246994019e-01</leafValues></_>
    <_>
      <internalNodes>
        0 -1 516 -539164674 -75509284 -575473665 -8397348 -356589569
        -1342532 -5570561 -16581729</internalNodes>
      <leafValues>
        -8.7567710876464844e-01 6.0011577606201172e-01</leafValues></_>
    <_>
      <internalNodes>
        0 -1 12960 -92252716 -60961 -744785409 -6860289 -20227073
        -67421537 -1144046597 -1077977857</internalNodes>
      <leafValues>
        -8.9803844690322876e-01 5.3006154298782349e-01</leafValues></_>
    <_>
      <internalNodes>
        0 -1 345 -290459921 -1028997010 6471882 -72357681 1112524495
        1073972456 -745810177 -289</internalNodes>
      <leafValues>
        -7.2584074735641479e-01 6.9496268033981323e-01</leafValues></_></weakClassifiers></stage2>
</opencv_storage>
