<?xml version="1.0"?>
<opencv_storage>
<stage7>
  <maxWeakCount>10</maxWeakCount>
  <stageThreshold>-6.3110864162445068e-01</stageThreshold>
  <weakClassifiers>
    <_>
      <internalNodes>
        0 -1 1304 -368422825 -10753 2147483135 -139777 -17826307 -513
        -83894785 -319990531</internalNodes>
      <leafValues>
        -5.0416767597198486e-01 6.4923971891403198e-01</leafValues></_>
    <_>
      <internalNodes>
        0 -1 581 -805306369 82767598 788529147 -16785666 1971322743
        -1376262153 909637495 -524545</internalNodes>
      <leafValues>
        -5.1219832897186279e-01 5.7427883148193359e-01</leafValues></_>
    <_>
      <internalNodes>
        0 -1 11439 -196611 -1073979523 -1246470723 -537331971
        -1431785800 -1431698024 -1632104964 -1145372741</internalNodes>
      <leafValues>
        -5.6405508518218994e-01 4.9116411805152893e-01</leafValues></_>
    <_>
      <internalNodes>
        0 -1 9101 -1073233917 -8388609 -536870913 -35661825 -69208577
        -2049 -541065217 -1054883041</internalNodes>
      <leafValues>
        -4.8111552000045776e-01 5.3868043422698975e-01</leafValues></_>
    <_>
      <internalNodes>
        0 -1 316 -146280721 1728309287 33947839 218566399 -70517185
        -628126045 -28386321 -3146753</internalNodes>
      <leafValues>
        -5.2500760555267334e-01 4.9835786223411560e-01</leafValues></_>
    <_>
      <internalNodes>
        0 -1 8042 -101687852 -105547276 964001791 937235668 -5554177
        -4517169 -1948053505 406847616</internalNodes>
      <leafValues>
        -7.9630374908447266e-01 3.7349700927734375e-01</leafValues></_>
    <_>
      <internalNodes>
        0 -1 11411 -8397026 1026290495 -929440292 -1377702695
        -2071002595 232397269 -1718494987 -573978127</internalNodes>
      <leafValues>
        -6.7711752653121948e-01 3.9826563000679016e-01</leafValues></_>
    <_>
      <internalNodes>
        0 -1 4363 -1649103364 -75521553 -1080213569 -1621149763
        770523135 -1075106207 1004997631 264971255</internalNodes>
      <leafValues>
        -7.6633173227310181e-01 3.2218137383460999e-01</leafValues></_>
    <_>
      <internalNodes>
        0 -1 8685 -1073528573 -239086625 -236191777 -44835977
        -1275068929 -67134609 -178257921 -1021328101</internalNodes>
      <leafValues>
        -5.8574026823043823e-01 4.4224971532821655e-01</leafValues></_>
    <_>
      <internalNodes>
        0 -1 948 206551635 2096872082 763363199 -149890 -58720258 -2561
        1182136159 -252838287</internalNodes>
      <leafValues>
        -4.9879750609397888e-01 5.4048377275466919e-01</leafValues></_></weakClassifiers></stage7>
</opencv_storage>
