<?xml version="1.0"?>
<opencv_storage>
<stage8>
  <maxWeakCount>11</maxWeakCount>
  <stageThreshold>-7.1556979417800903e-01</stageThreshold>
  <weakClassifiers>
    <_>
      <internalNodes>
        0 -1 328 -855652609 1383780063 -285218049 -536879361 -197656865
        -260154145 -100667393 -2097153</internalNodes>
      <leafValues>
        -3.6667978763580322e-01 7.2972971200942993e-01</leafValues></_>
    <_>
      <internalNodes>
        0 -1 11288 -65538 -134335500 901255092 1017916372 -664922960
        685519832 1056201120 2147483647</internalNodes>
      <leafValues>
        -6.1570268869400024e-01 4.1333249211311340e-01</leafValues></_>
    <_>
      <internalNodes>
        0 -1 10586 -1879026347 -1084534787 -274104321 -1342295073
        -1161855297 -5155 -1158774789 -1090633729</internalNodes>
      <leafValues>
        -5.6627774238586426e-01 4.1270595788955688e-01</leafValues></_>
    <_>
      <internalNodes>
        0 -1 8406 -536870914 -12255268 2074654712 1066941436 427621372
        533227973 1056481276 -1</internalNodes>
      <leafValues>
        -5.3168755769729614e-01 4.4989779591560364e-01</leafValues></_>
    <_>
      <internalNodes>
        0 -1 11438 1006632959 -1275663425 300077565 498899848 418326176
        166566059 -577140535 1574829017</internalNodes>
      <leafValues>
        -6.1320716142654419e-01 3.9635464549064636e-01</leafValues></_>
    <_>
      <internalNodes>
        0 -1 8674 521748252 2132800455 -1610944641 -274405 2146336702
        -1677734261 -1196758294 -1430592838</internalNodes>
      <leafValues>
        -7.7571076154708862e-01 2.5208017230033875e-01</leafValues></_>
    <_>
      <internalNodes>
        0 -1 3822 -4526162 -1684135382 1103306752 730833292 -881092732
        484114442 1071612170 2113929215</internalNodes>
      <leafValues>
        -6.4527738094329834e-01 3.4661221504211426e-01</leafValues></_>
    <_>
      <internalNodes>
        0 -1 3382 -41135652 -134406890 -1153754241 2147048378
        -1413981222 -1142980102 -1195541601 -59752412</internalNodes>
      <leafValues>
        -7.8581714630126953e-01 3.0038741230964661e-01</leafValues></_>
    <_>
      <internalNodes>
        0 -1 11224 -1050374 -129478 762489948 1029584156 710858492
        798695308 435570864 2147221467</internalNodes>
      <leafValues>
        -6.2611228227615356e-01 3.4981104731559753e-01</leafValues></_>
    <_>
      <internalNodes>
        0 -1 9775 -67108866 -11041834 172762112 2078484450 -195170076
        943464464 1025636323 2141978623</internalNodes>
      <leafValues>
        -6.2985914945602417e-01 3.3037060499191284e-01</leafValues></_>
    <_>
      <internalNodes>
        0 -1 11361 -604270595 915137880 -351283875 2076414428
        -1429263144 -1412490072 713440376 -1438983946</internalNodes>
      <leafValues>
        -5.4336452484130859e-01 4.3605664372444153e-01</leafValues></_></weakClassifiers></stage8>
</opencv_storage>
