<?xml version="1.0"?>
<opencv_storage>
<stage6>
  <maxWeakCount>9</maxWeakCount>
  <stageThreshold>-8.5404926538467407e-01</stageThreshold>
  <weakClassifiers>
    <_>
      <internalNodes>
        0 -1 428 -65665 2147106675 -70057985 1068660597 -109053313
        -8488646 -524289 -262145</internalNodes>
      <leafValues>
        -3.8263541460037231e-01 7.8861361742019653e-01</leafValues></_>
    <_>
      <internalNodes>
        0 -1 11254 1060372285 1059053375 -574662155 -33564673 2071720829
        2100034427 -1448125991 -67108865</internalNodes>
      <leafValues>
        -5.6465542316436768e-01 5.2524679899215698e-01</leafValues></_>
    <_>
      <internalNodes>
        0 -1 93 -286331137 -18883873 -293601281 -521933594 -857743425
        -16069981 -1954414597 -1058017553</internalNodes>
      <leafValues>
        -5.8560419082641602e-01 4.8762997984886169e-01</leafValues></_>
    <_>
      <internalNodes>
        0 -1 10874 -258 -19392280 758391892 927738584 -1406092048
        681840644 888173532 2147483647</internalNodes>
      <leafValues>
        -6.4922434091567993e-01 4.3994185328483582e-01</leafValues></_>
    <_>
      <internalNodes>
        0 -1 9638 -2049 -459538 972079068 1069312976 1535695868
        1004827961 1065115628 -1</internalNodes>
      <leafValues>
        -5.2470844984054565e-01 5.4477930068969727e-01</leafValues></_>
    <_>
      <internalNodes>
        0 -1 2298 -341839473 53209839 1118552098 869263083 -1033906609
        34293827 1406400359 1137694655</internalNodes>
      <leafValues>
        -5.7920306921005249e-01 4.9159613251686096e-01</leafValues></_>
    <_>
      <internalNodes>
        0 -1 6044 -1879026345 -1074587659 -1144521221 -1147143201
        -1074905220 -1079456264 -1092764165 -1074839565</internalNodes>
      <leafValues>
        -5.6503188610076904e-01 4.8864677548408508e-01</leafValues></_>
    <_>
      <internalNodes>
        0 -1 3668 -498999296 -74321077 -402409513 -244844833 -619722001
        -270411273 -924846356 1095758539</internalNodes>
      <leafValues>
        -6.5346211194992065e-01 4.2297840118408203e-01</leafValues></_>
    <_>
      <internalNodes>
        0 -1 10639 -272893966 -82685806 1116242708 2097890466
        -1912474652 705307665 156322477 2144327655</internalNodes>
      <leafValues>
        -6.3903349637985229e-01 4.1912937164306641e-01</leafValues></_></weakClassifiers></stage6>
</opencv_storage>
