<?xml version="1.0"?>
<opencv_storage>
<stage0>
  <maxWeakCount>5</maxWeakCount>
  <stageThreshold>-1.0170416831970215e+00</stageThreshold>
  <weakClassifiers>
    <_>
      <internalNodes>
        0 -1 112 -66581250 -10681900 -637531651 -50069184 -89617409
        -7697703 -1165193985 -293074804</internalNodes>
      <leafValues>
        -8.4659683704376221e-01 8.1737452745437622e-01</leafValues></_>
    <_>
      <internalNodes>
        0 -1 865 -2004841220 -7876327 319074783 -578808497 1586288863
        -71724869 -1937184001 -1425867798</internalNodes>
      <leafValues>
        -7.8164583444595337e-01 7.8019028902053833e-01</leafValues></_>
    <_>
      <internalNodes>
        0 -1 3271 -124680808 -539426541 345310387 522125627 -880203607
        -1147467605 186256014 1073676715</internalNodes>
      <leafValues>
        -7.5074726343154907e-01 6.5622717142105103e-01</leafValues></_>
    <_>
      <internalNodes>
        0 -1 115 -17892098 -758201846 -1542798710 -1929344978 -270537729
        -72431430 -288625665 -810811713</internalNodes>
      <leafValues>
        -7.2203278541564941e-01 6.6877979040145874e-01</leafValues></_>
    <_>
      <internalNodes>
        0 -1 4522 -40837672 -142216053 -2085387473 -216858367 1402372607
        -4519905 142616751 193658890</internalNodes>
      <leafValues>
        -7.1380591392517090e-01 6.2943720817565918e-01</leafValues></_></weakClassifiers></stage0>
</opencv_storage>
