<?xml version="1.0"?>
<!--opencv_traincascade -data data -vec kennzeichen_dist_new_bg/kennzeichen.vec -bg neg/index.info -numPos 1600 -numNeg 3680 -numStages 20 -w 65 -h 15 -featureType LBP-->
<opencv_storage>
<cascade>
  <stageType>BOOST</stageType>
  <featureType>LBP</featureType>
  <height>15</height>
  <width>65</width>
  <stageParams>
    <boostType>GAB</boostType>
    <minHitRate>9.9500000476837158e-01</minHitRate>
    <maxFalseAlarm>5.0000000000000000e-01</maxFalseAlarm>
    <weightTrimRate>9.4999999999999996e-01</weightTrimRate>
    <maxDepth>1</maxDepth>
    <maxWeakCount>100</maxWeakCount></stageParams>
  <featureParams>
    <maxCatCount>256</maxCatCount>
    <featSize>1</featSize></featureParams>
  <stageNum>13</stageNum>
  <stages>
    <!-- stage 0 -->
    <_>
      <maxWeakCount>2</maxWeakCount>
      <stageThreshold>-2.4189981818199158e-01</stageThreshold>
      <weakClassifiers>
        <_>
          <internalNodes>
            0 -1 16 -1585279746 -945707 286301695 -6454821 -879046657
            -6648694 -913637377 -4482817</internalNodes>
          <leafValues>
            -9.7541451454162598e-01 7.4747473001480103e-01</leafValues></_>
        <_>
          <internalNodes>
            0 -1 11 -45024002 -140767020 319846879 -15183836 -1148542977
            -5584421 -121070849 -1076983574</internalNodes>
          <leafValues>
            -9.5725768804550171e-01 7.3351472616195679e-01</leafValues></_></weakClassifiers></_>
    <!-- stage 1 -->
    <_>
      <maxWeakCount>3</maxWeakCount>
      <stageThreshold>-1.2974359989166260e+00</stageThreshold>
      <weakClassifiers>
        <_>
          <internalNodes>
            0 -1 33 -2293763 -2689063 -707207171 -2371171 -459777
            -67437912 -67306497 -1078305315</internalNodes>
          <leafValues>
            -9.5354306697845459e-01 6.1894625425338745e-01</leafValues></_>
        <_>
          <internalNodes>
            0 -1 26 -1818734115 -191073 -1257153025 2145342911
            -1147406081 -4613909 429621247 1073690559</internalNodes>
          <leafValues>
            -8.9890867471694946e-01 6.2995278835296631e-01</leafValues></_>
        <_>
          <internalNodes>
            0 -1 27 -196611 -44060195 -145690115 -539553411 -605382145
            -491363 -1384449 992631133</internalNodes>
          <leafValues>
            -9.2779386043548584e-01 5.5501580238342285e-01</leafValues></_></weakClassifiers></_>
    <!-- stage 2 -->
    <_>
      <maxWeakCount>3</maxWeakCount>
      <stageThreshold>-1.0949993133544922e+00</stageThreshold>
      <weakClassifiers>
        <_>
          <internalNodes>
            0 -1 12 -268440833 11502511 -862461185 49282031 -827339777
            200263147 -740294657 -1</internalNodes>
          <leafValues>
            -8.5990470647811890e-01 5.7802456617355347e-01</leafValues></_>
        <_>
          <internalNodes>
            0 -1 28 -539164675 -14697515 -540016641 -8739 -357889
            -2365187 -67440641 -282404387</internalNodes>
          <leafValues>
            -8.1122756004333496e-01 6.6195368766784668e-01</leafValues></_>
        <_>
          <internalNodes>
            0 -1 38 -1149215275 -536904333 -1122508801 -1076150785
            -1074839553 -2153477 -1142984705 -1077970945</internalNodes>
          <leafValues>
            -8.6179625988006592e-01 6.2409693002700806e-01</leafValues></_></weakClassifiers></_>
    <!-- stage 3 -->
    <_>
      <maxWeakCount>4</maxWeakCount>
      <stageThreshold>-7.1466207504272461e-01</stageThreshold>
      <weakClassifiers>
        <_>
          <internalNodes>
            0 -1 1 -4097 -273709745 -1924722961 -1880388913 -77856833
            -5509239 -336593921 -5</internalNodes>
          <leafValues>
            -7.9945945739746094e-01 5.5569618940353394e-01</leafValues></_>
        <_>
          <internalNodes>
            0 -1 30 523443608 2139092989 -174630913 -4326027 2079006715
            -284481 -307237893 -1</internalNodes>
          <leafValues>
            -9.1567319631576538e-01 4.5397111773490906e-01</leafValues></_>
        <_>
          <internalNodes>
            0 -1 0 -542441474 -10276 -7021057 -3226658 -4523009 -5241
            -85524545 -353443090</internalNodes>
          <leafValues>
            -9.0404582023620605e-01 4.5659270882606506e-01</leafValues></_>
        <_>
          <internalNodes>
            0 -1 18 -117441282 1076937898 1075702014 -990713601
            -1435772166 684667815 -674245121 -33555457</internalNodes>
          <leafValues>
            -8.1127780675888062e-01 5.4587966203689575e-01</leafValues></_></weakClassifiers></_>
    <!-- stage 4 -->
    <_>
      <maxWeakCount>3</maxWeakCount>
      <stageThreshold>-1.0675199031829834e+00</stageThreshold>
      <weakClassifiers>
        <_>
          <internalNodes>
            0 -1 9 -833683457 -811553 -81830401 -3617 103807999 -5532481
            -1346642945 -1342193153</internalNodes>
          <leafValues>
            -7.7939587831497192e-01 5.1526719331741333e-01</leafValues></_>
        <_>
          <internalNodes>
            0 -1 31 -196611 -2106819 -10758659 -2107491 -1073828865
            -5337393 -65537 -5614499</internalNodes>
          <leafValues>
            -8.0772602558135986e-01 5.0235468149185181e-01</leafValues></_>
        <_>
          <internalNodes>
            0 -1 14 -1048849 53456519 -2103301430 42936559 1542455295
            168362631 -118763861 -1</internalNodes>
          <leafValues>
            -7.7506107091903687e-01 5.7040721178054810e-01</leafValues></_></weakClassifiers></_>
    <!-- stage 5 -->
    <_>
      <maxWeakCount>3</maxWeakCount>
      <stageThreshold>-1.1102256774902344e+00</stageThreshold>
      <weakClassifiers>
        <_>
          <internalNodes>
            0 -1 13 -805313809 -876091813 -1073233773 1112275967
            -807678997 -890254577 1173087999 -546310657</internalNodes>
          <leafValues>
            -7.8453946113586426e-01 4.7916665673255920e-01</leafValues></_>
        <_>
          <internalNodes>
            0 -1 32 -2013243947 -536913409 -606347265 -2368545
            -1081084417 -9793 -1160791041 -1073775105</internalNodes>
          <leafValues>
            -8.7824016809463501e-01 4.5789435505867004e-01</leafValues></_>
        <_>
          <internalNodes>
            0 -1 47 -213 -1018707473 -799022560 -493880869 -36964032
            17482890 -202903274 -201328641</internalNodes>
          <leafValues>
            -7.1115225553512573e-01 5.6973141431808472e-01</leafValues></_></weakClassifiers></_>
    <!-- stage 6 -->
    <_>
      <maxWeakCount>4</maxWeakCount>
      <stageThreshold>-6.2681156396865845e-01</stageThreshold>
      <weakClassifiers>
        <_>
          <internalNodes>
            0 -1 17 -65537 -363177 -78053377 -1081075369 -354754625
            -73715561 -978846753 -67900449</internalNodes>
          <leafValues>
            -7.6052981615066528e-01 5.2558141946792603e-01</leafValues></_>
        <_>
          <internalNodes>
            0 -1 36 -132097 -541535907 -810223619 -67576355 -68359239
            -71381767 -90636289 -1414898243</internalNodes>
          <leafValues>
            -8.3580988645553589e-01 4.2013713717460632e-01</leafValues></_>
        <_>
          <internalNodes>
            0 -1 22 -2097665 -4198080 -1085022721 1395328514 -1979008305
            -1066565 780896942 185532938</internalNodes>
          <leafValues>
            -8.8001561164855957e-01 3.9909011125564575e-01</leafValues></_>
        <_>
          <internalNodes>
            0 -1 48 -748699390 -717229093 1923215808 -177081517
            1427067654 1261683296 1139204864 -683411489</internalNodes>
          <leafValues>
            -6.7249721288681030e-01 5.9359669685363770e-01</leafValues></_></weakClassifiers></_>
    <!-- stage 7 -->
    <_>
      <maxWeakCount>4</maxWeakCount>
      <stageThreshold>-1.6966435909271240e+00</stageThreshold>
      <weakClassifiers>
        <_>
          <internalNodes>
            0 -1 4 -218373377 -703141153 -434575649 -606084517
            -340798209 -337673205 -780149761 -67110913</internalNodes>
          <leafValues>
            -7.4914360046386719e-01 5.1380473375320435e-01</leafValues></_>
        <_>
          <internalNodes>
            0 -1 40 -1073495037 -547357989 -88870757 -35654241 -45352961
            -70531097 -105910305 -1055144673</internalNodes>
          <leafValues>
            -6.0645538568496704e-01 6.7780190706253052e-01</leafValues></_>
        <_>
          <internalNodes>
            0 -1 29 -138703685 -59497 387648923 2008751415 -1304458817
            -1625356101 390009791 1610292223</internalNodes>
          <leafValues>
            -7.8189980983734131e-01 4.8214131593704224e-01</leafValues></_>
        <_>
          <internalNodes>
            0 -1 15 -352326933 -815807906 -1057863438 1615258879
            -873476498 1196150028 1141371891 1199569919</internalNodes>
          <leafValues>
            -8.3798980712890625e-01 4.4085520505905151e-01</leafValues></_></weakClassifiers></_>
    <!-- stage 8 -->
    <_>
      <maxWeakCount>4</maxWeakCount>
      <stageThreshold>-1.8589832782745361e+00</stageThreshold>
      <weakClassifiers>
        <_>
          <internalNodes>
            0 -1 10 -1079095553 2145341951 957437951 2146915775
            -1147142145 -4467783 992739071 -1537</internalNodes>
          <leafValues>
            -8.1448763608932495e-01 3.6411890387535095e-01</leafValues></_>
        <_>
          <internalNodes>
            0 -1 21 -6578757 -12611145 363924927 532617655 -619733569
            -1614862449 1002376191 523967679</internalNodes>
          <leafValues>
            -8.6465007066726685e-01 3.3509612083435059e-01</leafValues></_>
        <_>
          <internalNodes>
            0 -1 3 -83956001 -218733953 -1171064737 -802098561 -82316597
            -195825057 -19530277 -193462305</internalNodes>
          <leafValues>
            -6.9052523374557495e-01 5.4167819023132324e-01</leafValues></_>
        <_>
          <internalNodes>
            0 -1 8 -858857473 -1107308169 -1086586881 1071077751
            24882685 -1344039783 310631417 804193525</internalNodes>
          <leafValues>
            -7.2152382135391235e-01 5.2149277925491333e-01</leafValues></_></weakClassifiers></_>
    <!-- stage 9 -->
    <_>
      <maxWeakCount>4</maxWeakCount>
      <stageThreshold>-9.9933069944381714e-01</stageThreshold>
      <weakClassifiers>
        <_>
          <internalNodes>
            0 -1 5 -21313 -1614872331 -1087175425 1035927723 -10486785
            -1080050214 -67392001 -1073763329</internalNodes>
          <leafValues>
            -8.2430362701416016e-01 3.0452060699462891e-01</leafValues></_>
        <_>
          <internalNodes>
            0 -1 25 -1146595875 -1075882019 -537305089 1031492607
            -1077936129 -67392273 -1140858885 1072652283</internalNodes>
          <leafValues>
            -8.7132215499877930e-01 3.5277503728866577e-01</leafValues></_>
        <_>
          <internalNodes>
            0 -1 35 -196609 -212286467 -4935171 -199203 -6507011
            -4274779 -606277637 -1365616291</internalNodes>
          <leafValues>
            -8.7934070825576782e-01 3.4722632169723511e-01</leafValues></_>
        <_>
          <internalNodes>
            0 -1 43 -215756606 -751570367 -1778380406 -776220605
            -519773754 1342324952 1644613839 1128776335</internalNodes>
          <leafValues>
            -7.7975547313690186e-01 4.5604842901229858e-01</leafValues></_></weakClassifiers></_>
    <!-- stage 10 -->
    <_>
      <maxWeakCount>5</maxWeakCount>
      <stageThreshold>-1.1773331165313721e+00</stageThreshold>
      <weakClassifiers>
        <_>
          <internalNodes>
            0 -1 42 -935084025 -2099337 -102763873 -4203693 -67118433
            -67378489 -262145 -754199265</internalNodes>
          <leafValues>
            -7.0280081033706665e-01 4.4241574406623840e-01</leafValues></_>
        <_>
          <internalNodes>
            0 -1 39 -1148693027 -2140325 -1078296577 -6590057 -74973253
            -1077013842 -1147552261 -1078232069</internalNodes>
          <leafValues>
            -7.6054257154464722e-01 4.2046219110488892e-01</leafValues></_>
        <_>
          <internalNodes>
            0 -1 23 -2 1073510204 941121244 1023162367 2127317756
            988313820 2080267260 -33947649</internalNodes>
          <leafValues>
            -6.8745601177215576e-01 5.2021938562393188e-01</leafValues></_>
        <_>
          <internalNodes>
            0 -1 34 -286267901 1175406863 -968220160 -1033576629
            1965290055 4695629 1982285639 -134743041</internalNodes>
          <leafValues>
            -7.0504081249237061e-01 5.0505936145782471e-01</leafValues></_>
        <_>
          <internalNodes>
            0 -1 6 -286331905 -1420110881 -971311489 1066427671
            1250941375 -276315243 -540280065 461110175</internalNodes>
          <leafValues>
            -7.1017307043075562e-01 5.0840324163436890e-01</leafValues></_></weakClassifiers></_>
    <!-- stage 11 -->
    <_>
      <maxWeakCount>5</maxWeakCount>
      <stageThreshold>-1.3515942096710205e+00</stageThreshold>
      <weakClassifiers>
        <_>
          <internalNodes>
            0 -1 2 -680006673 -12604657 -1951989521 257403747 -493880065
            -1098144382 -359687185 -1281</internalNodes>
          <leafValues>
            -7.9698556661605835e-01 2.5184819102287292e-01</leafValues></_>
        <_>
          <internalNodes>
            0 -1 37 -2147396265 -134531621 257642751 -1076420141
            -1697972549 -90193531 -1182058273 -1078241285</internalNodes>
          <leafValues>
            -7.5238925218582153e-01 4.0572801232337952e-01</leafValues></_>
        <_>
          <internalNodes>
            0 -1 24 -391123902 -907689278 -343673421 -37490221
            -523244585 -350512505 -477894657 1108072263</internalNodes>
          <leafValues>
            -7.2181534767150879e-01 4.5154619216918945e-01</leafValues></_>
        <_>
          <internalNodes>
            0 -1 7 -900546325 -80481905 -1290610049 1459664665
            -301743942 -875831159 -614471201 -551829271</internalNodes>
          <leafValues>
            -5.9577476978302002e-01 5.8352023363113403e-01</leafValues></_>
        <_>
          <internalNodes>
            0 -1 41 -118497214 -232631702 -502873982 -1021590392
            -624524286 -928333789 -667991741 1107809119</internalNodes>
          <leafValues>
            -7.7820801734924316e-01 4.6653693914413452e-01</leafValues></_></weakClassifiers></_>
    <!-- stage 12 -->
    <_>
      <maxWeakCount>5</maxWeakCount>
      <stageThreshold>-9.9431031942367554e-01</stageThreshold>
      <weakClassifiers>
        <_>
          <internalNodes>
            0 -1 19 -581186313 -650919407 -668548353 -619458017
            -1726876197 -626274171 -351547397 -536880209</internalNodes>
          <leafValues>
            -6.6585600376129150e-01 5.6335616111755371e-01</leafValues></_>
        <_>
          <internalNodes>
            0 -1 44 -9373697 -673676607 -1995406371 -149896695
            -1986468935 -342179839 -622145137 -1079359179</internalNodes>
          <leafValues>
            -7.6931416988372803e-01 4.2106813192367554e-01</leafValues></_>
        <_>
          <internalNodes>
            0 -1 20 -75497746 319210146 1292977380 268812322 -922489921
            -1918024189 -1056714023 -682100257</internalNodes>
          <leafValues>
            -6.4568740129470825e-01 5.1794040203094482e-01</leafValues></_>
        <_>
          <internalNodes>
            0 -1 45 -939503273 -70532905 -653174945 -1652337773
            -1345611301 -360018805 -1207887905 -1141681281</internalNodes>
          <leafValues>
            -6.5604227781295776e-01 5.3831720352172852e-01</leafValues></_>
        <_>
          <internalNodes>
            0 -1 46 -2101 -276891802 -252510688 -236455954 1333788495
            122552175 -227019168 -771751937</internalNodes>
          <leafValues>
            -6.1142051219940186e-01 6.4186918735504150e-01</leafValues></_></weakClassifiers></_></stages>
  <features>
    <_>
      <rect>
        0 1 15 1</rect></_>
    <_>
      <rect>
        0 5 16 3</rect></_>
    <_>
      <rect>
        0 5 19 3</rect></_>
    <_>
      <rect>
        0 8 3 2</rect></_>
    <_>
      <rect>
        0 8 4 2</rect></_>
    <_>
      <rect>
        0 8 18 2</rect></_>
    <_>
      <rect>
        0 11 6 1</rect></_>
    <_>
      <rect>
        1 0 1 4</rect></_>
    <_>
      <rect>
        1 0 3 1</rect></_>
    <_>
      <rect>
        1 0 4 1</rect></_>
    <_>
      <rect>
        1 0 20 1</rect></_>
    <_>
      <rect>
        1 1 18 1</rect></_>
    <_>
      <rect>
        1 2 2 3</rect></_>
    <_>
      <rect>
        1 3 1 3</rect></_>
    <_>
      <rect>
        1 3 3 3</rect></_>
    <_>
      <rect>
        1 4 1 2</rect></_>
    <_>
      <rect>
        1 11 18 1</rect></_>
    <_>
      <rect>
        1 12 4 1</rect></_>
    <_>
      <rect>
        2 3 2 4</rect></_>
    <_>
      <rect>
        2 8 3 2</rect></_>
    <_>
      <rect>
        4 1 2 3</rect></_>
    <_>
      <rect>
        5 8 20 2</rect></_>
    <_>
      <rect>
        6 1 18 2</rect></_>
    <_>
      <rect>
        7 9 1 2</rect></_>
    <_>
      <rect>
        8 0 1 3</rect></_>
    <_>
      <rect>
        9 0 10 1</rect></_>
    <_>
      <rect>
        10 0 15 1</rect></_>
    <_>
      <rect>
        10 12 11 1</rect></_>
    <_>
      <rect>
        10 12 15 1</rect></_>
    <_>
      <rect>
        14 8 15 2</rect></_>
    <_>
      <rect>
        17 11 16 1</rect></_>
    <_>
      <rect>
        29 12 10 1</rect></_>
    <_>
      <rect>
        31 0 2 1</rect></_>
    <_>
      <rect>
        31 12 5 1</rect></_>
    <_>
      <rect>
        32 4 2 1</rect></_>
    <_>
      <rect>
        34 12 2 1</rect></_>
    <_>
      <rect>
        36 12 2 1</rect></_>
    <_>
      <rect>
        37 0 2 1</rect></_>
    <_>
      <rect>
        37 0 4 1</rect></_>
    <_>
      <rect>
        37 0 7 1</rect></_>
    <_>
      <rect>
        38 0 1 2</rect></_>
    <_>
      <rect>
        40 1 2 3</rect></_>
    <_>
      <rect>
        41 0 1 2</rect></_>
    <_>
      <rect>
        41 0 3 4</rect></_>
    <_>
      <rect>
        48 12 2 1</rect></_>
    <_>
      <rect>
        52 0 2 1</rect></_>
    <_>
      <rect>
        61 6 1 1</rect></_>
    <_>
      <rect>
        61 7 1 1</rect></_>
    <_>
      <rect>
        62 1 1 2</rect></_></features></cascade>
</opencv_storage>
