<?xml version="1.0"?>
<opencv_storage>
<stage8>
  <maxWeakCount>4</maxWeakCount>
  <stageThreshold>-1.8589832782745361e+00</stageThreshold>
  <weakClassifiers>
    <_>
      <internalNodes>
        0 -1 830 -1079095553 2145341951 957437951 2146915775 -1147142145
        -4467783 992739071 -1537</internalNodes>
      <leafValues>
        -8.1448763608932495e-01 3.6411890387535095e-01</leafValues></_>
    <_>
      <internalNodes>
        0 -1 4204 -6578757 -12611145 363924927 532617655 -619733569
        -1614862449 1002376191 523967679</internalNodes>
      <leafValues>
        -8.6465007066726685e-01 3.3509612083435059e-01</leafValues></_>
    <_>
      <internalNodes>
        0 -1 593 -83956001 -218733953 -1171064737 -802098561 -82316597
        -195825057 -19530277 -193462305</internalNodes>
      <leafValues>
        -6.9052523374557495e-01 5.4167819023132324e-01</leafValues></_>
    <_>
      <internalNodes>
        0 -1 745 -858857473 -1107308169 -1086586881 1071077751 24882685
        -1344039783 310631417 804193525</internalNodes>
      <leafValues>
        -7.2152382135391235e-01 5.2149277925491333e-01</leafValues></_></weakClassifiers></stage8>
</opencv_storage>
