<?xml version="1.0"?>
<opencv_storage>
<stage3>
  <maxWeakCount>4</maxWeakCount>
  <stageThreshold>-7.1466207504272461e-01</stageThreshold>
  <weakClassifiers>
    <_>
      <internalNodes>
        0 -1 467 -4097 -273709745 -1924722961 -1880388913 -77856833
        -5509239 -336593921 -5</internalNodes>
      <leafValues>
        -7.9945945739746094e-01 5.5569618940353394e-01</leafValues></_>
    <_>
      <internalNodes>
        0 -1 11638 523443608 2139092989 -174630913 -4326027 2079006715
        -284481 -307237893 -1</internalNodes>
      <leafValues>
        -9.1567319631576538e-01 4.5397111773490906e-01</leafValues></_>
    <_>
      <internalNodes>
        0 -1 161 -542441474 -10276 -7021057 -3226658 -4523009 -5241
        -85524545 -353443090</internalNodes>
      <leafValues>
        -9.0404582023620605e-01 4.5659270882606506e-01</leafValues></_>
    <_>
      <internalNodes>
        0 -1 1750 -117441282 1076937898 1075702014 -990713601
        -1435772166 684667815 -674245121 -33555457</internalNodes>
      <leafValues>
        -8.1127780675888062e-01 5.4587966203689575e-01</leafValues></_></weakClassifiers></stage3>
</opencv_storage>
