<?xml version="1.0"?>
<opencv_storage>
<stage2>
  <maxWeakCount>4</maxWeakCount>
  <stageThreshold>-3.0117899179458618e-01</stageThreshold>
  <weakClassifiers>
    <_>
      <internalNodes>
        0 -1 602 -1 1073741759 -1 -1 -1048577 -1 -17 -1</internalNodes>
      <leafValues>
        -9.3638366460800171e-01 9.4315928220748901e-01</leafValues></_>
    <_>
      <internalNodes>
        0 -1 520 1433796607 -8225 -169871873 -2099201 -71303681 -279553
        -1 -1</internalNodes>
      <leafValues>
        -9.3142539262771606e-01 8.7583971023559570e-01</leafValues></_>
    <_>
      <internalNodes>
        0 -1 15318 -1 -67109921 -201469521 -1569 -69206401 -67371041
        -1048786 -218103809</internalNodes>
      <leafValues>
        -9.5311528444290161e-01 8.1666994094848633e-01</leafValues></_>
    <_>
      <internalNodes>
        0 -1 52 -537078274 -2569 -710937089 -737 -1537 -4486946
        -1078993921 -267585</internalNodes>
      <leafValues>
        -1. 7.4996006488800049e-01</leafValues></_></weakClassifiers></stage2>
</opencv_storage>
