<?xml version="1.0"?>
<!--
opencv_traincascade -data ../data_equ_all/p1600_n4000_52x13/ -vec kennzeichen_52x13.vec -bg ../neg/index.info -numPos 1600 -numNeg 4000 -numStages 20 -w 52 -h 13 -featureType LBP
-->
<opencv_storage>
<cascade>
  <stageType>BOOST</stageType>
  <featureType>LBP</featureType>
  <height>13</height>
  <width>52</width>
  <stageParams>
    <boostType>GAB</boostType>
    <minHitRate>9.9500000476837158e-01</minHitRate>
    <maxFalseAlarm>5.0000000000000000e-01</maxFalseAlarm>
    <weightTrimRate>9.4999999999999996e-01</weightTrimRate>
    <maxDepth>1</maxDepth>
    <maxWeakCount>100</maxWeakCount></stageParams>
  <featureParams>
    <maxCatCount>256</maxCatCount>
    <featSize>1</featSize></featureParams>
  <stageNum>15</stageNum>
  <stages>
    <!-- stage 0 -->
    <_>
      <maxWeakCount>2</maxWeakCount>
      <stageThreshold>-2.3641888797283173e-01</stageThreshold>
      <weakClassifiers>
        <_>
          <internalNodes>
            0 -1 29 -35848708 -2894403 2097632767 -137277035 -41879297
            -2586424 -930415873 -5584483</internalNodes>
          <leafValues>
            -9.8117154836654663e-01 7.6126128435134888e-01</leafValues></_>
        <_>
          <internalNodes>
            0 -1 22 -1181198852 -549764776 491871231 1603752279
            -1366766337 -74479446 -1449415681 -608187141</internalNodes>
          <leafValues>
            -9.8415833711624146e-01 7.4475264549255371e-01</leafValues></_></weakClassifiers></_>
    <!-- stage 1 -->
    <_>
      <maxWeakCount>3</maxWeakCount>
      <stageThreshold>-1.0970507860183716e+00</stageThreshold>
      <weakClassifiers>
        <_>
          <internalNodes>
            0 -1 27 -539175427 -17923 -1082663459 -140451 -1393925
            -4271107 -71631873 -1079312385</internalNodes>
          <leafValues>
            -8.8299727439880371e-01 7.2457361221313477e-01</leafValues></_>
        <_>
          <internalNodes>
            0 -1 44 -36153900 -35337 2133819391 -32905 -40141825 -316993
            -3146753 -1078242305</internalNodes>
          <leafValues>
            -9.1591113805770874e-01 6.8416857719421387e-01</leafValues></_>
        <_>
          <internalNodes>
            0 -1 13 -1652389634 -2247201 -1110108161 -1088473697
            421346815 -71591493 -1095902209 -1073800193</internalNodes>
          <leafValues>
            -8.9284831285476685e-01 7.0185762643814087e-01</leafValues></_></weakClassifiers></_>
    <!-- stage 2 -->
    <_>
      <maxWeakCount>3</maxWeakCount>
      <stageThreshold>-1.1395157575607300e+00</stageThreshold>
      <weakClassifiers>
        <_>
          <internalNodes>
            0 -1 5 -1 -2112702 -788477714 -842080250 -372254209
            -72623685 -844109105 -873469201</internalNodes>
          <leafValues>
            -8.2912814617156982e-01 5.7545399665832520e-01</leafValues></_>
        <_>
          <internalNodes>
            0 -1 37 -2097156 -6324041 -376184867 -2369715 -72685058
            -335191 -85270531 -537174691</internalNodes>
          <leafValues>
            -8.8943630456924438e-01 5.3257018327713013e-01</leafValues></_>
        <_>
          <internalNodes>
            0 -1 11 -491789586 1120051886 -321863442 1338737883
            -762329857 1085789623 -437265409 -134223873</internalNodes>
          <leafValues>
            -8.2584029436111450e-01 5.7904869318008423e-01</leafValues></_></weakClassifiers></_>
    <!-- stage 3 -->
    <_>
      <maxWeakCount>3</maxWeakCount>
      <stageThreshold>-1.2515244483947754e+00</stageThreshold>
      <weakClassifiers>
        <_>
          <internalNodes>
            0 -1 25 -1145514531 -10279 -1075848193 -8705 -1080033281
            -16898 -1078985729 -1077937153</internalNodes>
          <leafValues>
            -8.6723875999450684e-01 6.3247865438461304e-01</leafValues></_>
        <_>
          <internalNodes>
            0 -1 16 -536936962 -10564 -65537 -41764 -67198977 -1066753
            -1081409541 -282928161</internalNodes>
          <leafValues>
            -9.1150659322738647e-01 4.8353892564773560e-01</leafValues></_>
        <_>
          <internalNodes>
            0 -1 7 -8454146 -672780 -623105 -10640244 -40584193
            -71649797 -343629825 -1366425458</internalNodes>
          <leafValues>
            -8.6782455444335938e-01 5.5180066823959351e-01</leafValues></_></weakClassifiers></_>
    <!-- stage 4 -->
    <_>
      <maxWeakCount>3</maxWeakCount>
      <stageThreshold>-1.1073724031448364e+00</stageThreshold>
      <weakClassifiers>
        <_>
          <internalNodes>
            0 -1 1 -286334977 -9731 -1116733441 -10921 -2027488257
            -12861765 -270016513 -269494273</internalNodes>
          <leafValues>
            -7.7831327915191650e-01 5.7241380214691162e-01</leafValues></_>
        <_>
          <internalNodes>
            0 -1 26 -1145547299 -2140673 -1115725825 -6332961
            -1141114881 -5 -1346633729 -1080041473</internalNodes>
          <leafValues>
            -8.3781921863555908e-01 4.9464470148086548e-01</leafValues></_>
        <_>
          <internalNodes>
            0 -1 8 -135273753 -1978670677 -536354590 1627379311
            -202390933 1125116685 301973745 1433403391</internalNodes>
          <leafValues>
            -8.0328613519668579e-01 5.0876009464263916e-01</leafValues></_></weakClassifiers></_>
    <!-- stage 5 -->
    <_>
      <maxWeakCount>3</maxWeakCount>
      <stageThreshold>-1.0709636211395264e+00</stageThreshold>
      <weakClassifiers>
        <_>
          <internalNodes>
            0 -1 14 -65537 -125313 -254740993 530192223 -71565313 -5697
            -487063553 -257</internalNodes>
          <leafValues>
            -7.7723497152328491e-01 5.1925629377365112e-01</leafValues></_>
        <_>
          <internalNodes>
            0 -1 56 -219679870 -212602257 1083424896 1078187919
            1599074062 1314873603 -506992702 -740557857</internalNodes>
          <leafValues>
            -7.1495968103408813e-01 5.5902957916259766e-01</leafValues></_>
        <_>
          <internalNodes>
            0 -1 24 -69226817 -584769 425001407 935008183 -1616179521
            469706379 686492155 1073683451</internalNodes>
          <leafValues>
            -8.5275822877883911e-01 4.7192957997322083e-01</leafValues></_></weakClassifiers></_>
    <!-- stage 6 -->
    <_>
      <maxWeakCount>4</maxWeakCount>
      <stageThreshold>-1.8232687711715698e+00</stageThreshold>
      <weakClassifiers>
        <_>
          <internalNodes>
            0 -1 5 -1 -546314257 -242495506 -806359546 -2360321 -5506053
            -336598801 -823139601</internalNodes>
          <leafValues>
            -8.0491715669631958e-01 3.2938644289970398e-01</leafValues></_>
        <_>
          <internalNodes>
            0 -1 40 -75475499 -558465 -69241345 -33825 -335864065
            -292689 -268468225 -1077977121</internalNodes>
          <leafValues>
            -8.0216759443283081e-01 4.5485940575599670e-01</leafValues></_>
        <_>
          <internalNodes>
            0 -1 28 -196611 -15875 -536881667 -8291 -2425861 -46115
            -4531457 -1347757603</internalNodes>
          <leafValues>
            -7.7622586488723755e-01 4.7356152534484863e-01</leafValues></_>
        <_>
          <internalNodes>
            0 -1 54 -755768574 -8925205 -573082153 -233308677 1392465671
            1656998739 -457445942 -411838609</internalNodes>
          <leafValues>
            -6.9698506593704224e-01 5.7761377096176147e-01</leafValues></_></weakClassifiers></_>
    <!-- stage 7 -->
    <_>
      <maxWeakCount>4</maxWeakCount>
      <stageThreshold>-8.8819360733032227e-01</stageThreshold>
      <weakClassifiers>
        <_>
          <internalNodes>
            0 -1 6 -1 -526353 -615255809 -282612082 -67119105 -73672279
            -838873169 -812650769</internalNodes>
          <leafValues>
            -7.5596690177917480e-01 4.7121819853782654e-01</leafValues></_>
        <_>
          <internalNodes>
            0 -1 2 -1427177730 -1073753285 -1647870497 -1074036933
            -1349599233 -5522519 -1947477761 1072651967</internalNodes>
          <leafValues>
            -9.2348760366439819e-01 3.2691884040832520e-01</leafValues></_>
        <_>
          <internalNodes>
            0 -1 50 -4 -2102275 1069547517 -8739 -1143996419 -4208487
            -1678802947 431977749</internalNodes>
          <leafValues>
            -9.3250274658203125e-01 3.2858875393867493e-01</leafValues></_>
        <_>
          <internalNodes>
            0 -1 21 -1026561534 -535834226 -532549037 -94145917
            -502793313 -75001813 -756291901 1129313871</internalNodes>
          <leafValues>
            -7.7534306049346924e-01 4.7335717082023621e-01</leafValues></_></weakClassifiers></_>
    <!-- stage 8 -->
    <_>
      <maxWeakCount>4</maxWeakCount>
      <stageThreshold>-8.0965620279312134e-01</stageThreshold>
      <weakClassifiers>
        <_>
          <internalNodes>
            0 -1 6 -1 -3089 -140117249 -269572466 -29631493 -19150625
            -337654545 -808457489</internalNodes>
          <leafValues>
            -7.6664996147155762e-01 4.1220423579216003e-01</leafValues></_>
        <_>
          <internalNodes>
            0 -1 9 -268439553 131040167 -935346718 13625982 1341870079
            80178662 -142639889 1476384767</internalNodes>
          <leafValues>
            -8.2236266136169434e-01 3.3987078070640564e-01</leafValues></_>
        <_>
          <internalNodes>
            0 -1 30 -196611 -8398467 2004811773 -2105355 -67453187
            -74563 -4269061 -1364567047</internalNodes>
          <leafValues>
            -7.7772915363311768e-01 4.0131229162216187e-01</leafValues></_>
        <_>
          <internalNodes>
            0 -1 51 -83895566 562004130 805372416 295115370 -224996662
            41955336 840140507 2113929215</internalNodes>
          <leafValues>
            -7.8400206565856934e-01 4.1768589615821838e-01</leafValues></_></weakClassifiers></_>
    <!-- stage 9 -->
    <_>
      <maxWeakCount>5</maxWeakCount>
      <stageThreshold>-1.3448090553283691e+00</stageThreshold>
      <weakClassifiers>
        <_>
          <internalNodes>
            0 -1 43 -536099581 -4197377 -45359105 -8321 -672137217
            -339738897 -1052673 -1020280049</internalNodes>
          <leafValues>
            -7.4472314119338989e-01 3.8080102205276489e-01</leafValues></_>
        <_>
          <internalNodes>
            0 -1 46 -67152036 -52737 2147213055 1062961147 -70303809
            -4215873 -1681965057 -1078296641</internalNodes>
          <leafValues>
            -8.1206196546554565e-01 3.7783750891685486e-01</leafValues></_>
        <_>
          <internalNodes>
            0 -1 3 -286326785 1787748942 -574096897 -17904946 1246690303
            1148544511 -271582785 -1048577</internalNodes>
          <leafValues>
            -6.7109650373458862e-01 4.8913052678108215e-01</leafValues></_>
        <_>
          <internalNodes>
            0 -1 38 -131075 -537069575 -1858307075 -4404227 -88542275
            -71373099 -1079185443 -1078043171</internalNodes>
          <leafValues>
            -7.6057130098342896e-01 4.1381034255027771e-01</leafValues></_>
        <_>
          <internalNodes>
            0 -1 32 -325074429 42883086 -2069741022 578805827 1247503695
            1195630666 1432875060 -150996993</internalNodes>
          <leafValues>
            -6.7177975177764893e-01 5.3916943073272705e-01</leafValues></_></weakClassifiers></_>
    <!-- stage 10 -->
    <_>
      <maxWeakCount>5</maxWeakCount>
      <stageThreshold>-1.3313546180725098e+00</stageThreshold>
      <weakClassifiers>
        <_>
          <internalNodes>
            0 -1 39 -2013047465 -2416769 -583182849 -536909825 -5574657
            -7348786 -77600001 -6332929</internalNodes>
          <leafValues>
            -7.5755995512008667e-01 2.8684806823730469e-01</leafValues></_>
        <_>
          <internalNodes>
            0 -1 19 -656686850 -789526278 -1798842149 -660930857
            1270868923 -319368001 -84025349 -8912901</internalNodes>
          <leafValues>
            -6.5987396240234375e-01 4.5517513155937195e-01</leafValues></_>
        <_>
          <internalNodes>
            0 -1 57 -245 1867510735 -644099072 1371792383 1533763343
            1309765635 1409246802 -210240001</internalNodes>
          <leafValues>
            -6.2102055549621582e-01 4.8965278267860413e-01</leafValues></_>
        <_>
          <internalNodes>
            0 -1 31 -1 -8389281 -48506657 -1575958 -607129617
            -1077215288 554132008 1124270082</internalNodes>
          <leafValues>
            -7.6742535829544067e-01 4.1220885515213013e-01</leafValues></_>
        <_>
          <internalNodes>
            0 -1 20 455216378 1610300415 -1789455361 2136554495
            -1149510657 -38627 1002910203 -1066245</internalNodes>
          <leafValues>
            -7.8750985860824585e-01 4.3011718988418579e-01</leafValues></_></weakClassifiers></_>
    <!-- stage 11 -->
    <_>
      <maxWeakCount>5</maxWeakCount>
      <stageThreshold>-1.2473163604736328e+00</stageThreshold>
      <weakClassifiers>
        <_>
          <internalNodes>
            0 -1 17 1247791835 1533017087 -714223265 -3109 -274734341
            -607388965 -607388961 -614468645</internalNodes>
          <leafValues>
            -6.9581568241119385e-01 4.1604754328727722e-01</leafValues></_>
        <_>
          <internalNodes>
            0 -1 45 -1039669758 -8390689 -76298785 -527361 -67117153
            -342099781 -403701777 1110426887</internalNodes>
          <leafValues>
            -7.0365959405899048e-01 3.9309760928153992e-01</leafValues></_>
        <_>
          <internalNodes>
            0 -1 33 -2013178537 -135308961 -141959265 -2133089
            -1146388481 -67421261 -1165264645 -1077972993</internalNodes>
          <leafValues>
            -6.5085470676422119e-01 4.8659488558769226e-01</leafValues></_>
        <_>
          <internalNodes>
            0 -1 10 59082 1325426511 -1608199937 -15214609 145749957
            -64774433 -171181313 -34604033</internalNodes>
          <leafValues>
            -7.2146886587142944e-01 4.3026342988014221e-01</leafValues></_>
        <_>
          <internalNodes>
            0 -1 49 -1055746 1498237352 805831168 866982018 -2133871956
            940904516 1019879582 2126512091</internalNodes>
          <leafValues>
            -7.0972430706024170e-01 4.3798801302909851e-01</leafValues></_></weakClassifiers></_>
    <!-- stage 12 -->
    <_>
      <maxWeakCount>5</maxWeakCount>
      <stageThreshold>-1.3356002569198608e+00</stageThreshold>
      <weakClassifiers>
        <_>
          <internalNodes>
            0 -1 12 -289412353 -805322017 -1942631681 -880816385
            -78913537 -273688181 -101984001 -8193</internalNodes>
          <leafValues>
            -7.4485808610916138e-01 2.6208072900772095e-01</leafValues></_>
        <_>
          <internalNodes>
            0 -1 42 -1025 -541263907 -1309083683 -738716675 -1111688199
            -1146170915 -72552451 -4554755</internalNodes>
          <leafValues>
            -5.6423419713973999e-01 5.3156161308288574e-01</leafValues></_>
        <_>
          <internalNodes>
            0 -1 52 -33554436 -113379911 -167774220 -1778658945
            1004990461 -1140918091 -1696621100 -1880097281</internalNodes>
          <leafValues>
            -6.3254421949386597e-01 4.7573667764663696e-01</leafValues></_>
        <_>
          <internalNodes>
            0 -1 23 -358423998 -943195545 -39587135 -135273789
            -355996721 -264721 -841489569 1129313867</internalNodes>
          <leafValues>
            -7.2320866584777832e-01 4.0164083242416382e-01</leafValues></_>
        <_>
          <internalNodes>
            0 -1 34 -1467984555 -4500641 -1693989889 2006931195
            -1684324353 -3207593 -1097894661 -74752613</internalNodes>
          <leafValues>
            -8.0254334211349487e-01 3.7734019756317139e-01</leafValues></_></weakClassifiers></_>
    <!-- stage 13 -->
    <_>
      <maxWeakCount>5</maxWeakCount>
      <stageThreshold>-1.2928253412246704e+00</stageThreshold>
      <weakClassifiers>
        <_>
          <internalNodes>
            0 -1 18 -328962 -36448257 -65064871 1898115871 -337716593
            -1097277279 -663749925 -17827841</internalNodes>
          <leafValues>
            -7.2535210847854614e-01 2.9802954196929932e-01</leafValues></_>
        <_>
          <internalNodes>
            0 -1 48 -721166142 -213911649 -74463745 -3945573 -838074913
            -300948874 -338956849 1129300011</internalNodes>
          <leafValues>
            -6.9186967611312866e-01 3.6746513843536377e-01</leafValues></_>
        <_>
          <internalNodes>
            0 -1 41 -2013047465 -67406861 -1288973953 -16026149
            -74740805 -374668671 -87406337 -16829217</internalNodes>
          <leafValues>
            -5.4302108287811279e-01 5.5611592531204224e-01</leafValues></_>
        <_>
          <internalNodes>
            0 -1 36 -402657945 1716175111 -729660894 1648811304
            -132386547 72517161 -465714076 -1067188337</internalNodes>
          <leafValues>
            -5.8538317680358887e-01 5.1306575536727905e-01</leafValues></_>
        <_>
          <internalNodes>
            0 -1 15 -604056578 -3009963 287216983 530187359 -1049654337
            -1163259903 -1388082529 708461059</internalNodes>
          <leafValues>
            -8.6902981996536255e-01 3.8495597243309021e-01</leafValues></_></weakClassifiers></_>
    <!-- stage 14 -->
    <_>
      <maxWeakCount>6</maxWeakCount>
      <stageThreshold>-1.0471558570861816e+00</stageThreshold>
      <weakClassifiers>
        <_>
          <internalNodes>
            0 -1 55 -2359465 -753154853 -1006550551 1937965913
            2043363594 -842365813 -503136096 -203174917</internalNodes>
          <leafValues>
            -7.0315128564834595e-01 3.6243936419487000e-01</leafValues></_>
        <_>
          <internalNodes>
            0 -1 0 -1366888457 -2029829821 185848341 -146155369 33804015
            -1951855816 563077777 532627589</internalNodes>
          <leafValues>
            -7.5246578454971313e-01 3.3703047037124634e-01</leafValues></_>
        <_>
          <internalNodes>
            0 -1 53 -69281030 302564274 538985168 387242052 -1618188104
            436232746 834683588 2109731715</internalNodes>
          <leafValues>
            -7.4145990610122681e-01 3.6760067939758301e-01</leafValues></_>
        <_>
          <internalNodes>
            0 -1 47 -3422014 -619986814 16392 -779988271 -905735990
            -96436160 -792180502 1375978395</internalNodes>
          <leafValues>
            -7.1260529756546021e-01 4.3744945526123047e-01</leafValues></_>
        <_>
          <internalNodes>
            0 -1 4 -115420682 -678288078 332469587 -999923706 -905805377
            -610267133 -2071754355 1412395111</internalNodes>
          <leafValues>
            -7.9534536600112915e-01 3.6104562878608704e-01</leafValues></_>
        <_>
          <internalNodes>
            0 -1 35 -280238517 105711874 537214978 1343393989 34275395
            20168705 -1849572194 -737943813</internalNodes>
          <leafValues>
            -6.5072804689407349e-01 4.5931494235992432e-01</leafValues></_></weakClassifiers></_></stages>
  <features>
    <_>
      <rect>
        0 0 2 1</rect></_>
    <_>
      <rect>
        0 0 4 1</rect></_>
    <_>
      <rect>
        0 0 7 1</rect></_>
    <_>
      <rect>
        0 1 3 1</rect></_>
    <_>
      <rect>
        0 1 5 1</rect></_>
    <_>
      <rect>
        0 1 12 2</rect></_>
    <_>
      <rect>
        0 1 14 2</rect></_>
    <_>
      <rect>
        0 1 15 1</rect></_>
    <_>
      <rect>
        0 3 1 2</rect></_>
    <_>
      <rect>
        0 3 2 2</rect></_>
    <_>
      <rect>
        0 3 16 1</rect></_>
    <_>
      <rect>
        0 6 3 2</rect></_>
    <_>
      <rect>
        0 6 4 2</rect></_>
    <_>
      <rect>
        0 9 15 1</rect></_>
    <_>
      <rect>
        0 10 4 1</rect></_>
    <_>
      <rect>
        0 10 6 1</rect></_>
    <_>
      <rect>
        0 10 15 1</rect></_>
    <_>
      <rect>
        1 0 1 3</rect></_>
    <_>
      <rect>
        1 4 1 3</rect></_>
    <_>
      <rect>
        1 6 2 2</rect></_>
    <_>
      <rect>
        2 9 16 1</rect></_>
    <_>
      <rect>
        5 0 1 3</rect></_>
    <_>
      <rect>
        5 0 14 1</rect></_>
    <_>
      <rect>
        6 0 1 3</rect></_>
    <_>
      <rect>
        6 6 13 2</rect></_>
    <_>
      <rect>
        7 0 8 1</rect></_>
    <_>
      <rect>
        9 0 9 1</rect></_>
    <_>
      <rect>
        9 10 8 1</rect></_>
    <_>
      <rect>
        9 10 9 1</rect></_>
    <_>
      <rect>
        10 10 13 1</rect></_>
    <_>
      <rect>
        11 10 6 1</rect></_>
    <_>
      <rect>
        12 1 12 2</rect></_>
    <_>
      <rect>
        23 3 1 1</rect></_>
    <_>
      <rect>
        25 0 1 1</rect></_>
    <_>
      <rect>
        25 0 2 1</rect></_>
    <_>
      <rect>
        25 3 2 1</rect></_>
    <_>
      <rect>
        25 7 1 1</rect></_>
    <_>
      <rect>
        25 10 9 1</rect></_>
    <_>
      <rect>
        27 10 1 1</rect></_>
    <_>
      <rect>
        29 0 1 1</rect></_>
    <_>
      <rect>
        29 0 4 1</rect></_>
    <_>
      <rect>
        30 0 1 1</rect></_>
    <_>
      <rect>
        30 10 1 1</rect></_>
    <_>
      <rect>
        31 0 1 2</rect></_>
    <_>
      <rect>
        31 0 5 1</rect></_>
    <_>
      <rect>
        33 0 1 2</rect></_>
    <_>
      <rect>
        34 0 6 1</rect></_>
    <_>
      <rect>
        35 1 2 3</rect></_>
    <_>
      <rect>
        36 0 2 2</rect></_>
    <_>
      <rect>
        37 4 2 3</rect></_>
    <_>
      <rect>
        37 10 5 1</rect></_>
    <_>
      <rect>
        40 4 2 3</rect></_>
    <_>
      <rect>
        46 10 2 1</rect></_>
    <_>
      <rect>
        48 7 1 2</rect></_>
    <_>
      <rect>
        49 0 1 2</rect></_>
    <_>
      <rect>
        49 1 1 1</rect></_>
    <_>
      <rect>
        49 2 1 2</rect></_>
    <_>
      <rect>
        49 6 1 1</rect></_></features></cascade>
</opencv_storage>
