<?xml version="1.0"?>
<opencv_storage>
<stage12>
  <maxWeakCount>5</maxWeakCount>
  <stageThreshold>-1.3356002569198608e+00</stageThreshold>
  <weakClassifiers>
    <_>
      <internalNodes>
        0 -1 330 -289412353 -805322017 -1942631681 -880816385 -78913537
        -273688181 -101984001 -8193</internalNodes>
      <leafValues>
        -7.4485808610916138e-01 2.6208072900772095e-01</leafValues></_>
    <_>
      <internalNodes>
        0 -1 9665 -1025 -541263907 -1309083683 -738716675 -1111688199
        -1146170915 -72552451 -4554755</internalNodes>
      <leafValues>
        -5.6423419713973999e-01 5.3156161308288574e-01</leafValues></_>
    <_>
      <internalNodes>
        0 -1 11413 -33554436 -113379911 -167774220 -1778658945
        1004990461 -1140918091 -1696621100 -1880097281</internalNodes>
      <leafValues>
        -6.3254421949386597e-01 4.7573667764663696e-01</leafValues></_>
    <_>
      <internalNodes>
        0 -1 2524 -358423998 -943195545 -39587135 -135273789 -355996721
        -264721 -841489569 1129313867</internalNodes>
      <leafValues>
        -7.2320866584777832e-01 4.0164083242416382e-01</leafValues></_>
    <_>
      <internalNodes>
        0 -1 8454 -1467984555 -4500641 -1693989889 2006931195
        -1684324353 -3207593 -1097894661 -74752613</internalNodes>
      <leafValues>
        -8.0254334211349487e-01 3.7734019756317139e-01</leafValues></_></weakClassifiers></stage12>
</opencv_storage>
