<?xml version="1.0"?>
<opencv_storage>
<stage13>
  <maxWeakCount>6</maxWeakCount>
  <stageThreshold>-1.7101275920867920e+00</stageThreshold>
  <weakClassifiers>
    <_>
      <internalNodes>
        0 -1 2253 1246745311 185587438 1194840918 -67111969 -70537297
        -4462145 -201607725 -1</internalNodes>
      <leafValues>
        -7.1452420949935913e-01 2.6660251617431641e-01</leafValues></_>
    <_>
      <internalNodes>
        0 -1 11023 -67108867 -1017129271 -180618243 -585642663
        -795624705 -1145101661 242425851 172486527</internalNodes>
      <leafValues>
        -5.4535323381423950e-01 4.7324225306510925e-01</leafValues></_>
    <_>
      <internalNodes>
        0 -1 11160 -69206020 536261370 593365980 1069429716 1064287964
        235563145 736692700 2147475421</internalNodes>
      <leafValues>
        -6.7403542995452881e-01 3.7646305561065674e-01</leafValues></_>
    <_>
      <internalNodes>
        0 -1 9981 -67108865 2140986352 455405468 1032090486 -1578307844
        -1095209731 762067708 -1027</internalNodes>
      <leafValues>
        -5.1189571619033813e-01 5.0165790319442749e-01</leafValues></_>
    <_>
      <internalNodes>
        0 -1 4365 972883228 -1153759343 966328767 -11454633 468660159
        -1345647927 200216287 1003160507</internalNodes>
      <leafValues>
        -8.5983228683471680e-01 3.4204399585723877e-01</leafValues></_>
    <_>
      <internalNodes>
        0 -1 1428 -521211138 -993019409 -106736129 -729042744 100895
        -945844096 1787788991 -209718277</internalNodes>
      <leafValues>
        -6.2495851516723633e-01 4.2932194471359253e-01</leafValues></_></weakClassifiers></stage13>
</opencv_storage>
