<?xml version="1.0"?>
<opencv_storage>
<stage3>
  <maxWeakCount>14</maxWeakCount>
  <stageThreshold>1.3816245831549168e-02</stageThreshold>
  <weakClassifiers>
    <_>
      <internalNodes>
        0 -1 12532 -2013178537 -32769 -1082130433 -32929 -1025 -266533
        -269484033 -303617</internalNodes>
      <leafValues>
        -8.1586563587188721e-01 1.9478099048137665e-01</leafValues></_>
    <_>
      <internalNodes>
        0 -1 100 -83951618 -327938 2070380511 1758348514 -104923141
        -83890213 -29313537 1548711287</internalNodes>
      <leafValues>
        -8.2606220245361328e-01 2.8724595904350281e-01</leafValues></_>
    <_>
      <internalNodes>
        0 -1 11820 -69402625 -216195 -110341639 -208387 -69700675
        -1406403 -1081307395 -1346478595</internalNodes>
      <leafValues>
        -7.5410085916519165e-01 3.5895073413848877e-01</leafValues></_>
    <_>
      <internalNodes>
        0 -1 5067 2080351167 -1076412513 -1321264321 1068973887
        564071103 1049310271 957024959 1069498363</internalNodes>
      <leafValues>
        -8.4177637100219727e-01 3.6275830864906311e-01</leafValues></_>
    <_>
      <internalNodes>
        0 -1 13161 -1039671230 -603991333 -101592449 -5245185 -1
        -73671713 -1073741841 1112269423</internalNodes>
      <leafValues>
        -6.9477272033691406e-01 4.4123670458793640e-01</leafValues></_>
    <_>
      <internalNodes>
        0 -1 385 -827857153 -2101163286 -747250977 -83890467 -712388610
        -469541861 -675034373 -14369</internalNodes>
      <leafValues>
        -5.5503606796264648e-01 5.9200906753540039e-01</leafValues></_>
    <_>
      <internalNodes>
        0 -1 12 -1360082946 -1318921 354377727 2069590813 587700479
        2139079913 805042619 265245939</internalNodes>
      <leafValues>
        -8.5006392002105713e-01 3.9652657508850098e-01</leafValues></_>
    <_>
      <internalNodes>
        0 -1 11520 -406323921 1672404847 1342375968 1120584192
        -930429107 1159972179 -208739248 -750518833</internalNodes>
      <leafValues>
        -6.2358987331390381e-01 4.9732416868209839e-01</leafValues></_>
    <_>
      <internalNodes>
        0 -1 14170 -872397483 -77865761 -718808165 -8432545 -4194309
        -607396358 -373572113 -1075882113</internalNodes>
      <leafValues>
        -7.4178475141525269e-01 4.1401648521423340e-01</leafValues></_>
    <_>
      <internalNodes>
        0 -1 8246 -1599908523 -2670381 -268734497 -539798569 -1148191493
        -1076917213 -1078989569 -1075848749</internalNodes>
      <leafValues>
        -5.9713453054428101e-01 5.3788000345230103e-01</leafValues></_>
    <_>
      <internalNodes>
        0 -1 3850 -891100670 -249342461 -751320847 -355810517
        -1400135161 -913579893 -31751405 1112264715</internalNodes>
      <leafValues>
        -7.6585870981216431e-01 4.5180678367614746e-01</leafValues></_>
    <_>
      <internalNodes>
        0 -1 15036 -593013500 -44887693 1966207839 931364799 684698366
        -1409854 -1513390113 -1078290277</internalNodes>
      <leafValues>
        -7.7892357110977173e-01 4.0313932299613953e-01</leafValues></_>
    <_>
      <internalNodes>
        0 -1 13118 -35657522 1557053583 -704212448 -528102172 -674774638
        1140893391 -878316714 -804784437</internalNodes>
      <leafValues>
        -7.0746093988418579e-01 4.7220084071159363e-01</leafValues></_>
    <_>
      <internalNodes>
        0 -1 221 -201332501 -806368756 -1072984346 1086190578 -153357399
        1325498432 1925337333 1942484987</internalNodes>
      <leafValues>
        -7.1288394927978516e-01 4.3598982691764832e-01</leafValues></_></weakClassifiers></stage3>
</opencv_storage>
