<?xml version="1.0"?>
<opencv_storage>
<stage6>
  <maxWeakCount>4</maxWeakCount>
  <stageThreshold>-9.7622090578079224e-01</stageThreshold>
  <weakClassifiers>
    <_>
      <internalNodes>
        0 -1 413 -4097 -2117761 -1485108737 1071583199 -69206017
        -4216593 -25857 -1025</internalNodes>
      <leafValues>
        -7.7393037080764771e-01 4.2837369441986084e-01</leafValues></_>
    <_>
      <internalNodes>
        0 -1 24 -1360068866 -6333441 -79735297 -1073742849 -1409286145
        -1073774657 -272637953 805264639</internalNodes>
      <leafValues>
        -9.1549664735794067e-01 3.3985862135887146e-01</leafValues></_>
    <_>
      <internalNodes>
        0 -1 14034 -33596076 -33921 -1077968897 532370431 -69517317
        -2135890 -1162919937 1069252607</internalNodes>
      <leafValues>
        -8.9971536397933960e-01 3.4070888161659241e-01</leafValues></_>
    <_>
      <internalNodes>
        0 -1 224 -268439825 200181327 -1568775554 552594111 1327452159
        72829127 1941698047 2013264887</internalNodes>
      <leafValues>
        -8.2980680465698242e-01 4.0085867047309875e-01</leafValues></_></weakClassifiers></stage6>
</opencv_storage>
