<?xml version="1.0"?>
<opencv_storage>
<stage7>
  <maxWeakCount>5</maxWeakCount>
  <stageThreshold>-1.5401837825775146e+00</stageThreshold>
  <weakClassifiers>
    <_>
      <internalNodes>
        0 -1 133 -2049 -2104337 -719460369 -806360434 -336602629
        -540047969 -536884481 -823136561</internalNodes>
      <leafValues>
        -7.7501267194747925e-01 3.9229843020439148e-01</leafValues></_>
    <_>
      <internalNodes>
        0 -1 3405 -2097156 -20035 -1154113539 -2105891 -269831681
        -71431235 -282395649 -13968931</internalNodes>
      <leafValues>
        -8.5825234651565552e-01 3.0823552608489990e-01</leafValues></_>
    <_>
      <internalNodes>
        0 -1 16 -1360080898 -537160193 -8429569 -535557 -1907950081
        -549776453 -1343236097 258953695</internalNodes>
      <leafValues>
        -8.6332219839096069e-01 3.4022712707519531e-01</leafValues></_>
    <_>
      <internalNodes>
        0 -1 1285 -592257794 78661706 6457500 2029452503 1873530591
        -1432621829 -621812257 -33554433</internalNodes>
      <leafValues>
        -7.2353750467300415e-01 4.7344911098480225e-01</leafValues></_>
    <_>
      <internalNodes>
        0 -1 15302 -136315446 -990972081 -1526738752 -235562017
        -76812466 1141101903 -790367740 -255852673</internalNodes>
      <leafValues>
        -6.8978458642959595e-01 5.1345306634902954e-01</leafValues></_></weakClassifiers></stage7>
</opencv_storage>
