<?xml version="1.0"?>
<opencv_storage>
<stage11>
  <maxWeakCount>5</maxWeakCount>
  <stageThreshold>-1.3441677093505859e+00</stageThreshold>
  <weakClassifiers>
    <_>
      <internalNodes>
        0 -1 92 -540082177 -5578226 -544475713 -9608090 -745803073
        -212926449 -116925473 -2561</internalNodes>
      <leafValues>
        -6.8005603551864624e-01 3.8846737146377563e-01</leafValues></_>
    <_>
      <internalNodes>
        0 -1 11314 -2147461819 -39849 -1524115969 -4237865 -1086358017
        -537239367 -1076938305 -1080337969</internalNodes>
      <leafValues>
        -8.6332112550735474e-01 2.6801243424415588e-01</leafValues></_>
    <_>
      <internalNodes>
        0 -1 15335 -4341 -808479057 -858268638 -773131498 51783950
        1231038210 -443288926 -404226049</internalNodes>
      <leafValues>
        -5.9297722578048706e-01 5.0415092706680298e-01</leafValues></_>
    <_>
      <internalNodes>
        0 -1 3408 -389029374 -741870975 -653789487 -215232365 -523535525
        -891305143 -337383217 1108080395</internalNodes>
      <leafValues>
        -6.7157256603240967e-01 4.3715995550155640e-01</leafValues></_>
    <_>
      <internalNodes>
        0 -1 12293 -196611 -71359835 -540877507 -618964811 -477451587
        -72722303 -340865857 -14000811</internalNodes>
      <leafValues>
        -7.4210143089294434e-01 4.1306316852569580e-01</leafValues></_></weakClassifiers></stage11>
</opencv_storage>
