<?xml version="1.0"?>
<opencv_storage>
<cascade>
  <stageType>BOOST</stageType>
  <featureType>LBP</featureType>
  <height>13</height>
  <width>52</width>
  <stageParams>
    <boostType>GAB</boostType>
    <minHitRate>9.9500000476837158e-01</minHitRate>
    <maxFalseAlarm>4.0000000596046448e-01</maxFalseAlarm>
    <weightTrimRate>9.4999999999999996e-01</weightTrimRate>
    <maxDepth>1</maxDepth>
    <maxWeakCount>100</maxWeakCount></stageParams>
  <featureParams>
    <maxCatCount>256</maxCatCount>
    <featSize>1</featSize></featureParams>
  <stageNum>10</stageNum>
  <stages>
    <!-- stage 0 -->
    <_>
      <maxWeakCount>3</maxWeakCount>
      <stageThreshold>-9.7201555967330933e-01</stageThreshold>
      <weakClassifiers>
        <_>
          <internalNodes>
            0 -1 3 -66581250 -10681900 -637531651 -50069184 -89617409
            -7697703 -1165193985 -293074804</internalNodes>
          <leafValues>
            -8.4659683704376221e-01 8.1737452745437622e-01</leafValues></_>
        <_>
          <internalNodes>
            0 -1 12 -2004841220 -7876327 319074783 -578808497 1586288863
            -71724869 -1937184001 -1425867798</internalNodes>
          <leafValues>
            -7.8164583444595337e-01 7.8019028902053833e-01</leafValues></_>
        <_>
          <internalNodes>
            0 -1 21 -124680808 -539426541 345310387 522125627 -880203607
            -1147467605 186256014 1073676715</internalNodes>
          <leafValues>
            -7.5074726343154907e-01 6.5622717142105103e-01</leafValues></_></weakClassifiers></_>
    <!-- stage 1 -->
    <_>
      <maxWeakCount>4</maxWeakCount>
      <stageThreshold>-1.5121356248855591e+00</stageThreshold>
      <weakClassifiers>
        <_>
          <internalNodes>
            0 -1 33 -196611 -131203 -66563 -250059 -4653059 -2162691
            -65537 -1465384960</internalNodes>
          <leafValues>
            -7.4826216697692871e-01 8.0732101202011108e-01</leafValues></_>
        <_>
          <internalNodes>
            0 -1 27 487591096 2145223101 1574624699 -6826529 535329535
            -81927 -1164903681 -1431651585</internalNodes>
          <leafValues>
            -8.0910199880599976e-01 6.6864567995071411e-01</leafValues></_>
        <_>
          <internalNodes>
            0 -1 1 -867909428 -538998585 1266838783 -546373489
            -588587793 -71308085 -357635845 -29713</internalNodes>
          <leafValues>
            -7.3919391632080078e-01 6.7630100250244141e-01</leafValues></_>
        <_>
          <internalNodes>
            0 -1 25 -258715140 -15393455 -1986325249 -109227755
            -108995606 -4499251 1535143931 960495696</internalNodes>
          <leafValues>
            -7.7116072177886963e-01 5.6435585021972656e-01</leafValues></_></weakClassifiers></_>
    <!-- stage 2 -->
    <_>
      <maxWeakCount>5</maxWeakCount>
      <stageThreshold>-8.1888675689697266e-01</stageThreshold>
      <weakClassifiers>
        <_>
          <internalNodes>
            0 -1 10 -4113 15510254 -275846486 145459855 -536870913
            8210679 -8388881 -1025</internalNodes>
          <leafValues>
            -6.4459425210952759e-01 7.5861358642578125e-01</leafValues></_>
        <_>
          <internalNodes>
            0 -1 18 -1853876839 -1080085097 949040575 -1080355941
            -1200619585 -1073764097 -1078059589 1060838335</internalNodes>
          <leafValues>
            -7.3361438512802124e-01 6.7534226179122925e-01</leafValues></_>
        <_>
          <internalNodes>
            0 -1 26 -539559436 -6301265 -251030849 2140864815 1058189210
            -1952737105 729877038 991887883</internalNodes>
          <leafValues>
            -7.2996467351913452e-01 6.2598049640655518e-01</leafValues></_>
        <_>
          <internalNodes>
            0 -1 11 -572611330 -2161257 743246527 391981187 -106190657
            -8453493 -1164203009 801049231</internalNodes>
          <leafValues>
            -6.8516868352890015e-01 5.9524071216583252e-01</leafValues></_>
        <_>
          <internalNodes>
            0 -1 48 -681583308 1595556253 -788179492 469490623 710433301
            940149149 -1984046083 -263169</internalNodes>
          <leafValues>
            -6.4218831062316895e-01 6.1851006746292114e-01</leafValues></_></weakClassifiers></_>
    <!-- stage 3 -->
    <_>
      <maxWeakCount>5</maxWeakCount>
      <stageThreshold>-8.3408355712890625e-01</stageThreshold>
      <weakClassifiers>
        <_>
          <internalNodes>
            0 -1 2 -17895682 -2129162 -54722561 -186327476 -67113217
            -151617 -5121 1977609471</internalNodes>
          <leafValues>
            -7.4699521064758301e-01 6.1459803581237793e-01</leafValues></_>
        <_>
          <internalNodes>
            0 -1 31 -2293763 -4419971 -5316611 -157411 -542572547
            -4288023 -605356289 -1363540971</internalNodes>
          <leafValues>
            -7.4557644128799438e-01 5.7773840427398682e-01</leafValues></_>
        <_>
          <internalNodes>
            0 -1 45 -17424 1040121341 -1079297036 -66632 997293284
            1073561086 -1065028 -5953</internalNodes>
          <leafValues>
            -7.5756680965423584e-01 5.0559729337692261e-01</leafValues></_>
        <_>
          <internalNodes>
            0 -1 14 -523240961 -1058013201 -1091715090 -253364268
            4259711 83865599 2130704363 -134224465</internalNodes>
          <leafValues>
            -5.7470256090164185e-01 6.7477607727050781e-01</leafValues></_>
        <_>
          <internalNodes>
            0 -1 36 -1073496061 -168296481 -1090521089 -4196353
            -69271585 -33560577 -201326657 -1067462609</internalNodes>
          <leafValues>
            -5.1835733652114868e-01 7.2759336233139038e-01</leafValues></_></weakClassifiers></_>
    <!-- stage 4 -->
    <_>
      <maxWeakCount>5</maxWeakCount>
      <stageThreshold>-1.0406125783920288e+00</stageThreshold>
      <weakClassifiers>
        <_>
          <internalNodes>
            0 -1 7 -357653761 -3081 -3073 -34817 -286590977 -27393
            -286277377 -437825289</internalNodes>
          <leafValues>
            -5.5545288324356079e-01 7.2859591245651245e-01</leafValues></_>
        <_>
          <internalNodes>
            0 -1 23 498081020 -1077954819 -1078133249 -2759 1573010431
            -4263685 2146361343 -1440028005</internalNodes>
          <leafValues>
            -7.8314882516860962e-01 5.3409028053283691e-01</leafValues></_>
        <_>
          <internalNodes>
            0 -1 24 -46115364 -37269083 -140878337 -11567137 -36152324
            -38657 -123438081 -129737340</internalNodes>
          <leafValues>
            -8.2427251338958740e-01 4.2537954449653625e-01</leafValues></_>
        <_>
          <internalNodes>
            0 -1 16 -822091089 19220355 -533610462 4977283 -1292897681
            641934502 -698355701 1937765375</internalNodes>
          <leafValues>
            -6.6807365417480469e-01 5.1190996170043945e-01</leafValues></_>
        <_>
          <internalNodes>
            0 -1 34 -2147269629 -201859201 -138946178 -1581089
            -207621121 -68165105 -127411713 -1055926521</internalNodes>
          <leafValues>
            -6.3930040597915649e-01 5.2777290344238281e-01</leafValues></_></weakClassifiers></_>
    <!-- stage 5 -->
    <_>
      <maxWeakCount>5</maxWeakCount>
      <stageThreshold>-8.8800764083862305e-01</stageThreshold>
      <weakClassifiers>
        <_>
          <internalNodes>
            0 -1 50 -516 -257 -1610613508 -1074004737 -1431664472
            -1431654726 -1145455432 -1431570245</internalNodes>
          <leafValues>
            -5.9029924869537354e-01 6.4168620109558105e-01</leafValues></_>
        <_>
          <internalNodes>
            0 -1 5 -134287362 -1660690 163745214 -1950314778 -2229249
            -4289793 -8406021 -5121</internalNodes>
          <leafValues>
            -7.1142822504043579e-01 5.2093636989593506e-01</leafValues></_>
        <_>
          <internalNodes>
            0 -1 8 -420548609 -1364218641 1877835775 -182541 215482363
            -1073745921 1803548671 -39821</internalNodes>
          <leafValues>
            -5.6294554471969604e-01 6.1388695240020752e-01</leafValues></_>
        <_>
          <internalNodes>
            0 -1 17 -35848194 -264231 1058871231 -5260658 1804242863
            -4203525 787294891 720044042</internalNodes>
          <leafValues>
            -7.4070680141448975e-01 4.6883925795555115e-01</leafValues></_>
        <_>
          <internalNodes>
            0 -1 32 -134743042 -1144749162 20971672 407910496
            -2079803220 789579560 874587288 2147483647</internalNodes>
          <leafValues>
            -6.7624956369400024e-01 5.0782614946365356e-01</leafValues></_></weakClassifiers></_>
    <!-- stage 6 -->
    <_>
      <maxWeakCount>5</maxWeakCount>
      <stageThreshold>-1.4448641538619995e+00</stageThreshold>
      <weakClassifiers>
        <_>
          <internalNodes>
            0 -1 6 -327681 -147186341 -2424833 523927423 -525313 -63175
            -1 -2097153</internalNodes>
          <leafValues>
            -3.6189070343971252e-01 8.2589286565780640e-01</leafValues></_>
        <_>
          <internalNodes>
            0 -1 46 2134900541 1061158847 -537002499 -4194305 2134376317
            2139095039 -515 -1</internalNodes>
          <leafValues>
            -5.4679822921752930e-01 6.3178974390029907e-01</leafValues></_>
        <_>
          <internalNodes>
            0 -1 40 -1073496062 -671098881 -285478433 -2628737
            -337904641 -1050977 -68157457 -1055932121</internalNodes>
          <leafValues>
            -5.8603680133819580e-01 6.1949008703231812e-01</leafValues></_>
        <_>
          <internalNodes>
            0 -1 37 -1 -204804 -143351812 1069817598 -672333828
            1049656796 532430844 -1</internalNodes>
          <leafValues>
            -5.2957689762115479e-01 6.5329897403717041e-01</leafValues></_>
        <_>
          <internalNodes>
            0 -1 41 -805060606 -604766813 -769133665 -158859885
            -431756501 -89136502 -481308309 1091289935</internalNodes>
          <leafValues>
            -6.0834497213363647e-01 5.2548432350158691e-01</leafValues></_></weakClassifiers></_>
    <!-- stage 7 -->
    <_>
      <maxWeakCount>6</maxWeakCount>
      <stageThreshold>-1.3913123607635498e+00</stageThreshold>
      <weakClassifiers>
        <_>
          <internalNodes>
            0 -1 0 -357637377 -2113 -36353 2147448319 -286345985 -26625
            -286310145 -806399745</internalNodes>
          <leafValues>
            -4.9134790897369385e-01 6.8532985448837280e-01</leafValues></_>
        <_>
          <internalNodes>
            0 -1 38 1058488088 1595534311 -77602819 -4195973 1060057854
            1874846458 -68158470 -268703062</internalNodes>
          <leafValues>
            -7.4620282649993896e-01 4.5727124810218811e-01</leafValues></_>
        <_>
          <internalNodes>
            0 -1 39 -1073496061 -69208113 -18874377 -69738521 -536872961
            -4161 -36700225 -1055931633</internalNodes>
          <leafValues>
            -5.4708892107009888e-01 5.7903057336807251e-01</leafValues></_>
        <_>
          <internalNodes>
            0 -1 15 1074774723 571473646 1456436930 1919939310
            -414188545 -273773273 -2883842 -202377265</internalNodes>
          <leafValues>
            -5.7847124338150024e-01 5.4795795679092407e-01</leafValues></_>
        <_>
          <internalNodes>
            0 -1 22 -35103236 2141141489 1939824639 2147439096 -67339781
            -1141292609 -357012545 2062828100</internalNodes>
          <leafValues>
            -8.1673395633697510e-01 4.1541945934295654e-01</leafValues></_>
        <_>
          <internalNodes>
            0 -1 43 -2 2147283928 1431108092 -1082338636 -5446676
            1049115624 468580828 -1</internalNodes>
          <leafValues>
            -6.2029868364334106e-01 4.7129198908805847e-01</leafValues></_></weakClassifiers></_>
    <!-- stage 8 -->
    <_>
      <maxWeakCount>6</maxWeakCount>
      <stageThreshold>-1.4948308467864990e+00</stageThreshold>
      <weakClassifiers>
        <_>
          <internalNodes>
            0 -1 9 -805306369 1156509422 -1493172225 -16777474
            1971322743 -1544028161 1899495287 -524289</internalNodes>
          <leafValues>
            -5.0477099418640137e-01 6.4808654785156250e-01</leafValues></_>
        <_>
          <internalNodes>
            0 -1 30 -1610590891 -41993 -1614815265 -1080107041
            -1074814979 -67147272 -1080377857 -1075109921</internalNodes>
          <leafValues>
            -5.9673345088958740e-01 5.2577513456344604e-01</leafValues></_>
        <_>
          <internalNodes>
            0 -1 28 -2 2144926452 501758940 1073233564 945060860
            1036798453 1056750584 -1025</internalNodes>
          <leafValues>
            -5.7340484857559204e-01 5.2859675884246826e-01</leafValues></_>
        <_>
          <internalNodes>
            0 -1 47 -2 -86100492 598477204 1067854796 -1193530896
            682370628 871633300 2147481599</internalNodes>
          <leafValues>
            -6.5796059370040894e-01 4.6189495921134949e-01</leafValues></_>
        <_>
          <internalNodes>
            0 -1 44 -4195844 -15140867 993057140 1064433471 -785595140
            -1422853201 453835157 2138570671</internalNodes>
          <leafValues>
            -7.4195241928100586e-01 3.8890233635902405e-01</leafValues></_>
        <_>
          <internalNodes>
            0 -1 19 -72355857 -1414820350 -2113150336 3139211 -963667121
            1183541255 -765987257 1407186943</internalNodes>
          <leafValues>
            -6.7486768960952759e-01 4.1615909337997437e-01</leafValues></_></weakClassifiers></_>
    <!-- stage 9 -->
    <_>
      <maxWeakCount>7</maxWeakCount>
      <stageThreshold>-7.0935881137847900e-01</stageThreshold>
      <weakClassifiers>
        <_>
          <internalNodes>
            0 -1 20 -671066795 -49153 -33281 -1073742369 -1077761 -20481
            -1090580481 -1880158241</internalNodes>
          <leafValues>
            -5.2905040979385376e-01 6.0219907760620117e-01</leafValues></_>
        <_>
          <internalNodes>
            0 -1 49 2147450876 528119231 2137210492 -200449 984294396
            1006578567 2031041180 -2229249</internalNodes>
          <leafValues>
            -7.4652278423309326e-01 3.8707998394966125e-01</leafValues></_>
        <_>
          <internalNodes>
            0 -1 42 -1073233661 -11010049 -67108865 -538970177
            -288360449 -33554433 -403182081 -1072970993</internalNodes>
          <leafValues>
            -4.9702963232994080e-01 5.8896136283874512e-01</leafValues></_>
        <_>
          <internalNodes>
            0 -1 4 -276894721 261236654 22171103 265793023 -73409537
            2143977959 -102760705 1610612735</internalNodes>
          <leafValues>
            -5.5258935689926147e-01 5.3088325262069702e-01</leafValues></_>
        <_>
          <internalNodes>
            0 -1 29 -1073496062 -207629473 -581960201 -2106401 -9451073
            -19933241 -622592097 -1055923925</internalNodes>
          <leafValues>
            -5.9806603193283081e-01 4.7611311078071594e-01</leafValues></_>
        <_>
          <internalNodes>
            0 -1 35 -2049 -134710788 526139900 2013065726 2143869949
            1044151193 970733516 -1</internalNodes>
          <leafValues>
            -4.9485835433006287e-01 5.5508071184158325e-01</leafValues></_>
        <_>
          <internalNodes>
            0 -1 13 -269553667 1064239086 2147483647 -671133953
            1240457215 -16385 1543438335 1608867839</internalNodes>
          <leafValues>
            -4.9438974261283875e-01 5.5110597610473633e-01</leafValues></_></weakClassifiers></_></stages>
  <features>
    <_>
      <rect>
        0 0 4 1</rect></_>
    <_>
      <rect>
        0 0 14 2</rect></_>
    <_>
      <rect>
        0 1 8 1</rect></_>
    <_>
      <rect>
        0 1 12 1</rect></_>
    <_>
      <rect>
        0 6 8 2</rect></_>
    <_>
      <rect>
        0 7 13 2</rect></_>
    <_>
      <rect>
        0 10 4 1</rect></_>
    <_>
      <rect>
        1 0 3 1</rect></_>
    <_>
      <rect>
        1 1 2 1</rect></_>
    <_>
      <rect>
        1 2 2 1</rect></_>
    <_>
      <rect>
        1 2 3 3</rect></_>
    <_>
      <rect>
        1 8 15 1</rect></_>
    <_>
      <rect>
        1 9 16 1</rect></_>
    <_>
      <rect>
        2 1 2 1</rect></_>
    <_>
      <rect>
        3 2 1 1</rect></_>
    <_>
      <rect>
        4 2 1 2</rect></_>
    <_>
      <rect>
        4 3 1 2</rect></_>
    <_>
      <rect>
        5 2 13 1</rect></_>
    <_>
      <rect>
        6 0 10 1</rect></_>
    <_>
      <rect>
        6 3 1 2</rect></_>
    <_>
      <rect>
        7 0 2 1</rect></_>
    <_>
      <rect>
        7 8 15 1</rect></_>
    <_>
      <rect>
        8 1 11 1</rect></_>
    <_>
      <rect>
        8 9 12 1</rect></_>
    <_>
      <rect>
        9 1 7 1</rect></_>
    <_>
      <rect>
        10 1 12 1</rect></_>
    <_>
      <rect>
        10 2 14 1</rect></_>
    <_>
      <rect>
        20 9 9 1</rect></_>
    <_>
      <rect>
        24 7 1 2</rect></_>
    <_>
      <rect>
        26 0 1 2</rect></_>
    <_>
      <rect>
        26 0 3 1</rect></_>
    <_>
      <rect>
        26 10 6 1</rect></_>
    <_>
      <rect>
        27 4 1 3</rect></_>
    <_>
      <rect>
        27 10 7 1</rect></_>
    <_>
      <rect>
        30 0 1 2</rect></_>
    <_>
      <rect>
        30 7 1 2</rect></_>
    <_>
      <rect>
        31 0 1 2</rect></_>
    <_>
      <rect>
        31 7 1 2</rect></_>
    <_>
      <rect>
        31 9 7 1</rect></_>
    <_>
      <rect>
        32 0 1 2</rect></_>
    <_>
      <rect>
        35 0 1 2</rect></_>
    <_>
      <rect>
        37 0 1 3</rect></_>
    <_>
      <rect>
        42 0 1 2</rect></_>
    <_>
      <rect>
        43 7 1 2</rect></_>
    <_>
      <rect>
        43 7 3 2</rect></_>
    <_>
      <rect>
        43 9 2 1</rect></_>
    <_>
      <rect>
        43 9 3 1</rect></_>
    <_>
      <rect>
        44 4 1 3</rect></_>
    <_>
      <rect>
        45 9 2 1</rect></_>
    <_>
      <rect>
        46 9 1 1</rect></_>
    <_>
      <rect>
        46 10 2 1</rect></_></features></cascade>
</opencv_storage>
