<?xml version="1.0"?>
<opencv_storage>
<stage1>
  <maxWeakCount>4</maxWeakCount>
  <stageThreshold>-1.5121356248855591e+00</stageThreshold>
  <weakClassifiers>
    <_>
      <internalNodes>
        0 -1 9098 -196611 -131203 -66563 -250059 -4653059 -2162691
        -65537 -1465384960</internalNodes>
      <leafValues>
        -7.4826216697692871e-01 8.0732101202011108e-01</leafValues></_>
    <_>
      <internalNodes>
        0 -1 7450 487591096 2145223101 1574624699 -6826529 535329535
        -81927 -1164903681 -1431651585</internalNodes>
      <leafValues>
        -8.0910199880599976e-01 6.6864567995071411e-01</leafValues></_>
    <_>
      <internalNodes>
        0 -1 53 -867909428 -538998585 1266838783 -546373489 -588587793
        -71308085 -357635845 -29713</internalNodes>
      <leafValues>
        -7.3919391632080078e-01 6.7630100250244141e-01</leafValues></_>
    <_>
      <internalNodes>
        0 -1 4130 -258715140 -15393455 -1986325249 -109227755 -108995606
        -4499251 1535143931 960495696</internalNodes>
      <leafValues>
        -7.7116072177886963e-01 5.6435585021972656e-01</leafValues></_></weakClassifiers></stage1>
</opencv_storage>
