<?xml version="1.0"?>
<opencv_storage>
<stage4>
  <maxWeakCount>5</maxWeakCount>
  <stageThreshold>-1.0406125783920288e+00</stageThreshold>
  <weakClassifiers>
    <_>
      <internalNodes>
        0 -1 450 -357653761 -3081 -3073 -34817 -286590977 -27393
        -286277377 -437825289</internalNodes>
      <leafValues>
        -5.5545288324356079e-01 7.2859591245651245e-01</leafValues></_>
    <_>
      <internalNodes>
        0 -1 3649 498081020 -1077954819 -1078133249 -2759 1573010431
        -4263685 2146361343 -1440028005</internalNodes>
      <leafValues>
        -7.8314882516860962e-01 5.3409028053283691e-01</leafValues></_>
    <_>
      <internalNodes>
        0 -1 3746 -46115364 -37269083 -140878337 -11567137 -36152324
        -38657 -123438081 -129737340</internalNodes>
      <leafValues>
        -8.2427251338958740e-01 4.2537954449653625e-01</leafValues></_>
    <_>
      <internalNodes>
        0 -1 1893 -822091089 19220355 -533610462 4977283 -1292897681
        641934502 -698355701 1937765375</internalNodes>
      <leafValues>
        -6.6807365417480469e-01 5.1190996170043945e-01</leafValues></_>
    <_>
      <internalNodes>
        0 -1 9491 -2147269629 -201859201 -138946178 -1581089 -207621121
        -68165105 -127411713 -1055926521</internalNodes>
      <leafValues>
        -6.3930040597915649e-01 5.2777290344238281e-01</leafValues></_></weakClassifiers></stage4>
</opencv_storage>
