<?xml version="1.0"?>
<opencv_storage>
<stage10>
  <maxWeakCount>7</maxWeakCount>
  <stageThreshold>-9.5132672786712646e-01</stageThreshold>
  <weakClassifiers>
    <_>
      <internalNodes>
        0 -1 328 -822096129 1377758943 -453251329 -8449 -247988481
        -193012105 -125894661 -262145</internalNodes>
      <leafValues>
        -3.6749804019927979e-01 7.4612200260162354e-01</leafValues></_>
    <_>
      <internalNodes>
        0 -1 2590 -320190262 -30721 -71606275 -33591843 -272891906
        -270805319 -278003714 -186325820</internalNodes>
      <leafValues>
        -7.3138362169265747e-01 4.4157287478446960e-01</leafValues></_>
    <_>
      <internalNodes>
        0 -1 11411 -4203714 356251455 -911483044 502920671 -854913259
        1217087519 -913581859 -572924135</internalNodes>
      <leafValues>
        -6.5226989984512329e-01 3.8173738121986389e-01</leafValues></_>
    <_>
      <internalNodes>
        0 -1 7971 521473816 2134868591 857719261 -539000631 2096790526
        -1399158 -357901318 -1432683592</internalNodes>
      <leafValues>
        -8.2551258802413940e-01 3.4196299314498901e-01</leafValues></_>
    <_>
      <internalNodes>
        0 -1 9101 -1073495037 -9446405 -639904005 -5244933 -204475905
        -35914817 -405798917 -1020280049</internalNodes>
      <leafValues>
        -5.5354452133178711e-01 4.8642191290855408e-01</leafValues></_>
    <_>
      <internalNodes>
        0 -1 10901 -1 -458756 938786812 1060929532 -196612 783843189
        1073020924 -1</internalNodes>
      <leafValues>
        -4.7365161776542664e-01 5.2952647209167480e-01</leafValues></_>
    <_>
      <internalNodes>
        0 -1 11439 -1265667 -1075522963 -2130701699 1023971965
        -2094519632 -1434449400 687348985 -1145372741</internalNodes>
      <leafValues>
        -5.5760830640792847e-01 4.7272595763206482e-01</leafValues></_></weakClassifiers></stage10>
</opencv_storage>
