<?xml version="1.0"?>
<opencv_storage>
<stage8>
  <maxWeakCount>6</maxWeakCount>
  <stageThreshold>-1.4948308467864990e+00</stageThreshold>
  <weakClassifiers>
    <_>
      <internalNodes>
        0 -1 581 -805306369 1156509422 -1493172225 -16777474 1971322743
        -1544028161 1899495287 -524289</internalNodes>
      <leafValues>
        -5.0477099418640137e-01 6.4808654785156250e-01</leafValues></_>
    <_>
      <internalNodes>
        0 -1 8692 -1610590891 -41993 -1614815265 -1080107041 -1074814979
        -67147272 -1080377857 -1075109921</internalNodes>
      <leafValues>
        -5.9673345088958740e-01 5.2577513456344604e-01</leafValues></_>
    <_>
      <internalNodes>
        0 -1 8406 -2 2144926452 501758940 1073233564 945060860
        1036798453 1056750584 -1025</internalNodes>
      <leafValues>
        -5.7340484857559204e-01 5.2859675884246826e-01</leafValues></_>
    <_>
      <internalNodes>
        0 -1 11288 -2 -86100492 598477204 1067854796 -1193530896
        682370628 871633300 2147481599</internalNodes>
      <leafValues>
        -6.5796059370040894e-01 4.6189495921134949e-01</leafValues></_>
    <_>
      <internalNodes>
        0 -1 11248 -4195844 -15140867 993057140 1064433471 -785595140
        -1422853201 453835157 2138570671</internalNodes>
      <leafValues>
        -7.4195241928100586e-01 3.8890233635902405e-01</leafValues></_>
    <_>
      <internalNodes>
        0 -1 2688 -72355857 -1414820350 -2113150336 3139211 -963667121
        1183541255 -765987257 1407186943</internalNodes>
      <leafValues>
        -6.7486768960952759e-01 4.1615909337997437e-01</leafValues></_></weakClassifiers></stage8>
</opencv_storage>
