<?xml version="1.0"?>
<!--
opencv_traincascade -data /home/holger/cv/data_equ_all/p5000_n2500_full_background_fa_005/ -vec /home/holger/cv/kennzeichen_equ_all/kennzeichen_60x13_equ_all_full_background_rot.vec -bg /home/holger/cv/neg_additional/index.info -numPos 5000 -numNeg 2500 -numStages 6 -w 60 -h 13 -featureType LBP -maxFalseAlarmRate 0.05
-->
<opencv_storage>
<cascade>
  <stageType>BOOST</stageType>
  <featureType>LBP</featureType>
  <height>13</height>
  <width>60</width>
  <stageParams>
    <boostType>GAB</boostType>
    <minHitRate>9.9500000476837158e-01</minHitRate>
    <maxFalseAlarm>5.0000000745058060e-02</maxFalseAlarm>
    <weightTrimRate>9.4999999999999996e-01</weightTrimRate>
    <maxDepth>1</maxDepth>
    <maxWeakCount>100</maxWeakCount></stageParams>
  <featureParams>
    <maxCatCount>256</maxCatCount>
    <featSize>1</featSize></featureParams>
  <stageNum>6</stageNum>
  <stages>
    <!-- stage 0 -->
    <_>
      <maxWeakCount>6</maxWeakCount>
      <stageThreshold>-8.3647370338439941e-02</stageThreshold>
      <weakClassifiers>
        <_>
          <internalNodes>
            0 -1 26 353371160 2144670037 318775261 -551726755 940583160
            -1400143 680045566 -1440573270</internalNodes>
          <leafValues>
            -8.8566243648529053e-01 8.4063446521759033e-01</leafValues></_>
        <_>
          <internalNodes>
            0 -1 3 -712735010 -6487824 1564527583 -49020212 -74862593
            -71792451 -611807489 -1308532</internalNodes>
          <leafValues>
            -7.8133481740951538e-01 8.1826323270797729e-01</leafValues></_>
        <_>
          <internalNodes>
            0 -1 43 -196611 -246283 -196611 -541250027 -4915204 -202756
            -17121287 -1464336384</internalNodes>
          <leafValues>
            -7.7277213335037231e-01 8.1615817546844482e-01</leafValues></_>
        <_>
          <internalNodes>
            0 -1 21 -175048716 -40435245 219252877 -1650524022
            -1988056641 -272954967 193464362 254345738</internalNodes>
          <leafValues>
            -7.8075194358825684e-01 7.1324735879898071e-01</leafValues></_>
        <_>
          <internalNodes>
            0 -1 25 -1269723652 -606924335 420479295 -1080754021
            -201217601 -1145501446 453707945 730800267</internalNodes>
          <leafValues>
            -7.7815026044845581e-01 7.6676440238952637e-01</leafValues></_>
        <_>
          <internalNodes>
            0 -1 11 -59445252 -578778112 184583422 -1928855474
            -107348483 -71792199 -578230017 -1076261921</internalNodes>
          <leafValues>
            -8.1374651193618774e-01 6.4381271600723267e-01</leafValues></_></weakClassifiers></_>
    <!-- stage 1 -->
    <_>
      <maxWeakCount>8</maxWeakCount>
      <stageThreshold>2.8614874929189682e-02</stageThreshold>
      <weakClassifiers>
        <_>
          <internalNodes>
            0 -1 24 285742353 -1086384173 1069105051 1069227935
            -1145323591 -1073791109 -1088733253 1060839327</internalNodes>
          <leafValues>
            -6.7952251434326172e-01 7.4783915281295776e-01</leafValues></_>
        <_>
          <internalNodes>
            0 -1 4 -1048593 7319279 -269553970 -2003857749 -1 74835071
            -1056801 -268447745</internalNodes>
          <leafValues>
            -6.0350108146667480e-01 7.7812933921813965e-01</leafValues></_>
        <_>
          <internalNodes>
            0 -1 57 2078267389 465212427 1964131612 1574295903
            2051109364 467257495 1974139389 -603979777</internalNodes>
          <leafValues>
            -6.4226359128952026e-01 6.8832004070281982e-01</leafValues></_>
        <_>
          <internalNodes>
            0 -1 41 -1073494781 -172491077 -268451841 -671615537
            -507772993 -16812033 -629407745 -1068514037</internalNodes>
          <leafValues>
            -5.3017926216125488e-01 7.8170770406723022e-01</leafValues></_>
        <_>
          <internalNodes>
            0 -1 19 -607366916 -35962404 -686989377 -174636 -72295426
            -89431349 -32228353 1330644036</internalNodes>
          <leafValues>
            -8.0275565385818481e-01 5.5594581365585327e-01</leafValues></_>
        <_>
          <internalNodes>
            0 -1 18 -603987221 518698 -2105621982 1078195727 -348420769
            1107498847 -679488506 -211814449</internalNodes>
          <leafValues>
            -6.3225281238555908e-01 6.8172615766525269e-01</leafValues></_>
        <_>
          <internalNodes>
            0 -1 35 -3074 999592272 152045144 923799576 -1606110808
            134763405 957617320 -2049</internalNodes>
          <leafValues>
            -5.9969967603683472e-01 6.6303730010986328e-01</leafValues></_>
        <_>
          <internalNodes>
            0 -1 52 -4203522 -1755696468 676077616 772841884 -1580551672
            448811144 884488832 2147482623</internalNodes>
          <leafValues>
            -7.2872447967529297e-01 5.6044310331344604e-01</leafValues></_></weakClassifiers></_>
    <!-- stage 2 -->
    <_>
      <maxWeakCount>9</maxWeakCount>
      <stageThreshold>2.1856242418289185e-01</stageThreshold>
      <weakClassifiers>
        <_>
          <internalNodes>
            0 -1 38 -197123 -250019 -196611 -1073968043 -65539
            -1073807363 -65537 -1371928575</internalNodes>
          <leafValues>
            -5.8326429128646851e-01 7.6838380098342896e-01</leafValues></_>
        <_>
          <internalNodes>
            0 -1 8 -1440030469 -830989 1877966847 -34121995 -286547457
            -269528591 -1880636165 -806924043</internalNodes>
          <leafValues>
            -5.3873950242996216e-01 7.4074643850326538e-01</leafValues></_>
        <_>
          <internalNodes>
            0 -1 10 -18952962 -549510732 -36274689 -594238960 -89133313
            -71647077 -268633121 -185744193</internalNodes>
          <leafValues>
            -7.7492433786392212e-01 5.5615663528442383e-01</leafValues></_>
        <_>
          <internalNodes>
            0 -1 5 -44123138 -539272769 -1985605633 -1108367158
            -107042113 -73688647 -1952773381 -1345386257</internalNodes>
          <leafValues>
            -6.2394797801971436e-01 6.0819351673126221e-01</leafValues></_>
        <_>
          <internalNodes>
            0 -1 44 1069301240 1073407965 2064031231 -541132003
            2078833147 -1141184375 -7410753 -1414862101</internalNodes>
          <leafValues>
            -8.0998396873474121e-01 4.6108043193817139e-01</leafValues></_>
        <_>
          <internalNodes>
            0 -1 49 -1073496062 -610291021 38392275 -181423553
            -347343429 -358774645 -57683477 -1038105853</internalNodes>
          <leafValues>
            -6.1605906486511230e-01 6.2222725152969360e-01</leafValues></_>
        <_>
          <internalNodes>
            0 -1 13 1759502191 -1058553918 68016078 -98186 1194050353
            866955197 1682433083 -33564673</internalNodes>
          <leafValues>
            -6.2284028530120850e-01 5.7767564058303833e-01</leafValues></_>
        <_>
          <internalNodes>
            0 -1 37 -1067196414 -746340193 -1023295341 -1868575793
            -1070603905 -389619710 -133576069 1078982427</internalNodes>
          <leafValues>
            -6.9299316406250000e-01 4.9098879098892212e-01</leafValues></_>
        <_>
          <internalNodes>
            0 -1 31 -2145364651 -1152136235 220446207 -1615612417
            -1206182401 -72718198 -1152678209 -1140908033</internalNodes>
          <leafValues>
            -6.4467513561248779e-01 5.2156579494476318e-01</leafValues></_></weakClassifiers></_>
    <!-- stage 3 -->
    <_>
      <maxWeakCount>11</maxWeakCount>
      <stageThreshold>1.5247835218906403e-01</stageThreshold>
      <weakClassifiers>
        <_>
          <internalNodes>
            0 -1 14 1122839295 1610596083 -402653185 -134219021
            1224474623 -1 1174405119 1442834289</internalNodes>
          <leafValues>
            -4.8608836531639099e-01 7.2943037748336792e-01</leafValues></_>
        <_>
          <internalNodes>
            0 -1 60 -67117572 -604241985 -33559044 -67109377 715784232
            -1432700360 -53487384 -356778373</internalNodes>
          <leafValues>
            -5.0941789150238037e-01 6.5360146760940552e-01</leafValues></_>
        <_>
          <internalNodes>
            0 -1 55 2139092797 521926463 -578159140 -1612055651
            2032916349 1644952179 -609625635 -637665363</internalNodes>
          <leafValues>
            -6.8784868717193604e-01 4.9474766850471497e-01</leafValues></_>
        <_>
          <internalNodes>
            0 -1 40 -1069031422 -214181889 -745414975 -103034165
            -649338070 -1474576053 -515119417 1342697819</internalNodes>
          <leafValues>
            -7.0806580781936646e-01 4.2705243825912476e-01</leafValues></_>
        <_>
          <internalNodes>
            0 -1 29 -9504774 -6524495 1767910136 972566708 1844208572
            964445104 606616536 -1</internalNodes>
          <leafValues>
            -6.1698675155639648e-01 5.1138788461685181e-01</leafValues></_>
        <_>
          <internalNodes>
            0 -1 7 -217090 962503310 667944957 723460975 -359092225
            -1147163477 -438322437 -25601</internalNodes>
          <leafValues>
            -6.4835423231124878e-01 4.5685413479804993e-01</leafValues></_>
        <_>
          <internalNodes>
            0 -1 36 -1073527549 -100686017 -67108865 -176308297
            -272629761 -268437505 -136316929 -782245833</internalNodes>
          <leafValues>
            -5.3810226917266846e-01 5.9862858057022095e-01</leafValues></_>
        <_>
          <internalNodes>
            0 -1 9 -353440521 -1361891088 689657335 -2844074 -2130017866
            -32380808 1736179315 -18648016</internalNodes>
          <leafValues>
            -5.7527530193328857e-01 5.4957497119903564e-01</leafValues></_>
        <_>
          <internalNodes>
            0 -1 45 -2103306 469487986 371720868 1438722986 -388374360
            37773988 1193290500 2112356347</internalNodes>
          <leafValues>
            -6.8461954593658447e-01 4.4184222817420959e-01</leafValues></_>
        <_>
          <internalNodes>
            0 -1 39 -9611395 -713198755 -1205546787 -268582131
            -1148523523 -3505680 -351732773 -1963327211</internalNodes>
          <leafValues>
            -6.6115128993988037e-01 4.7200888395309448e-01</leafValues></_>
        <_>
          <internalNodes>
            0 -1 47 -33554433 -545456260 905740284 1071415292 -67305476
            1066958197 1073528828 -33</internalNodes>
          <leafValues>
            -4.8478499054908752e-01 6.5185183286666870e-01</leafValues></_></weakClassifiers></_>
    <!-- stage 4 -->
    <_>
      <maxWeakCount>14</maxWeakCount>
      <stageThreshold>-2.0157933235168457e-01</stageThreshold>
      <weakClassifiers>
        <_>
          <internalNodes>
            0 -1 0 -357637377 -201326593 -1343261185 402614007
            -1366644737 -353487361 -17955585 1156465919</internalNodes>
          <leafValues>
            -5.5360621213912964e-01 6.6740089654922485e-01</leafValues></_>
        <_>
          <internalNodes>
            0 -1 15 -1070931733 -856686609 -134743041 -1023412498
            1078131710 -16449 -25 -2230345</internalNodes>
          <leafValues>
            -5.0549781322479248e-01 5.9715884923934937e-01</leafValues></_>
        <_>
          <internalNodes>
            0 -1 33 -2147461807 -2107913 -1693524515 -7504297
            -1191624727 -4458241 -1078083649 -1074102306</internalNodes>
          <leafValues>
            -5.7151025533676147e-01 5.1000636816024780e-01</leafValues></_>
        <_>
          <internalNodes>
            0 -1 54 -138461188 998032255 -1884154668 -144911521
            1512521204 1608846619 -78809604 -67373057</internalNodes>
          <leafValues>
            -8.1457132101058960e-01 3.5320985317230225e-01</leafValues></_>
        <_>
          <internalNodes>
            0 -1 20 -201523714 -581052929 -614919365 -70011462
            2146348031 -372805 -1545139537 732889610</internalNodes>
          <leafValues>
            -7.1209764480590820e-01 3.7216988205909729e-01</leafValues></_>
        <_>
          <internalNodes>
            0 -1 46 -1072971773 -5773969 1770907095 -137364225
            -206841857 -888940001 -108018721 -1050680025</internalNodes>
          <leafValues>
            -5.3403913974761963e-01 5.4643487930297852e-01</leafValues></_>
        <_>
          <internalNodes>
            0 -1 51 -8519682 -537370754 913839284 2144627000 -4420616
            726403244 1274556154 2147483631</internalNodes>
          <leafValues>
            -7.0033085346221924e-01 4.0333205461502075e-01</leafValues></_>
        <_>
          <internalNodes>
            0 -1 59 -536879554 -1743007201 -51915938 -858787239 21299264
            424232961 -1054778631 -2006855344</internalNodes>
          <leafValues>
            -7.0551812648773193e-01 3.7845167517662048e-01</leafValues></_>
        <_>
          <internalNodes>
            0 -1 27 -580628004 -100705474 -1917238337 -611632349
            -916976993 -1431740285 -243777349 -402635264</internalNodes>
          <leafValues>
            -8.0389565229415894e-01 3.3052811026573181e-01</leafValues></_>
        <_>
          <internalNodes>
            0 -1 12 -738207937 621532170 -1781330473 -10497570
            -1967497555 33904488 -1320086784 1465901055</internalNodes>
          <leafValues>
            -5.9754127264022827e-01 4.5014077425003052e-01</leafValues></_>
        <_>
          <internalNodes>
            0 -1 2 -93389569 -757798162 -783313153 -1058028990
            -1559633701 -862716725 -1042431749 -992348739</internalNodes>
          <leafValues>
            -5.7201921939849854e-01 4.9174511432647705e-01</leafValues></_>
        <_>
          <internalNodes>
            0 -1 30 1576807868 -210558933 -1458491493 1059265291
            -1355863061 -376765943 260259835 532614075</internalNodes>
          <leafValues>
            -7.6500475406646729e-01 3.9412489533424377e-01</leafValues></_>
        <_>
          <internalNodes>
            0 -1 42 -603979777 1531464968 -1710957612 936950264 39440280
            423643417 197405352 -270602339</internalNodes>
          <leafValues>
            -5.4432862997055054e-01 5.2326810359954834e-01</leafValues></_>
        <_>
          <internalNodes>
            0 -1 53 -204540432 -1174258718 -2130517828 -1580535454
            -1877417600 142745656 1251263572 1878758687</internalNodes>
          <leafValues>
            -7.2877985239028931e-01 3.9228785037994385e-01</leafValues></_></weakClassifiers></_>
    <!-- stage 5 -->
    <_>
      <maxWeakCount>14</maxWeakCount>
      <stageThreshold>7.5786687433719635e-02</stageThreshold>
      <weakClassifiers>
        <_>
          <internalNodes>
            0 -1 16 1534534191 590324495 1613619742 573564607 -764439747
            -1507344795 -578816213 2004877263</internalNodes>
          <leafValues>
            -4.7641071677207947e-01 6.6129636764526367e-01</leafValues></_>
        <_>
          <internalNodes>
            0 -1 56 -75776004 -1946455173 822237053 -577155041
            -1952474408 792445061 719980144 -1439433477</internalNodes>
          <leafValues>
            -5.7102692127227783e-01 5.3198069334030151e-01</leafValues></_>
        <_>
          <internalNodes>
            0 -1 23 -75502641 -2111067218 -2143207198 34005965
            -857814257 45809951 1473217079 1136646143</internalNodes>
          <leafValues>
            -6.1488652229309082e-01 4.2776128649711609e-01</leafValues></_>
        <_>
          <internalNodes>
            0 -1 22 -792177327 1568907475 -1651288705 -1621134885
            -1988061041 -561782352 -1098759749 -1900081957</internalNodes>
          <leafValues>
            -5.3994160890579224e-01 5.1062506437301636e-01</leafValues></_>
        <_>
          <internalNodes>
            0 -1 32 -2147236093 -172033 -150994945 -2561 -142606337
            -50331649 -301992453 -747903649</internalNodes>
          <leafValues>
            -4.6769705414772034e-01 5.8461856842041016e-01</leafValues></_>
        <_>
          <internalNodes>
            0 -1 17 -1233388595 178513606 1528029410 -52706130
            1778920431 -1078525141 277439210 1347908150</internalNodes>
          <leafValues>
            -7.0290738344192505e-01 3.3996766805648804e-01</leafValues></_>
        <_>
          <internalNodes>
            0 -1 1 -360258826 2131378522 -1918762731 1245970432
            545701899 -1081212799 -909598501 2070909599</internalNodes>
          <leafValues>
            -7.2643953561782837e-01 3.3356490731239319e-01</leafValues></_>
        <_>
          <internalNodes>
            0 -1 48 -224399232 -500518909 -1936277485 -2105345390
            -96370545 -1205157853 2009559107 1125111199</internalNodes>
          <leafValues>
            -6.5236490964889526e-01 3.5713437199592590e-01</leafValues></_>
        <_>
          <internalNodes>
            0 -1 34 2022789597 -948942811 -989592107 1536727353
            -895712339 -1154954799 -97977857 -860989071</internalNodes>
          <leafValues>
            -5.3827780485153198e-01 4.7857922315597534e-01</leafValues></_>
        <_>
          <internalNodes>
            0 -1 6 -7608577 1699178171 -298932103 252291135 -168993
            -1348518418 -542144529 -808460801</internalNodes>
          <leafValues>
            -4.6400836110115051e-01 5.4707086086273193e-01</leafValues></_>
        <_>
          <internalNodes>
            0 -1 61 261816792 -1287453553 -1673396132 1047277780
            -1550709765 -90664566 2056129016 -74804457</internalNodes>
          <leafValues>
            -5.6103360652923584e-01 4.5913916826248169e-01</leafValues></_>
        <_>
          <internalNodes>
            0 -1 28 489689213 -1080082293 -1858841195 -6334425
            1936626683 -310125 -1366376309 637722719</internalNodes>
          <leafValues>
            -6.3178169727325439e-01 4.1224932670593262e-01</leafValues></_>
        <_>
          <internalNodes>
            0 -1 50 -607394197 1795891718 5294738 1883673602 -919928244
            154296389 -1021579102 1902368603</internalNodes>
          <leafValues>
            -6.0274195671081543e-01 4.4149044156074524e-01</leafValues></_>
        <_>
          <internalNodes>
            0 -1 58 -1730165341 1771303519 -879274749 -2134667101
            1686606083 -2117870510 -259197917 381803957</internalNodes>
          <leafValues>
            -7.1886736154556274e-01 3.5724347829818726e-01</leafValues></_></weakClassifiers></_></stages>
  <features>
    <_>
      <rect>
        0 0 5 1</rect></_>
    <_>
      <rect>
        0 1 5 1</rect></_>
    <_>
      <rect>
        0 1 6 2</rect></_>
    <_>
      <rect>
        0 1 13 1</rect></_>
    <_>
      <rect>
        0 2 4 3</rect></_>
    <_>
      <rect>
        0 2 17 1</rect></_>
    <_>
      <rect>
        0 5 17 2</rect></_>
    <_>
      <rect>
        0 6 17 2</rect></_>
    <_>
      <rect>
        1 0 3 1</rect></_>
    <_>
      <rect>
        1 1 2 1</rect></_>
    <_>
      <rect>
        1 1 9 1</rect></_>
    <_>
      <rect>
        1 7 14 2</rect></_>
    <_>
      <rect>
        2 2 1 2</rect></_>
    <_>
      <rect>
        2 2 2 1</rect></_>
    <_>
      <rect>
        3 1 1 1</rect></_>
    <_>
      <rect>
        4 2 1 1</rect></_>
    <_>
      <rect>
        4 3 1 2</rect></_>
    <_>
      <rect>
        5 2 2 1</rect></_>
    <_>
      <rect>
        5 3 1 2</rect></_>
    <_>
      <rect>
        6 1 16 1</rect></_>
    <_>
      <rect>
        6 2 16 1</rect></_>
    <_>
      <rect>
        6 2 18 1</rect></_>
    <_>
      <rect>
        7 0 2 1</rect></_>
    <_>
      <rect>
        7 3 1 2</rect></_>
    <_>
      <rect>
        9 0 10 1</rect></_>
    <_>
      <rect>
        9 8 17 1</rect></_>
    <_>
      <rect>
        9 9 17 1</rect></_>
    <_>
      <rect>
        10 1 9 1</rect></_>
    <_>
      <rect>
        10 9 13 1</rect></_>
    <_>
      <rect>
        12 7 1 2</rect></_>
    <_>
      <rect>
        13 8 12 1</rect></_>
    <_>
      <rect>
        15 0 3 1</rect></_>
    <_>
      <rect>
        24 0 1 2</rect></_>
    <_>
      <rect>
        28 0 2 1</rect></_>
    <_>
      <rect>
        29 10 2 1</rect></_>
    <_>
      <rect>
        30 7 1 2</rect></_>
    <_>
      <rect>
        31 0 1 2</rect></_>
    <_>
      <rect>
        31 0 2 3</rect></_>
    <_>
      <rect>
        31 10 7 1</rect></_>
    <_>
      <rect>
        32 10 3 1</rect></_>
    <_>
      <rect>
        34 0 2 3</rect></_>
    <_>
      <rect>
        35 0 1 2</rect></_>
    <_>
      <rect>
        35 7 1 2</rect></_>
    <_>
      <rect>
        35 10 7 1</rect></_>
    <_>
      <rect>
        36 9 5 1</rect></_>
    <_>
      <rect>
        37 4 2 3</rect></_>
    <_>
      <rect>
        38 0 1 2</rect></_>
    <_>
      <rect>
        39 7 1 2</rect></_>
    <_>
      <rect>
        42 1 1 3</rect></_>
    <_>
      <rect>
        44 0 1 2</rect></_>
    <_>
      <rect>
        44 5 2 1</rect></_>
    <_>
      <rect>
        45 7 2 2</rect></_>
    <_>
      <rect>
        50 6 1 2</rect></_>
    <_>
      <rect>
        51 1 1 4</rect></_>
    <_>
      <rect>
        51 9 2 1</rect></_>
    <_>
      <rect>
        51 9 3 1</rect></_>
    <_>
      <rect>
        51 10 3 1</rect></_>
    <_>
      <rect>
        52 9 2 1</rect></_>
    <_>
      <rect>
        53 8 2 1</rect></_>
    <_>
      <rect>
        54 9 2 1</rect></_>
    <_>
      <rect>
        54 10 2 1</rect></_>
    <_>
      <rect>
        56 10 1 1</rect></_></features></cascade>
</opencv_storage>
