<?xml version="1.0"?>
<!--
opencv_traincascade -data /home/holger/cv/data_equ_all/p5000_n2500_full_background_fa_005/ -vec /home/holger/cv/kennzeichen_equ_all/kennzeichen_60x13_equ_all_full_background_rot.vec -bg /home/holger/cv/neg_additional/index.info -numPos 5000 -numNeg 2500 -numStages 3 -w 60 -h 13 -featureType LBP -maxFalseAlarmRate 0.05
-->
<opencv_storage>
<cascade>
  <stageType>BOOST</stageType>
  <featureType>LBP</featureType>
  <height>13</height>
  <width>60</width>
  <stageParams>
    <boostType>GAB</boostType>
    <minHitRate>9.9500000476837158e-01</minHitRate>
    <maxFalseAlarm>5.0000000745058060e-02</maxFalseAlarm>
    <weightTrimRate>9.4999999999999996e-01</weightTrimRate>
    <maxDepth>1</maxDepth>
    <maxWeakCount>100</maxWeakCount></stageParams>
  <featureParams>
    <maxCatCount>256</maxCatCount>
    <featSize>1</featSize></featureParams>
  <stageNum>3</stageNum>
  <stages>
    <!-- stage 0 -->
    <_>
      <maxWeakCount>6</maxWeakCount>
      <stageThreshold>-8.3647370338439941e-02</stageThreshold>
      <weakClassifiers>
        <_>
          <internalNodes>
            0 -1 12 353371160 2144670037 318775261 -551726755 940583160
            -1400143 680045566 -1440573270</internalNodes>
          <leafValues>
            -8.8566243648529053e-01 8.4063446521759033e-01</leafValues></_>
        <_>
          <internalNodes>
            0 -1 0 -712735010 -6487824 1564527583 -49020212 -74862593
            -71792451 -611807489 -1308532</internalNodes>
          <leafValues>
            -7.8133481740951538e-01 8.1826323270797729e-01</leafValues></_>
        <_>
          <internalNodes>
            0 -1 18 -196611 -246283 -196611 -541250027 -4915204 -202756
            -17121287 -1464336384</internalNodes>
          <leafValues>
            -7.7277213335037231e-01 8.1615817546844482e-01</leafValues></_>
        <_>
          <internalNodes>
            0 -1 9 -175048716 -40435245 219252877 -1650524022
            -1988056641 -272954967 193464362 254345738</internalNodes>
          <leafValues>
            -7.8075194358825684e-01 7.1324735879898071e-01</leafValues></_>
        <_>
          <internalNodes>
            0 -1 11 -1269723652 -606924335 420479295 -1080754021
            -201217601 -1145501446 453707945 730800267</internalNodes>
          <leafValues>
            -7.7815026044845581e-01 7.6676440238952637e-01</leafValues></_>
        <_>
          <internalNodes>
            0 -1 5 -59445252 -578778112 184583422 -1928855474 -107348483
            -71792199 -578230017 -1076261921</internalNodes>
          <leafValues>
            -8.1374651193618774e-01 6.4381271600723267e-01</leafValues></_></weakClassifiers></_>
    <!-- stage 1 -->
    <_>
      <maxWeakCount>8</maxWeakCount>
      <stageThreshold>2.8614874929189682e-02</stageThreshold>
      <weakClassifiers>
        <_>
          <internalNodes>
            0 -1 10 285742353 -1086384173 1069105051 1069227935
            -1145323591 -1073791109 -1088733253 1060839327</internalNodes>
          <leafValues>
            -6.7952251434326172e-01 7.4783915281295776e-01</leafValues></_>
        <_>
          <internalNodes>
            0 -1 1 -1048593 7319279 -269553970 -2003857749 -1 74835071
            -1056801 -268447745</internalNodes>
          <leafValues>
            -6.0350108146667480e-01 7.7812933921813965e-01</leafValues></_>
        <_>
          <internalNodes>
            0 -1 22 2078267389 465212427 1964131612 1574295903
            2051109364 467257495 1974139389 -603979777</internalNodes>
          <leafValues>
            -6.4226359128952026e-01 6.8832004070281982e-01</leafValues></_>
        <_>
          <internalNodes>
            0 -1 17 -1073494781 -172491077 -268451841 -671615537
            -507772993 -16812033 -629407745 -1068514037</internalNodes>
          <leafValues>
            -5.3017926216125488e-01 7.8170770406723022e-01</leafValues></_>
        <_>
          <internalNodes>
            0 -1 8 -607366916 -35962404 -686989377 -174636 -72295426
            -89431349 -32228353 1330644036</internalNodes>
          <leafValues>
            -8.0275565385818481e-01 5.5594581365585327e-01</leafValues></_>
        <_>
          <internalNodes>
            0 -1 7 -603987221 518698 -2105621982 1078195727 -348420769
            1107498847 -679488506 -211814449</internalNodes>
          <leafValues>
            -6.3225281238555908e-01 6.8172615766525269e-01</leafValues></_>
        <_>
          <internalNodes>
            0 -1 14 -3074 999592272 152045144 923799576 -1606110808
            134763405 957617320 -2049</internalNodes>
          <leafValues>
            -5.9969967603683472e-01 6.6303730010986328e-01</leafValues></_>
        <_>
          <internalNodes>
            0 -1 21 -4203522 -1755696468 676077616 772841884 -1580551672
            448811144 884488832 2147482623</internalNodes>
          <leafValues>
            -7.2872447967529297e-01 5.6044310331344604e-01</leafValues></_></weakClassifiers></_>
    <!-- stage 2 -->
    <_>
      <maxWeakCount>9</maxWeakCount>
      <stageThreshold>2.1856242418289185e-01</stageThreshold>
      <weakClassifiers>
        <_>
          <internalNodes>
            0 -1 16 -197123 -250019 -196611 -1073968043 -65539
            -1073807363 -65537 -1371928575</internalNodes>
          <leafValues>
            -5.8326429128646851e-01 7.6838380098342896e-01</leafValues></_>
        <_>
          <internalNodes>
            0 -1 3 -1440030469 -830989 1877966847 -34121995 -286547457
            -269528591 -1880636165 -806924043</internalNodes>
          <leafValues>
            -5.3873950242996216e-01 7.4074643850326538e-01</leafValues></_>
        <_>
          <internalNodes>
            0 -1 4 -18952962 -549510732 -36274689 -594238960 -89133313
            -71647077 -268633121 -185744193</internalNodes>
          <leafValues>
            -7.7492433786392212e-01 5.5615663528442383e-01</leafValues></_>
        <_>
          <internalNodes>
            0 -1 2 -44123138 -539272769 -1985605633 -1108367158
            -107042113 -73688647 -1952773381 -1345386257</internalNodes>
          <leafValues>
            -6.2394797801971436e-01 6.0819351673126221e-01</leafValues></_>
        <_>
          <internalNodes>
            0 -1 19 1069301240 1073407965 2064031231 -541132003
            2078833147 -1141184375 -7410753 -1414862101</internalNodes>
          <leafValues>
            -8.0998396873474121e-01 4.6108043193817139e-01</leafValues></_>
        <_>
          <internalNodes>
            0 -1 20 -1073496062 -610291021 38392275 -181423553
            -347343429 -358774645 -57683477 -1038105853</internalNodes>
          <leafValues>
            -6.1605906486511230e-01 6.2222725152969360e-01</leafValues></_>
        <_>
          <internalNodes>
            0 -1 6 1759502191 -1058553918 68016078 -98186 1194050353
            866955197 1682433083 -33564673</internalNodes>
          <leafValues>
            -6.2284028530120850e-01 5.7767564058303833e-01</leafValues></_>
        <_>
          <internalNodes>
            0 -1 15 -1067196414 -746340193 -1023295341 -1868575793
            -1070603905 -389619710 -133576069 1078982427</internalNodes>
          <leafValues>
            -6.9299316406250000e-01 4.9098879098892212e-01</leafValues></_>
        <_>
          <internalNodes>
            0 -1 13 -2145364651 -1152136235 220446207 -1615612417
            -1206182401 -72718198 -1152678209 -1140908033</internalNodes>
          <leafValues>
            -6.4467513561248779e-01 5.2156579494476318e-01</leafValues></_></weakClassifiers></_></stages>
  <features>
    <_>
      <rect>
        0 1 13 1</rect></_>
    <_>
      <rect>
        0 2 4 3</rect></_>
    <_>
      <rect>
        0 2 17 1</rect></_>
    <_>
      <rect>
        1 0 3 1</rect></_>
    <_>
      <rect>
        1 1 9 1</rect></_>
    <_>
      <rect>
        1 7 14 2</rect></_>
    <_>
      <rect>
        2 2 2 1</rect></_>
    <_>
      <rect>
        5 3 1 2</rect></_>
    <_>
      <rect>
        6 1 16 1</rect></_>
    <_>
      <rect>
        6 2 18 1</rect></_>
    <_>
      <rect>
        9 0 10 1</rect></_>
    <_>
      <rect>
        9 8 17 1</rect></_>
    <_>
      <rect>
        9 9 17 1</rect></_>
    <_>
      <rect>
        15 0 3 1</rect></_>
    <_>
      <rect>
        30 7 1 2</rect></_>
    <_>
      <rect>
        31 0 2 3</rect></_>
    <_>
      <rect>
        31 10 7 1</rect></_>
    <_>
      <rect>
        35 0 1 2</rect></_>
    <_>
      <rect>
        35 10 7 1</rect></_>
    <_>
      <rect>
        36 9 5 1</rect></_>
    <_>
      <rect>
        44 0 1 2</rect></_>
    <_>
      <rect>
        50 6 1 2</rect></_>
    <_>
      <rect>
        52 9 2 1</rect></_></features></cascade>
</opencv_storage>
