<?xml version="1.0"?>
<opencv_storage>
<stage2>
  <maxWeakCount>9</maxWeakCount>
  <stageThreshold>2.1856242418289185e-01</stageThreshold>
  <weakClassifiers>
    <_>
      <internalNodes>
        0 -1 12061 -197123 -250019 -196611 -1073968043 -65539
        -1073807363 -65537 -1371928575</internalNodes>
      <leafValues>
        -5.8326429128646851e-01 7.6838380098342896e-01</leafValues></_>
    <_>
      <internalNodes>
        0 -1 528 -1440030469 -830989 1877966847 -34121995 -286547457
        -269528591 -1880636165 -806924043</internalNodes>
      <leafValues>
        -5.3873950242996216e-01 7.4074643850326538e-01</leafValues></_>
    <_>
      <internalNodes>
        0 -1 628 -18952962 -549510732 -36274689 -594238960 -89133313
        -71647077 -268633121 -185744193</internalNodes>
      <leafValues>
        -7.7492433786392212e-01 5.5615663528442383e-01</leafValues></_>
    <_>
      <internalNodes>
        0 -1 208 -44123138 -539272769 -1985605633 -1108367158 -107042113
        -73688647 -1952773381 -1345386257</internalNodes>
      <leafValues>
        -6.2394797801971436e-01 6.0819351673126221e-01</leafValues></_>
    <_>
      <internalNodes>
        0 -1 13144 1069301240 1073407965 2064031231 -541132003
        2078833147 -1141184375 -7410753 -1414862101</internalNodes>
      <leafValues>
        -8.0998396873474121e-01 4.6108043193817139e-01</leafValues></_>
    <_>
      <internalNodes>
        0 -1 14301 -1073496062 -610291021 38392275 -181423553 -347343429
        -358774645 -57683477 -1038105853</internalNodes>
      <leafValues>
        -6.1605906486511230e-01 6.2222725152969360e-01</leafValues></_>
    <_>
      <internalNodes>
        0 -1 1169 1759502191 -1058553918 68016078 -98186 1194050353
        866955197 1682433083 -33564673</internalNodes>
      <leafValues>
        -6.2284028530120850e-01 5.7767564058303833e-01</leafValues></_>
    <_>
      <internalNodes>
        0 -1 11836 -1067196414 -746340193 -1023295341 -1868575793
        -1070603905 -389619710 -133576069 1078982427</internalNodes>
      <leafValues>
        -6.9299316406250000e-01 4.9098879098892212e-01</leafValues></_>
    <_>
      <internalNodes>
        0 -1 6768 -2145364651 -1152136235 220446207 -1615612417
        -1206182401 -72718198 -1152678209 -1140908033</internalNodes>
      <leafValues>
        -6.4467513561248779e-01 5.2156579494476318e-01</leafValues></_></weakClassifiers></stage2>
</opencv_storage>
