<?xml version="1.0"?>
<opencv_storage>
<stage5>
  <maxWeakCount>14</maxWeakCount>
  <stageThreshold>7.5786687433719635e-02</stageThreshold>
  <weakClassifiers>
    <_>
      <internalNodes>
        0 -1 2201 1534534191 590324495 1613619742 573564607 -764439747
        -1507344795 -578816213 2004877263</internalNodes>
      <leafValues>
        -4.7641071677207947e-01 6.6129636764526367e-01</leafValues></_>
    <_>
      <internalNodes>
        0 -1 15105 -75776004 -1946455173 822237053 -577155041
        -1952474408 792445061 719980144 -1439433477</internalNodes>
      <leafValues>
        -5.7102692127227783e-01 5.3198069334030151e-01</leafValues></_>
    <_>
      <internalNodes>
        0 -1 3594 -75502641 -2111067218 -2143207198 34005965 -857814257
        45809951 1473217079 1136646143</internalNodes>
      <leafValues>
        -6.1488652229309082e-01 4.2776128649711609e-01</leafValues></_>
    <_>
      <internalNodes>
        0 -1 3410 -792177327 1568907475 -1651288705 -1621134885
        -1988061041 -561782352 -1098759749 -1900081957</internalNodes>
      <leafValues>
        -5.3994160890579224e-01 5.1062506437301636e-01</leafValues></_>
    <_>
      <internalNodes>
        0 -1 9881 -2147236093 -172033 -150994945 -2561 -142606337
        -50331649 -301992453 -747903649</internalNodes>
      <leafValues>
        -4.6769705414772034e-01 5.8461856842041016e-01</leafValues></_>
    <_>
      <internalNodes>
        0 -1 2617 -1233388595 178513606 1528029410 -52706130 1778920431
        -1078525141 277439210 1347908150</internalNodes>
      <leafValues>
        -7.0290738344192505e-01 3.3996766805648804e-01</leafValues></_>
    <_>
      <internalNodes>
        0 -1 96 -360258826 2131378522 -1918762731 1245970432 545701899
        -1081212799 -909598501 2070909599</internalNodes>
      <leafValues>
        -7.2643953561782837e-01 3.3356490731239319e-01</leafValues></_>
    <_>
      <internalNodes>
        0 -1 14040 -224399232 -500518909 -1936277485 -2105345390
        -96370545 -1205157853 2009559107 1125111199</internalNodes>
      <leafValues>
        -6.5236490964889526e-01 3.5713437199592590e-01</leafValues></_>
    <_>
      <internalNodes>
        0 -1 11561 2022789597 -948942811 -989592107 1536727353
        -895712339 -1154954799 -97977857 -860989071</internalNodes>
      <leafValues>
        -5.3827780485153198e-01 4.7857922315597534e-01</leafValues></_>
    <_>
      <internalNodes>
        0 -1 373 -7608577 1699178171 -298932103 252291135 -168993
        -1348518418 -542144529 -808460801</internalNodes>
      <leafValues>
        -4.6400836110115051e-01 5.4707086086273193e-01</leafValues></_>
    <_>
      <internalNodes>
        0 -1 15313 261816792 -1287453553 -1673396132 1047277780
        -1550709765 -90664566 2056129016 -74804457</internalNodes>
      <leafValues>
        -5.6103360652923584e-01 4.5913916826248169e-01</leafValues></_>
    <_>
      <internalNodes>
        0 -1 5128 489689213 -1080082293 -1858841195 -6334425 1936626683
        -310125 -1366376309 637722719</internalNodes>
      <leafValues>
        -6.3178169727325439e-01 4.1224932670593262e-01</leafValues></_>
    <_>
      <internalNodes>
        0 -1 14387 -607394197 1795891718 5294738 1883673602 -919928244
        154296389 -1021579102 1902368603</internalNodes>
      <leafValues>
        -6.0274195671081543e-01 4.4149044156074524e-01</leafValues></_>
    <_>
      <internalNodes>
        0 -1 15205 -1730165341 1771303519 -879274749 -2134667101
        1686606083 -2117870510 -259197917 381803957</internalNodes>
      <leafValues>
        -7.1886736154556274e-01 3.5724347829818726e-01</leafValues></_></weakClassifiers></stage5>
</opencv_storage>
