<?xml version="1.0"?>
<opencv_storage>
<stage0>
  <maxWeakCount>6</maxWeakCount>
  <stageThreshold>-8.3647370338439941e-02</stageThreshold>
  <weakClassifiers>
    <_>
      <internalNodes>
        0 -1 4714 353371160 2144670037 318775261 -551726755 940583160
        -1400143 680045566 -1440573270</internalNodes>
      <leafValues>
        -8.8566243648529053e-01 8.4063446521759033e-01</leafValues></_>
    <_>
      <internalNodes>
        0 -1 128 -712735010 -6487824 1564527583 -49020212 -74862593
        -71792451 -611807489 -1308532</internalNodes>
      <leafValues>
        -7.8133481740951538e-01 8.1826323270797729e-01</leafValues></_>
    <_>
      <internalNodes>
        0 -1 12946 -196611 -246283 -196611 -541250027 -4915204 -202756
        -17121287 -1464336384</internalNodes>
      <leafValues>
        -7.7277213335037231e-01 8.1615817546844482e-01</leafValues></_>
    <_>
      <internalNodes>
        0 -1 3133 -175048716 -40435245 219252877 -1650524022 -1988056641
        -272954967 193464362 254345738</internalNodes>
      <leafValues>
        -7.8075194358825684e-01 7.1324735879898071e-01</leafValues></_>
    <_>
      <internalNodes>
        0 -1 4697 -1269723652 -606924335 420479295 -1080754021
        -201217601 -1145501446 453707945 730800267</internalNodes>
      <leafValues>
        -7.7815026044845581e-01 7.6676440238952637e-01</leafValues></_>
    <_>
      <internalNodes>
        0 -1 946 -59445252 -578778112 184583422 -1928855474 -107348483
        -71792199 -578230017 -1076261921</internalNodes>
      <leafValues>
        -8.1374651193618774e-01 6.4381271600723267e-01</leafValues></_></weakClassifiers></stage0>
</opencv_storage>
